<unk>	0
<s>	0
</s>	0
▁	-2.54415
.	-4.07754
ที่	-4.50236
ของ	-4.69662
และ	-4.94108
ใน	-4.94464
>	-4.97461
▁และ	-4.97938
)	-4.99833
NE	-5.05411
ศ	-5.10755
▁(	-5.10966
เป็น	-5.22746
ได้	-5.32778
"	-5.43143
การ	-5.60055
▁"	-5.62802
น	-5.63452
า	-5.70874
,	-5.72336
ส	-5.74554
ก	-5.76927
มี	-5.77287
</	-5.77497
▁พ	-5.7757
ให้	-5.77655
จาก	-5.87795
ม	-5.89614
มา	-5.89704
กับ	-5.91753
-	-5.96636
ว่า	-6.01034
▁เป็น	-6.0816
ไป	-6.09258
ง	-6.12976
ด	-6.14985
▁โดย	-6.15104
<	-6.19941
ต	-6.21509
จะ	-6.21929
นี้	-6.24292
▁ซึ่ง	-6.24956
▁ค	-6.26608
ค	-6.28406
ตัว	-6.33793
โดย	-6.35332
ล	-6.35537
▁1	-6.35874
ทาง	-6.39016
ว	-6.40101
▁2	-6.42572
ด้วย	-6.4384
ท	-6.47664
กัน	-6.48361
พ	-6.48519
ย	-6.48535
บ	-6.50224
▁แต่	-6.50595
นั้น	-6.50945
▁หรือ	-6.50997
s	-6.54138
ความ	-6.55102
/	-6.56773
ร	-6.5735
▁มี	-6.58095
▁ใน	-6.59179
แล้ว	-6.60154
หรือ	-6.60238
อ	-6.60882
ป	-6.63777
อยู่	-6.65342
▁<	-6.65655
ก็	-6.66864
▁3	-6.67592
▁ๆ	-6.67631
อย่าง	-6.68652
ต่อ	-6.69985
ไม่	-6.70398
ผู้	-6.70691
เพื่อ	-6.73473
น้ํา	-6.76007
ตาม	-6.7852
ถูก	-6.78597
ดี	-6.80765
แห่ง	-6.81027
ใช้	-6.8165
ขึ้น	-6.82867
ถึง	-6.8301
แบบ	-6.84051
คือ	-6.84436
คน	-6.86156
ห	-6.86721
พระ	-6.89456
ปี	-6.90003
ทํา	-6.90182
ไทย	-6.91123
ร์	-6.92517
นา	-6.92539
อีก	-6.95622
▁19	-6.96228
▁คือ	-6.9629
เมื่อ	-6.98516
▁()	-6.99516
▁ปี	-6.99622
▁4	-7.00276
ช	-7.0187
เมือง	-7.02196
e	-7.05208
เรื่อง	-7.05508
หนึ่ง	-7.05751
ที่มี	-7.07976
งาน	-7.08047
▁24	-7.0994
▁เมื่อ	-7.10175
ะ	-7.10602
ใหม่	-7.10702
ฟ	-7.13189
ทั้ง	-7.14472
y	-7.14716
จ	-7.15013
ซึ่ง	-7.15527
ตา	-7.15863
▁การ	-7.16009
เขา	-7.16243
ส์	-7.16331
จึง	-7.16671
่	-7.17632
▁5	-7.17751
สามารถ	-7.18376
ในการ	-7.18405
ยา	-7.18481
ลา	-7.18773
เพลง	-7.18916
ชื่อ	-7.19219
ในปี	-7.19355
ๆ	-7.19448
เข้า	-7.21492
:	-7.21768
▁คน	-7.22416
ออก	-7.22683
กา	-7.2382
ประเทศ	-7.24352
▁เช่น	-7.24594
ลง	-7.2487
ทรง	-7.26337
มาก	-7.26388
AB	-7.26408
ต้อง	-7.267
ระหว่าง	-7.27469
ยัง	-7.27733
ด้าน	-7.28099
”	-7.28267
โอ	-7.28473
นํา	-7.29165
รี	-7.29787
นาย	-7.3088
เ	-7.30927
▁ได้	-7.3117
หน้า	-7.31317
กลุ่ม	-7.31614
วง	-7.31886
บ้าน	-7.32063
สร้าง	-7.32217
รา	-7.33129
▁เพื่อ	-7.33409
ใจ	-7.33565
▁“	-7.35049
o	-7.35063
ซี	-7.35145
รับ	-7.35873
วัน	-7.35899
ต่าง	-7.36053
อา	-7.36729
บน	-7.37032
กว่า	-7.3818
ไว้	-7.39203
จังหวัด	-7.39235
ใหญ่	-7.40277
แต่	-7.41151
ลี	-7.41396
พื้นที่	-7.41916
เสียง	-7.42248
n	-7.43005
t	-7.44258
อยู่ใน	-7.44422
ประมาณ	-7.44478
ลิ	-7.44578
เอ	-7.44583
ผล	-7.44715
วัด	-7.4567
▁6	-7.46056
ภาพ	-7.46823
ริ	-7.46997
S	-7.4728
หลัง	-7.48531
▁ณ	-7.4857
มิ	-7.48829
เล	-7.48838
a	-7.50111
ทุก	-7.50135
▁ส่วน	-7.50661
สําหรับ	-7.51279
ธ	-7.51434
หา	-7.52159
ระบบ	-7.52394
▁ในปี	-7.52869
แรก	-7.53091
ที่จะ	-7.53602
มาจาก	-7.54356
คํา	-7.54386
A	-7.54431
สอง	-7.54564
ทั้งหมด	-7.54674
เกิด	-7.5481
เงิน	-7.55241
th	-7.55556
ฯ	-7.55727
ชาว	-7.56342
เร	-7.56831
ทําให้	-7.5691
ระดับ	-7.57295
จน	-7.58363
รวม	-7.58428
al	-7.58528
▁7	-7.58577
ซ	-7.58601
วิ	-7.58729
เม	-7.58961
v	-7.59198
P	-7.59417
ผ่าน	-7.59866
คา	-7.59931
ดู	-7.60039
โร	-7.60703
นิ	-7.60921
แสดง	-7.61213
ราช	-7.61455
ข่าว	-7.61733
จัด	-7.62
สูง	-7.6201
ต่างๆ	-7.62036
สี	-7.62081
้	-7.62213
ส่ง	-7.62402
er	-7.62717
อื่น	-7.63094
วา	-7.63536
กลาง	-7.63607
ย์	-7.63679
ได้รับ	-7.6374
▁S	-7.63851
ข	-7.64529
▁-	-7.64685
์	-7.65135
ดา	-7.6516
คุณ	-7.65418
โลก	-7.65732
โก	-7.6583
ไม่ได้	-7.65925
ประจํา	-7.6596
หลัก	-7.67144
ทีม	-7.67149
พัฒนา	-7.67171
▁ซึ่งเป็น	-7.67177
โรงเรียน	-7.67375
ซา	-7.67494
หลาย	-7.67513
▁18	-7.68181
ที	-7.6891
▁10	-7.69008
r	-7.6931
C	-7.70166
ก่อน	-7.70733
ส่วน	-7.71158
ลูก	-7.7137
in	-7.71505
ฝ่าย	-7.72487
c	-7.72524
ชั้น	-7.72611
เน	-7.72703
ดังกล่าว	-7.73025
เวลา	-7.73121
▁จึง	-7.73325
M	-7.73469
การศึกษา	-7.73494
▁8	-7.73893
เซ	-7.74068
l	-7.74265
โน	-7.74311
อาหาร	-7.7433
กําลัง	-7.74374
ตั้ง	-7.74378
เธอ	-7.74398
T	-7.74863
เดิม	-7.7525
▁เพราะ	-7.75654
ชิ	-7.75679
▁2560	-7.75709
นี	-7.76043
แม่	-7.76295
บาง	-7.76414
นัก	-7.76432
พิ	-7.76583
เด็ก	-7.76618
รูป	-7.77203
ทหาร	-7.77238
ติ	-7.77406
or	-7.77571
ภาษา	-7.77987
ข้อมูล	-7.78274
เปิด	-7.78325
สาย	-7.78483
รัฐบาล	-7.78747
f	-7.78862
ประชาชน	-7.78907
มัน	-7.78963
โครงการ	-7.79009
ละ	-7.79037
กระ	-7.7907
จิ	-7.79155
โม	-7.79214
▁โดยมี	-7.79282
u	-7.79533
โค	-7.79572
.</	-7.79596
ขอ	-7.80119
จํานวน	-7.80392
E	-7.80847
▁เขา	-7.81057
พา	-7.8115
เครื่อง	-7.81215
โต	-7.81453
สาร	-7.81821
เมื่อวันที่	-7.8186
รัก	-7.8213
▁ทําให้	-7.82418
▁นาย	-7.8246
ร่วม	-7.82628
ต์	-7.8279
ค่า	-7.83252
ชุด	-7.83338
ชีวิต	-7.83401
แก่	-7.83426
เริ่ม	-7.83515
บา	-7.83538
▁P	-7.83585
อัน	-7.83864
d	-7.83919
กิ	-7.83959
เล่น	-7.84076
รัฐ	-7.84084
ระ	-7.8418
ภาค	-7.84621
(	-7.84758
an	-7.84793
มหาวิทยาลัย	-7.86215
รถ	-7.86375
▁9	-7.86533
พล	-7.86906
▁ประเทศ	-7.87072
มือ	-7.87178
▁:	-7.87284
เรือ	-7.87359
เพียง	-7.87415
เรียก	-7.8758
...	-7.87999
i	-7.88055
ธรรม	-7.88098
D	-7.88418
มีการ	-7.88579
ทอง	-7.88626
เจ้า	-7.88694
อาจ	-7.88851
จีน	-7.89256
โด	-7.89624
พระองค์	-7.89991
บริเวณ	-7.90124
เสีย	-7.90126
p	-7.90134
ประ	-7.90249
โล	-7.90315
เรียน	-7.90903
คณะ	-7.91173
เด	-7.91265
สัตว์	-7.91732
ต้น	-7.91827
ตําแหน่ง	-7.91891
ing	-7.92185
เกี่ยวกับ	-7.92645
▁จังหวัด	-7.92646
พิเศษ	-7.93452
ภายใน	-7.93631
k	-7.93766
▁ได้แก่	-7.93778
ให้กับ	-7.94038
เข้ามา	-7.9421
เดียว	-7.94414
ชาติ	-7.94427
ชัย	-7.94447
่ง	-7.94834
ทํางาน	-7.94943
บี	-7.95199
เห็น	-7.95461
รายการ	-7.9557
B	-7.957
พบ	-7.9598
สาม	-7.97035
▁15	-7.97111
เก	-7.97114
กลับ	-7.97418
ที่สุด	-7.97528
สม	-7.97679
ตั้งแต่	-7.97758
เว	-7.98245
ได้รับการ	-7.98347
ซิ	-7.98387
▁จาก	-7.98678
มากกว่า	-7.98848
ชาย	-7.99436
สําคัญ	-7.99565
▁B	-7.99822
▁ต่อมา	-7.99824
นิยม	-8.00198
ช่วย	-8.00427
▁C	-8.00805
▁20	-8.00848
ภาพยนตร์	-8.00982
▁12	-8.0099
ศึกษา	-8.0103
สงคราม	-8.01275
le	-8.01318
แห่งชาติ	-8.01995
จะมี	-8.02151
▁of	-8.02159
ไม่มี	-8.02195
ของเขา	-8.02581
w	-8.02621
ออกมา	-8.02743
ar	-8.02841
เบ	-8.02935
m	-8.03171
ที่เป็น	-8.03193
กะ	-8.03434
เลย	-8.03621
เดียวกัน	-8.04264
ป่า	-8.04534
แทน	-8.04548
รอบ	-8.05313
เพราะ	-8.05318
เอา	-8.05349
บริษัท	-8.05722
อังกฤษ	-8.05785
น้อย	-8.06103
▁ปัจจุบัน	-8.0623
en	-8.06418
ดิ	-8.06499
จริง	-8.06945
กําหนด	-8.06956
มีความ	-8.07096
ชา	-8.071
จุด	-8.07173
เหนือ	-8.07271
สุ	-8.07362
วี	-8.07595
เขต	-8.07626
▁16	-8.07815
▁เนื่องจาก	-8.08155
ไม้	-8.08219
ยาว	-8.08765
▁A	-8.0889
สู่	-8.09014
ครู	-8.09129
รุ	-8.09137
นาง	-8.09189
▁M	-8.09308
ิ	-8.09467
ดาว	-8.09512
แยก	-8.0961
คู่	-8.0964
เพิ่ม	-8.09649
แนว	-8.0994
เช่น	-8.09981
ข้อ	-8.10183
▁G	-8.10189
on	-8.10273
กฎหมาย	-8.10278
เจ	-8.10322
สังคม	-8.10367
L	-8.10433
วันที่	-8.10615
I	-8.10671
มหา	-8.1093
ทา	-8.11012
ซ์	-8.1126
ั	-8.11286
โรค	-8.11384
ไอ	-8.11467
ใบ	-8.11533
อิ	-8.11586
เท่านั้น	-8.11636
เต	-8.11757
เอง	-8.11851
ประกาศ	-8.1208
อี	-8.12378
น์	-8.12652
ผลิต	-8.12798
สิ่ง	-8.12946
องค์	-8.13001
ตะ	-8.1303
หัว	-8.13265
อํานาจ	-8.13331
หนังสือ	-8.13436
O	-8.13441
ชน	-8.13621
มะ	-8.13679
การแข่งขัน	-8.13694
การพัฒนา	-8.13767
ใด	-8.13828
R	-8.13843
กร	-8.1401
ทะเล	-8.14069
b	-8.14166
go	-8.14299
ช่วง	-8.14644
เรา	-8.14685
โซ	-8.14761
อุตสาหกรรม	-8.148
คิด	-8.15109
กรม	-8.15249
หญิง	-8.15289
00	-8.15318
เกม	-8.15394
ปัจจุบัน	-8.15575
▁H	-8.15621
ในช่วง	-8.15776
โท	-8.16092
ประเภท	-8.1648
ณ	-8.16861
ปา	-8.1701
ปัญหา	-8.17155
ปลา	-8.17302
ญี่ปุ่น	-8.17526
ต่อไป	-8.17605
เค	-8.17787
กิน	-8.17953
www	-8.18145
ติด	-8.18277
▁17	-8.18305
▁สําหรับ	-8.18689
▁11	-8.18809
เอก	-8.18829
ตี	-8.1885
ใต้	-8.18878
เส้น	-8.19102
ศรี	-8.19154
สัน	-8.19237
อําเภอ	-8.19298
H	-8.19536
▁14	-8.19557
อายุ	-8.19596
รักษา	-8.19698
'	-8.19867
ฉ	-8.19917
หลวง	-8.19971
ยู	-8.20198
ถนน	-8.20203
เกาะ	-8.20549
จากการ	-8.20587
เฟ	-8.20856
ญ	-8.20884
กระทรวง	-8.21173
เขียน	-8.21782
เหมือน	-8.22226
เชิง	-8.22303
▁สิงหาคม	-8.22845
ชุมชน	-8.22889
1	-8.23238
บุคคล	-8.23293
▁F	-8.23346
วาง	-8.23788
เล็ก	-8.2397
2	-8.24021
g	-8.24168
▁13	-8.24491
กุ	-8.24614
ประเทศไทย	-8.24755
รูปแบบ	-8.24834
F	-8.24846
ทําเนียบรัฐบาล	-8.24938
จะต้อง	-8.25067
พืช	-8.25688
▁นอกจากนี้	-8.25739
ประกอบ	-8.258
โย	-8.25888
รุ่น	-8.26182
คณะกรรมการ	-8.26334
re	-8.26335
▁ตุลาคม	-8.26367
▁เป็นต้น	-8.26425
▁23	-8.26584
ศาสตร์	-8.26679
เท	-8.26692
แสง	-8.26845
G	-8.26958
วงศ์	-8.27057
เศรษฐกิจ	-8.2749
เคย	-8.27543
▁มีนาคม	-8.27652
ในวันที่	-8.27734
▁the	-8.27789
ขนาด	-8.28072
มนุษย์	-8.28104
นายกรัฐมนตรี	-8.28111
▁ผู้	-8.28232
เป็นผู้	-8.28291
▁D	-8.2841
h	-8.28505
ท่าน	-8.28605
นะ	-8.28673
ขาย	-8.28696
สมาชิก	-8.28697
เป	-8.28801
อุ	-8.28932
at	-8.29156
N	-8.29167
://	-8.29178
ed	-8.29464
▁จน	-8.29933
ไฟ	-8.29987
us	-8.30055
▁–	-8.30125
ยุค	-8.30171
ทั้งสอง	-8.30176
ราย	-8.30197
ที่ใช้	-8.30226
นอก	-8.30249
ch	-8.30413
▁เมษายน	-8.30621
จี	-8.3084
▁http	-8.30881
พันธุ์	-8.30894
▁รวมทั้ง	-8.31059
ลู	-8.31376
ตอน	-8.31784
▁กุมภาพันธ์	-8.31791
▁E	-8.31886
ศูนย์	-8.31909
ดิน	-8.3197
▁อําเภอ	-8.3197
ส่วนใหญ่	-8.3204
โบ	-8.32247
เข้าร่วม	-8.32415
พอ	-8.32423
it	-8.32476
แดง	-8.32576
ทั่วไป	-8.32732
การใช้	-8.32756
เฉพาะ	-8.32772
▁กันยายน	-8.32776
อยู่ที่	-8.33019
หน่วยงาน	-8.33152
▁พฤษภาคม	-8.33472
มัก	-8.33905
ก็ได้	-8.34002
▁กรกฎาคม	-8.3403
ษ	-8.34086
▁เมื่อวันที่	-8.34109
ดําเนินการ	-8.34114
พี	-8.34143
ฐาน	-8.34192
ไปยัง	-8.34211
เปลี่ยน	-8.34305
กลายเป็น	-8.34404
คอ	-8.34408
is	-8.34452
เก็บ	-8.34458
ตลาด	-8.34536
▁L	-8.34581
▁ที่มา	-8.34633
ข้าง	-8.34678
▁ธันวาคม	-8.34792
ยก	-8.34835
ลํา	-8.35041
กลับมา	-8.3543
อื่นๆ	-8.35485
นคร	-8.35585
เห	-8.35624
ปาก	-8.35773
ลด	-8.35919
ชนิด	-8.36081
สุด	-8.36303
กอง	-8.36314
อันดับ	-8.36367
หน่วย	-8.36377
เลือก	-8.36456
▁มกราคม	-8.3675
ตัน	-8.36766
สิทธิ	-8.36806
สนับสนุน	-8.36885
news	-8.36913
อัลบั้ม	-8.37246
ออกจาก	-8.37307
พร้อม	-8.37525
อีกครั้ง	-8.37534
ตน	-8.37598
สมเด็จพระ	-8.37786
พรรค	-8.37951
พูด	-8.38443
ตก	-8.38543
รอ	-8.38674
แม่น้ํา	-8.38776
ครอบครัว	-8.38999
กีฬา	-8.39141
สาว	-8.39279
เกิดขึ้น	-8.39599
พวก	-8.39626
ตาย	-8.39954
เลี้ยง	-8.39975
ยอด	-8.40026
▁แล้ว	-8.40194
ราว	-8.40417
เสียชีวิต	-8.40536
่า	-8.4054
ี	-8.40579
ทิ	-8.40628
▁แห่ง	-8.40699
เดิน	-8.40826
จะเป็น	-8.4095
สมัย	-8.40956
สูงสุด	-8.41007
รู้	-8.41011
บท	-8.4106
น่า	-8.41146
พระเจ้า	-8.41154
สี่	-8.41199
พระราช	-8.4123
อาคาร	-8.41399
ตรง	-8.41577
สวน	-8.41622
▁รัฐบาลไทย	-8.41631
สภา	-8.41687
ตรา	-8.41834
ไซ	-8.41933
รู	-8.42166
เตอร์	-8.4218
ข้าว	-8.42387
▁และมี	-8.42475
เช	-8.42568
พร	-8.42616
▁พฤศจิกายน	-8.42628
อะไร	-8.4266
▁W	-8.42772
ถ	-8.42826
นักเรียน	-8.43075
เรียกว่า	-8.43099
ท่า	-8.43116
อากาศ	-8.43137
ตัด	-8.4315
thaigo	-8.43344
นโยบาย	-8.43449
กองทัพ	-8.43588
ผลงาน	-8.43659
ของประเทศ	-8.43723
details	-8.43822
contents	-8.43923
–	-8.43946
ผม	-8.43956
เนื้อ	-8.44202
อิน	-8.44208
ฝรั่งเศส	-8.44223
จา	-8.44582
▁มิถุนายน	-8.4473
ตลอด	-8.44765
สนาม	-8.44806
el	-8.44824
กรรม	-8.44992
เป็นการ	-8.45292
แมน	-8.45347
บริการ	-8.45461
เหล่านี้	-8.45575
เต็ม	-8.45644
ขึ้นมา	-8.45757
แค	-8.45793
เทพ	-8.46027
▁ก็	-8.46215
อ่อน	-8.46422
พัน	-8.46543
0	-8.46616
เย	-8.46723
สา	-8.46738
ซู	-8.46744
▁จํานวน	-8.46747
ปลาย	-8.47228
คืน	-8.47247
พ่อ	-8.47313
ra	-8.47349
▁ทั้งนี้	-8.47375
ur	-8.47458
▁มหาวิทยาลัย	-8.47491
เหตุการณ์	-8.47582
เดือน	-8.47622
ศักดิ์	-8.4763
แผน	-8.47682
วน	-8.47738
ออกอากาศ	-8.47777
ห์	-8.47915
ห้อง	-8.48048
้อ	-8.48077
แก้ว	-8.48233
คง	-8.48275
สภาพ	-8.48367
ออกไป	-8.48582
▁เธอ	-8.48704
ใส่	-8.48781
นี่	-8.48872
เอส	-8.48918
ตํารวจ	-8.48928
นก	-8.49031
▁30	-8.49167
ไท	-8.49245
ไร	-8.49282
ร่าง	-8.49293
คะแนน	-8.49397
สกุล	-8.49407
วิทยา	-8.49424
อีกด้วย	-8.49739
สินค้า	-8.49958
▁จะ	-8.50181
หิน	-8.50313
รอง	-8.50339
ต่อมา	-8.50568
เอเชีย	-8.50707
พระบาทสมเด็จพระ	-8.51067
▁ตาม	-8.51128
บอก	-8.51152
อะ	-8.5126
ร้อง	-8.51358
สืบ	-8.51404
ควบคุม	-8.5149
เจ้าหน้าที่	-8.51493
บุ	-8.51693
ฉบับ	-8.51807
▁ถึง	-8.5181
ฮิ	-8.519
ในประเทศไทย	-8.52007
▁N	-8.52062
สถาบัน	-8.52239
ลีก	-8.52396
อาชีพ	-8.52484
แรง	-8.52488
▁21	-8.5257
ic	-8.52652
เฮ	-8.52774
ยังคง	-8.52792
ธุรกิจ	-8.52824
▁25	-8.52866
ตร	-8.5288
ร่วมกัน	-8.52884
จู	-8.5295
ภ	-8.53109
ครั้งแรก	-8.53125
มากขึ้น	-8.53194
ปิด	-8.53199
เทคโนโลยี	-8.53326
ลักษณะ	-8.53373
แต่ละ	-8.53505
ดํารงตําแหน่ง	-8.53592
▁T	-8.53751
▁หลังจาก	-8.53799
จับ	-8.53808
ือ	-8.53882
ไม่สามารถ	-8.5395
เส	-8.54211
ครั้ง	-8.54225
การแสดง	-8.5423
กล่าว	-8.54307
กรุง	-8.54427
ใคร	-8.54456
ดูแล	-8.54574
สํานักงาน	-8.54603
สโมสร	-8.54805
ท์	-8.54807
จิต	-8.54985
ดนตรี	-8.55091
ไฟฟ้า	-8.5514
ส่งเสริม	-8.55202
ฮา	-8.55237
เจริญ	-8.55516
ในพื้นที่	-8.55525
พิจารณา	-8.55574
▁ดังนั้น	-8.55628
ลาย	-8.55772
เข้าไป	-8.55874
้า	-8.55938
ีย	-8.55958
๋	-8.5624
ถือ	-8.56458
ราคา	-8.56494
ศาล	-8.56516
ขา	-8.56582
▁ทั้ง	-8.56655
4	-8.56723
ตะวันตก	-8.56856
มักจะ	-8.57115
▁2561	-8.57121
ชอบ	-8.57318
แอ	-8.57354
แพทย์	-8.57554
อักษร	-8.57693
แบ่ง	-8.57835
วิธี	-8.57937
),	-8.58217
มุ	-8.5834
ราชวงศ์	-8.58427
กรณี	-8.58547
อาการ	-8.58657
ท้องถิ่น	-8.58658
เพื่อน	-8.5892
ดําเนิน	-8.59064
บิ	-8.59075
ให้เป็น	-8.59357
๊	-8.59378
ซื้อ	-8.59524
ย่อย	-8.59569
เสนอ	-8.59628
▁K	-8.59638
▁(;	-8.59661
ation	-8.59715
วิทยาศาสตร์	-8.59879
▁พระ	-8.59948
เนื่องจาก	-8.60216
วัย	-8.60242
▁22	-8.60304
รางวัล	-8.60365
ไม่ใช่	-8.60492
ฮ	-8.60684
ตําบล	-8.60702
ประกอบด้วย	-8.60799
ขนาดใหญ่	-8.60802
ดํา	-8.6087
ปิ	-8.60957
พิธี	-8.61088
สํานัก	-8.61296
▁และเป็น	-8.6135
พลังงาน	-8.61383
▁เมตร	-8.6142
แต่ง	-8.61439
หอ	-8.61752
▁หาก	-8.61787
ช่อง	-8.62167
มอบ	-8.6242
มาร์	-8.62735
et	-8.62738
วัฒนธรรม	-8.62846
▁๑	-8.62866
การค้า	-8.62908
▁ถ้า	-8.63345
ri	-8.63495
เหตุ	-8.63517
ยึด	-8.63533
▁เวลา	-8.63547
ร่วมกับ	-8.63581
ละคร	-8.6368
มอง	-8.63684
ที่สําคัญ	-8.63807
มากที่สุด	-8.63849
แซ	-8.63861
โจ	-8.63924
อาจจะ	-8.64081
จบ	-8.64229
ก่อตั้ง	-8.64262
องค์กร	-8.6427
st	-8.64344
ขยาย	-8.64389
นับ	-8.64412
ลอ	-8.64545
ประโยชน์	-8.64939
ให้แก่	-8.64989
20	-8.65179
โรงพยาบาล	-8.65455
เลือด	-8.65584
นาม	-8.65652
การประชุม	-8.65656
นัด	-8.65821
ฟุตบอล	-8.65932
am	-8.65941
สมาคม	-8.66002
สุดท้าย	-8.66113
พลัง	-8.66297
สถาน	-8.66338
พิมพ์	-8.66364
es	-8.66406
▁จากนั้น	-8.66437
▁รวมถึง	-8.66492
ฉัน	-8.66512
ในปัจจุบัน	-8.66663
W	-8.66689
ราชการ	-8.66747
ุ	-8.66869
▁ตําบล	-8.66872
นาน	-8.6703
50	-8.67067
ผ	-8.67082
▁โรงเรียน	-8.67083
แ	-8.67165
ดัง	-8.67242
เก่า	-8.67375
วิชา	-8.67528
นักแสดง	-8.67558
ul	-8.67592
▁๒	-8.67664
กระบวนการ	-8.67687
ฟา	-8.67774
บู	-8.67785
กว้าง	-8.67985
")	-8.6804
เวอร์	-8.68042
▁พร้อม	-8.682
วร	-8.68267
เพ	-8.68412
โฮ	-8.68439
คุ	-8.6845
ว่าเป็น	-8.68534
ขาด	-8.6857
ภา	-8.68718
สถานที่	-8.68749
กิจกรรม	-8.68801
เตรียม	-8.6884
ัล	-8.6892
คดี	-8.68985
ยะ	-8.68995
การเลือกตั้ง	-8.69021
▁วัน	-8.69108
แม	-8.69116
พบว่า	-8.69194
บุตร	-8.69299
การผลิต	-8.693
มาตรฐาน	-8.69527
ตระกูล	-8.6961
เข้าสู่	-8.69796
กี	-8.69996
ภูมิ	-8.70086
เส้นทาง	-8.70149
ร้อยละ	-8.70302
ตะวันออก	-8.70513
วิทยาลัย	-8.70922
ฟิ	-8.71093
ol	-8.712
อินเดีย	-8.71275
▁ล้านบาท	-8.71289
z	-8.71416
▁ครั้งที่	-8.71438
โพ	-8.71503
ัส	-8.71829
il	-8.71871
%	-8.71887
10	-8.7191
▁อ	-8.72391
ธรรมชาติ	-8.72407
โบราณ	-8.72504
แบ	-8.72566
แผ่นดิน	-8.72583
คลอง	-8.72678
ด์	-8.72717
ในประเทศ	-8.72807
;	-8.73034
ปล่อย	-8.73164
ฺ	-8.73344
พัก	-8.73353
หมด	-8.73424
ความร่วมมือ	-8.73562
เซอร์	-8.73611
ล่า	-8.73783
นักร้อง	-8.73862
สหรัฐอเมริกา	-8.74038
คําว่า	-8.74149
ท้อง	-8.74215
สะ	-8.74278
เซลล์	-8.74378
ที่เกิดขึ้นใน	-8.74383
พยายาม	-8.74469
▁R	-8.74876
V	-8.74942
และการ	-8.75032
▁I	-8.75086
▁วันที่	-8.75127
ต่ํา	-8.75213
กอ	-8.75235
ทุกคน	-8.75265
บุญ	-8.75276
จํา	-8.75324
ศิลปะ	-8.75461
▁สามารถ	-8.75497
ต่างประเทศ	-8.75515
ขาว	-8.75658
ฟ้า	-8.7597
▁โดยเฉพาะ	-8.76006
ช่วยเหลือ	-8.76075
ศาสนา	-8.7611
หมายถึง	-8.76112
ตัวเอง	-8.76121
คัน	-8.76184
ยิง	-8.7619
บริหาร	-8.76333
จักรพรรดิ	-8.76349
สาขา	-8.76625
วัง	-8.76651
ter	-8.76719
ธนาคาร	-8.76755
วิน	-8.76755
ผ้า	-8.77049
ทางด้าน	-8.77068
ฮอ	-8.77091
หลักสูตร	-8.77107
ป้องกัน	-8.77191
ก์	-8.77336
ปกติ	-8.77411
3	-8.77462
เอ็ม	-8.77643
ของเธอ	-8.77673
U	-8.77805
กาย	-8.77812
กู	-8.7794
ro	-8.77964
สอน	-8.78101
คนที่	-8.78254
ก็คือ	-8.78265
▁เหตุการณ์	-8.78316
คะ	-8.78327
ควร	-8.78417
ยังไม่	-8.7856
สัญญา	-8.78808
ศิลปิน	-8.789
ถ้า	-8.78905
ไว	-8.78927
ชู	-8.78929
อาร์	-8.78954
รัสเซีย	-8.78969
่น	-8.79067
็	-8.7913
รอย	-8.79235
นอน	-8.79338
อาศัย	-8.79348
ภาวะ	-8.79349
ก็จะ	-8.79491
มากมาย	-8.79528
▁เอ	-8.7954
อดีต	-8.79549
ที่ถูก	-8.79669
คล้าย	-8.79699
้ง	-8.797
บอ	-8.79767
ัว	-8.79781
เพิ่มขึ้น	-8.79855
ชัน	-8.79979
อง	-8.80015
ซึ่งเป็น	-8.8004
เมื่อปี	-8.80104
ิน	-8.80175
ปรากฏ	-8.80193
K	-8.80306
ร่างกาย	-8.80317
ชนะ	-8.8058
ยิ่ง	-8.8063
รายงาน	-8.8063
ถวาย	-8.80666
ad	-8.80784
▁ทรง	-8.80984
การปกครอง	-8.81297
ทําการ	-8.81411
ธง	-8.81437
ที่ไม่	-8.81547
คอน	-8.81727
ของการ	-8.81773
โอกาส	-8.81844
ตัวละคร	-8.81886
ทุน	-8.81978
▁และได้	-8.81987
ล์	-8.82063
▁and	-8.82264
ผู้ที่	-8.82264
ผิด	-8.8241
▁บริษัท	-8.82694
ดินแดน	-8.82946
ออ	-8.83095
ยุ	-8.83142
ความรู้	-8.83198
ร้อย	-8.83299
บ้าง	-8.83423
▁จ	-8.83451
ได้แก่	-8.83498
สิ	-8.83576
กิจการ	-8.83635
แข่งขัน	-8.83734
▁จํากัด	-8.8376
▁อย่างไรก็ตาม	-8.83801
▁2559	-8.83827
▁กลุ่ม	-8.83886
▁O	-8.83901
ยาก	-8.83912
สื่อ	-8.83951
โป	-8.83956
เป้าหมาย	-8.83969
สุข	-8.84089
ลิน	-8.84148
as	-8.84169
ดังนี้	-8.84274
ระยะ	-8.84346
▁เมือง	-8.84351
ent	-8.84469
บันทึก	-8.84827
องค์การ	-8.84868
x	-8.8514
ิก	-8.85169
▁กิโลเมตร	-8.85291
te	-8.85488
กุล	-8.85575
จัดตั้ง	-8.85588
ดอก	-8.85662
พระราชทาน	-8.85714
งบประมาณ	-8.8573
กล	-8.85749
▁เริ่ม	-8.85797
เนีย	-8.8596
แจ้ง	-8.85975
la	-8.86238
แหล่ง	-8.8624
เป็นหนึ่งใน	-8.86257
ค่าย	-8.86331
แนวทาง	-8.8644
▁J	-8.8644
j	-8.86561
เริ่มต้น	-8.86759
▁อดีต	-8.8683
สิบ	-8.86878
ได	-8.86993
▁ด้วย	-8.87003
วัตถุ	-8.87018
เบอร์	-8.87064
แพ้	-8.8712
อัล	-8.87168
คู	-8.87244
สุขภาพ	-8.87428
แรงงาน	-8.87435
id	-8.87493
กําเนิด	-8.877
ในเรื่อง	-8.87841
ลม	-8.87887
บังคับ	-8.87927
แผ่น	-8.8795
เสด็จ	-8.8797
อาณาจักร	-8.87982
ปฏิบัติ	-8.88119
โครงสร้าง	-8.88153
ทอ	-8.88181
อเมริกา	-8.88436
ac	-8.88548
ในสมัย	-8.88571
เจ้าอยู่หัว	-8.88717
สัปดาห์	-8.88718
จะได้	-8.88754
um	-8.88829
เดินทาง	-8.88933
ระเบิด	-8.88993
้น	-8.89024
แพ	-8.89031
ต้องการ	-8.8922
ว์	-8.89293
ปรับ	-8.89304
▁นายกรัฐมนตรี	-8.89351
ดวง	-8.89396
สถานี	-8.89421
นุ	-8.89725
▁26	-8.89875
ภาษาอังกฤษ	-8.89882
ที่สอง	-8.89914
สมบูรณ์	-8.90085
ความเป็น	-8.90186
คุณภาพ	-8.90216
พุทธ	-8.90321
▁เพื่อให้	-8.90373
งค์	-8.90376
การสร้าง	-8.90456
ครอง	-8.90676
ปกครอง	-8.90758
ยุโรป	-8.90788
หมู่บ้าน	-8.90931
ชี	-8.91
▁0	-8.91059
ประตู	-8.91082
พี่	-8.91083
แล	-8.91137
เป็นคน	-8.91142
บิน	-8.91159
มีลักษณะ	-8.91208
เท่า	-8.91269
▁อา	-8.91291
สั้น	-8.91462
ติดตาม	-8.91595
พื้น	-8.91677
หลังจาก	-8.91701
ตั้งอยู่	-8.91818
มณฑล	-8.91843
ที่ได้	-8.91939
คิ	-8.91944
60	-8.91969
รถไฟ	-8.91995
ในระดับ	-8.92205
ศึก	-8.92371
▁เขต	-8.92419
เพิ่มเติม	-8.92426
กระดูก	-8.92429
สนใจ	-8.92492
อนุ	-8.92589
▁ในวันที่	-8.92684
หาก	-8.92705
สัญลักษณ์	-8.9274
กษัตริย์	-8.92841
เย็น	-8.92845
▁บาท	-8.92857
▁27	-8.92871
ผู้หญิง	-8.92916
▁ซึ่งมี	-8.92941
ยังมี	-8.93028
อั	-8.93082
ัต	-8.93087
เดอร์	-8.93178
เล่า	-8.93216
▁ครั้ง	-8.93257
ตุ	-8.93404
ในเขต	-8.93412
ทําให้เกิด	-8.93503
สหรัฐ	-8.93522
เพศ	-8.93536
แอน	-8.93648
▁นัก	-8.93671
ใกล้	-8.93697
ia	-8.93893
ราบ	-8.93988
ครั้งที่	-8.93993
ซอ	-8.93995
พม่า	-8.9425
om	-8.94263
อม	-8.94385
ด้วยกัน	-8.94451
หนึ่งใน	-8.94474
!	-8.94695
คี	-8.94752
ตนเอง	-8.94807
15	-8.94816
ma	-8.94929
ในฐานะ	-8.95025
se	-8.9522
โทรทัศน์	-8.95233
ออกแบบ	-8.95266
ปริมาณ	-8.95314
เน้น	-8.95378
ฝั่ง	-8.95425
อุปกรณ์	-8.95425
อ่าน	-8.9543
กฎ	-8.95554
วิธีการ	-8.95597
นั่ง	-8.95668
โ	-8.95797
แชมป์	-8.95853
อาวุธ	-8.95871
เปิดตัว	-8.9588
อู	-8.95881
อาจารย์	-8.96207
25	-8.96237
ฟัง	-8.96379
กล่าวว่า	-8.96502
จง	-8.96558
▁เดือน	-8.96639
บัตร	-8.96961
ตรวจ	-8.96961
ชิ้น	-8.96966
30	-8.97234
นํามา	-8.97407
▁ความ	-8.97446
ครั้งนี้	-8.97481
ช่าง	-8.97497
ไล	-8.97554
จํากัด	-8.97697
แถบ	-8.97845
มู	-8.97889
ปลูก	-8.9789
เซีย	-8.97913
▁ดังนี้	-8.97951
๊ก	-8.98
นักศึกษา	-8.98039
ir	-8.98064
คม	-8.98087
สภาผู้แทนราษฎร	-8.98098
ทั่วโลก	-8.98111
ประชุม	-8.98139
ก่อ	-8.98156
ion	-8.98218
_	-8.98241
สมอง	-8.98285
ความสัมพันธ์	-8.98344
วะ	-8.98401
▁ล้าน	-8.98452
หัวหน้า	-8.98556
ไหล	-8.98771
▁The	-8.98852
ผู้เล่น	-8.98882
จํานวนมาก	-8.9889
ขน	-8.98918
ู	-8.99153
เพื่อให้	-8.99165
ทําหน้าที่	-8.99379
▁ขณะที่	-8.99391
แก	-8.99398
ิล	-8.99482
สหราชอาณาจักร	-8.99669
ซุ	-8.99716
การทํา	-8.99863
ระทรวงศึกษาธิการ	-8.99964
แห่งประเทศไทย	-9.00211
ยาง	-9.00277
▁รัฐ	-9.00283
อิตาลี	-9.00344
ที่ดิน	-9.00456
▁ภาษา	-9.00626
ภัย	-9.00627
ทําลาย	-9.00712
▁หลัง	-9.00743
็ง	-9.0081
สถานการณ์	-9.00853
ทิ้ง	-9.00883
๕	-9.00912
เดอะ	-9.00944
ได้รับรางวัล	-9.00957
▁28	-9.00957
ร้าย	-9.01014
เกือบ	-9.01126
ในยุค	-9.01168
แตก	-9.01234
อก	-9.0128
ทฤษฎี	-9.01322
การเมือง	-9.01362
▁เกิดเมื่อวันที่	-9.01374
ประชากร	-9.01399
9	-9.01532
ต่อต้าน	-9.01582
The	-9.01607
▁พระองค์	-9.01633
ม้า	-9.01689
สึ	-9.01732
ชิง	-9.01733
กรุงเทพมหานคร	-9.01855
▁V	-9.01934
แฟ	-9.01977
ได้มีการ	-9.02072
สต์	-9.02124
อธิบาย	-9.02207
นิว	-9.0237
ผสม	-9.02386
ระยะเวลา	-9.02396
ประสบความสําเร็จ	-9.02445
ห้า	-9.02587
เร็ว	-9.02633
▁แต่ก็	-9.02648
แนวคิด	-9.02774
ไหน	-9.02814
เสมอ	-9.02842
กระแส	-9.03017
คลื่น	-9.03135
น้ํามัน	-9.03147
45	-9.0315
หัวใจ	-9.0315
ก็มี	-9.03158
หมอ	-9.03186
ลึก	-9.03273
ไฮ	-9.03288
ภู	-9.03391
ผู้นํา	-9.03435
เหลือ	-9.0349
โฟ	-9.03491
สาธารณรัฐ	-9.03583
เพชร	-9.03623
ิต	-9.03769
แข็ง	-9.03779
เชื่อว่า	-9.0388
เอฟ	-9.03924
ประวัติศาสตร์	-9.03942
เกร	-9.03955
อย่างเป็นทางการ	-9.0408
ครึ่ง	-9.04257
หรือไม่	-9.04346
ผิว	-9.04375
จะถูก	-9.04479
เครื่องบิน	-9.04508
ที่อยู่	-9.04535
เรีย	-9.04557
สตรี	-9.04637
การจัด	-9.04646
การทํางาน	-9.04648
จําหน่าย	-9.04798
ตรวจสอบ	-9.04863
ผลิตภัณฑ์	-9.04915
▁หลังจากนั้น	-9.05002
เอ็น	-9.05103
เผยแพร่	-9.05137
▁100	-9.05201
โห	-9.05281
▁วัด	-9.0537
สิ่งที่	-9.05477
19	-9.05529
▁พระเจ้า	-9.05545
สยาม	-9.05647
ไต	-9.05677
คอมพิวเตอร์	-9.05777
ตรี	-9.05792
▁29	-9.05818
ข้าม	-9.05921
ึ	-9.05922
ลิง	-9.06036
ot	-9.06088
สัก	-9.06119
จนถึง	-9.06179
หู	-9.06181
สเตอร์	-9.0623
หาง	-9.06362
ท้าย	-9.06383
ด้วยการ	-9.0641
▁2550	-9.06427
บางส่วน	-9.06553
ลําดับ	-9.06716
สมัคร	-9.06779
สังกัด	-9.0686
รัฐธรรมนูญ	-9.06906
ทู	-9.06943
ขนาดเล็ก	-9.07011
ทั้งสิ้น	-9.07034
พระยา	-9.0705
mo	-9.07057
แสน	-9.0714
ขั้น	-9.07218
ถ่าย	-9.07278
op	-9.07403
un	-9.07436
ื่อ	-9.07451
ปืน	-9.07455
ธาตุ	-9.0746
90	-9.07464
พื้นฐาน	-9.07514
18	-9.0753
สะพาน	-9.07662
ประธานาธิบดี	-9.07749
▁2554	-9.07902
▁หมายถึง	-9.0805
ของตน	-9.08079
หนัก	-9.08113
เครือข่าย	-9.08139
12	-9.08318
ในที่สุด	-9.08323
li	-9.08351
โรง	-9.08357
รัง	-9.08379
ชาวไทย	-9.08427
ได้ว่า	-9.08454
กล่าวถึง	-9.08525
▁ไม่	-9.08539
คอย	-9.08554
๖	-9.08644
ขุน	-9.08723
สั่ง	-9.08767
งาม	-9.08792
ไข่	-9.08829
ne	-9.08874
ช้าง	-9.08996
ชม	-9.09015
ไกล	-9.09277
รายได้	-9.0929
ร้าน	-9.09298
▁ชื่อ	-9.09334
หลักฐาน	-9.09531
แก้	-9.09554
หนัง	-9.09567
รบ	-9.09594
เข	-9.09602
รัตน์	-9.09842
▁ในขณะที่	-9.09875
หยุด	-9.0995
โปร	-9.1
ซะ	-9.10004
ย้าย	-9.10081
ฆ่า	-9.10097
ยังเป็น	-9.10283
นําไป	-9.10361
เชียงใหม่	-9.10381
▁จนกระทั่ง	-9.10408
ปรา	-9.1052
เกษตร	-9.10643
▁2551	-9.10651
",	-9.10686
ี้ย	-9.10812
เกียรติ	-9.10815
ทางการเมือง	-9.10854
เป็นสมาชิก	-9.10873
หลากหลาย	-9.1089
ริน	-9.11005
ฏ	-9.11054
▁กล่าว	-9.11297
เมีย	-9.11329
ข้าราชการ	-9.11449
๐	-9.11576
เกอร์	-9.11603
▁ประกอบด้วย	-9.11715
แก้ไข	-9.11914
กรรมการ	-9.12228
ร้อน	-9.12254
เร่ง	-9.12393
ผู้ป่วย	-9.12604
ฤดูกาล	-9.12697
▁ตั้งแต่	-9.12719
ขอให้	-9.1275
▁อาทิ	-9.12768
ฌ	-9.12838
5	-9.1293
ปรับปรุง	-9.13127
ุ่ม	-9.13131
นี้เป็น	-9.13157
สรุป	-9.13178
มาเป็น	-9.13191
ไม	-9.13268
โกะ	-9.13405
หวัง	-9.13434
ph	-9.1348
11	-9.13488
▁ในช่วง	-9.13499
๑	-9.13619
โช	-9.13659
๒	-9.13725
▁เพลง	-9.13762
ซาน	-9.13868
แฟน	-9.13882
ถือเป็น	-9.13901
35	-9.14177
เห็นว่า	-9.14259
รส	-9.14267
me	-9.14293
เวียดนาม	-9.14397
ซิงเกิล	-9.14429
ก่อสร้าง	-9.14459
เหล่า	-9.14673
หมายเลข	-9.14766
os	-9.14878
▁สมเด็จพระ	-9.14906
ของโลก	-9.14964
เนื่อง	-9.14996
การ์ตูน	-9.1517
เลีย	-9.15194
ฟี	-9.15238
ภาษี	-9.15256
อย่างไร	-9.15287
สากล	-9.15381
ปฏิบัติการ	-9.15407
เรียง	-9.15426
ภาพยนตร์เรื่อง	-9.15451
เข้าใจ	-9.15467
▁พล	-9.15661
จัดขึ้น	-9.15981
40	-9.16005
สโมสรฟุตบอล	-9.16006
ระบุ	-9.16088
ศิริ	-9.16122
ตู	-9.16177
▁คณะ	-9.16195
จะไม่	-9.16269
ที่ผ่านมา	-9.16297
ลงไป	-9.16362
โนะ	-9.16444
สิน	-9.16455
แฮ	-9.1648
16	-9.16497
ชั่น	-9.16497
▁2549	-9.16503
ลาว	-9.16526
เยาวชน	-9.1654
เช่นกัน	-9.16686
สิทธิ์	-9.16739
▁สาขา	-9.16936
ปราสาท	-9.17154
▁ท่าน	-9.17198
ทันที	-9.17278
คําสั่ง	-9.17293
และมี	-9.17309
ที่เมือง	-9.17315
ราก	-9.17343
ยาน	-9.17392
ยืน	-9.1744
ut	-9.1746
เกษตรกร	-9.17515
สําเร็จ	-9.17539
ภูมิภาค	-9.17557
▁ตั้งอยู่	-9.1756
โดยทั่วไป	-9.17606
เป็นครั้งแรก	-9.17639
กัมพูชา	-9.17677
17	-9.17824
▁2553	-9.17962
ของพระองค์	-9.17984
▁in	-9.17999
ที่ดี	-9.18005
]]	-9.18067
โอลิมปิกฤดูร้อน	-9.18182
ve	-9.18328
หล่อน	-9.18392
ขวา	-9.18436
เดี่ยว	-9.18504
ตั้งแต่ปี	-9.1851
นั่น	-9.18531
๔	-9.18727
ประชาธิปไตย	-9.18784
หนอง	-9.18852
วาด	-9.18899
ความคิด	-9.18911
พงษ์	-9.18919
ทาน	-9.18924
เสริม	-9.18986
แน	-9.1904
หมู่	-9.19229
การดําเนินงาน	-9.19257
รู้จัก	-9.19299
สอบ	-9.1931
ปริ	-9.19329
พวกเขา	-9.19348
เสา	-9.19355
.5	-9.19364
จึงได้	-9.19373
ราชอาณาจักร	-9.19486
ประเด็น	-9.19526
เหตุผล	-9.19613
ดุ	-9.19749
ate	-9.19806
ลําตัว	-9.1981
เกิน	-9.19824
คนแรก	-9.19835
สีขาว	-9.19887
ine	-9.1992
วิจัย	-9.19932
ชื่อว่า	-9.20182
ชี้	-9.20296
สเปน	-9.20307
▁c	-9.20308
ฟัน	-9.20391
เหรียญ	-9.20395
อัตรา	-9.20449
▁เรื่อง	-9.2045
ขับเคลื่อน	-9.20458
หนุ่ม	-9.20483
▁b	-9.20492
็อก	-9.20547
พระมหากษัตริย์	-9.20563
มงคล	-9.20633
นู	-9.20728
กรุงเทพฯ	-9.20729
ในเมือง	-9.20765
ได้ถูก	-9.20796
ทราบ	-9.20805
มีผลงาน	-9.20827
่อ	-9.20879
แกน	-9.20883
รร	-9.20925
ลล์	-9.20942
lo	-9.20955
ได้อย่าง	-9.20962
เจอร์	-9.20968
ภายใต้	-9.20988
คริสต์ศตวรรษที่	-9.20994
▁กรม	-9.21035
▁กล่าวว่า	-9.21163
แค่	-9.21193
ด้วยความ	-9.21609
อิสระ	-9.21615
ทีวี	-9.2162
ฮี	-9.21711
ยอ	-9.21734
รอน	-9.21746
ห้าม	-9.21793
ธา	-9.21804
แปลง	-9.21954
ทัน	-9.22001
จอม	-9.22071
▁มีการ	-9.22107
๒๕	-9.22108
มุม	-9.22128
ตอบ	-9.22259
เยอรมนี	-9.2226
พิษ	-9.22275
อุป	-9.22276
หน้าที่	-9.22333
พระนาง	-9.22402
ภายหลัง	-9.22464
คณะรัฐมนตรี	-9.22559
เฉ	-9.22739
นานาชาติ	-9.22798
เชีย	-9.22816
ชาวบ้าน	-9.22882
ทัพ	-9.229
ื้อ	-9.23035
ของรัฐ	-9.23059
ในงาน	-9.23129
▁ด้าน	-9.23158
สิ้น	-9.23213
ไร้	-9.2327
สเต	-9.23337
พระราชวัง	-9.23347
เลข	-9.23406
ยอมรับ	-9.23423
บางครั้ง	-9.23437
ทรัพย์	-9.23505
ก็ยัง	-9.2353
▁ทีม	-9.23607
ในเวลา	-9.23708
ชิน	-9.23717
ซ้าย	-9.23771
แว	-9.23777
ถิ่น	-9.23796
ประการ	-9.23842
น้ําหนัก	-9.24002
คนหนึ่ง	-9.24043
ออกเป็น	-9.24072
▁2555	-9.24108
ระหว่างประเทศ	-9.24119
ect	-9.24165
▁และการ	-9.24174
▁ราย	-9.24194
มวล	-9.24249
จันทร์	-9.24267
ไม่เคย	-9.2431
จิน	-9.24323
ly	-9.24333
24	-9.24357
▁Ch	-9.24368
ง่าย	-9.24383
ไชย	-9.2449
ตัวอย่าง	-9.24519
ทางการ	-9.24573
เจอ	-9.24574
รม	-9.24593
ทั่ว	-9.24642
บิดา	-9.2465
มาน	-9.24694
ชะ	-9.24702
ประธาน	-9.2472
▁31	-9.24743
กซ์	-9.24884
ทูต	-9.24913
แรกของ	-9.2499
ยอดเยี่ยม	-9.24991
โตะ	-9.2507
ริม	-9.2519
เยอรมัน	-9.25191
ราม	-9.25242
ที่มีความ	-9.25263
จ่าย	-9.25288
มีผู้	-9.25297
ไ	-9.25361
▁to	-9.25446
ฉาก	-9.25533
โทษ	-9.25562
ชัดเจน	-9.25676
ยุติธรรม	-9.25693
รัชกาลที่	-9.25762
ดํารง	-9.25833
ความรู้สึก	-9.25847
เลน	-9.25895
ยุทธ	-9.2592
สาเหตุ	-9.25942
เล่ม	-9.25971
หาย	-9.26108
รัฐมนตรี	-9.26119
วิ่ง	-9.26133
ที่สามารถ	-9.26228
ทีมชาติ	-9.26281
▁ปลา	-9.26306
อุดม	-9.26358
พระนาม	-9.26517
บอล	-9.26618
ha	-9.26635
ทุ	-9.26747
▁ดร	-9.26821
ที่เกี่ยวข้อง	-9.26827
ประสาท	-9.26828
เกาหลี	-9.26953
ทั่วประเทศ	-9.26975
▁2557	-9.27008
เมอร์	-9.27025
เรน	-9.27099
น้อง	-9.27105
ให้มี	-9.27207
เซน	-9.27245
มอน	-9.27345
จอ	-9.27346
14	-9.27359
กิจ	-9.27439
▁โอ	-9.27443
ตีพิมพ์	-9.27488
แคว้น	-9.275
▁St	-9.27503
ผู้บริหาร	-9.27513
ขวัญ	-9.27713
โดยการ	-9.27729
ลดลง	-9.27735
ทะ	-9.27791
ขับ	-9.27925
ถูกต้อง	-9.27925
▁Re	-9.28059
ใช้เป็น	-9.28113
ลบ	-9.28143
พร้อมกับ	-9.2826
▁รอง	-9.28318
ตัดสินใจ	-9.28344
32	-9.284
็ก	-9.28446
รัตน	-9.28465
คนไทย	-9.28529
▁จัด	-9.2854
จะใช้	-9.28593
ความหมาย	-9.28609
นิตยสาร	-9.28656
im	-9.28702
เหล็ก	-9.28726
ปู	-9.28737
ธิ	-9.28743
กลับไป	-9.28751
เทศ	-9.28783
ตัดสิน	-9.28918
X	-9.28923
ัญ	-9.28925
ให้บริการ	-9.29005
▁อิ	-9.29082
ฤ	-9.29092
โปรแกรม	-9.29131
-1	-9.29183
ดอน	-9.2921
บัณฑิต	-9.29281
อารมณ์	-9.29283
ประพันธ์	-9.29286
เวที	-9.29298
มารดา	-9.29305
น้ําตาล	-9.29306
จักร	-9.29364
นด์	-9.29442
▁อัน	-9.29464
no	-9.29483
ศพ	-9.29564
48	-9.29565
ที่เรียกว่า	-9.29585
ในรูปแบบ	-9.29626
รัส	-9.29685
แปล	-9.29762
ity	-9.29793
สถาปนา	-9.3
▁In	-9.30097
รับรอง	-9.30103
หมาย	-9.3018
ลักษณ์	-9.30239
แลนด์	-9.30279
▁2552	-9.30323
ค่อนข้าง	-9.30372
ลาน	-9.30438
เบา	-9.30448
จักรวรรดิ	-9.30519
รู้สึก	-9.30596
เรื่องราว	-9.30619
แอล	-9.30625
แต	-9.30723
▁2558	-9.30784
เจ้าของ	-9.30836
ในด้าน	-9.30884
เรื่องนี้	-9.30892
สัญญาณ	-9.30902
ัก	-9.30931
ของผู้	-9.30941
to	-9.3095
art	-9.31041
ขณะ	-9.31152
co	-9.31244
แท้	-9.31256
ซ้ํา	-9.31296
บทบาท	-9.31297
คุ้มครอง	-9.31301
ถาม	-9.31321
เสื้อ	-9.31346
ย่อ	-9.3135
ท่าอากาศยาน	-9.31614
ry	-9.31626
di	-9.31657
สถาปัตยกรรม	-9.31672
อด	-9.3175
ก้าว	-9.31774
ปฐม	-9.31873
เป็นส่วนหนึ่งของ	-9.31887
มูลค่า	-9.31899
อย่างมาก	-9.31902
เชื้อ	-9.31917
ที่เกิดขึ้น	-9.31937
ไว้ใน	-9.31954
บุก	-9.31968
▁ตลอดจน	-9.32032
รัน	-9.32166
ลับ	-9.32201
ฉาย	-9.32263
13	-9.32361
แท	-9.32384
อยาก	-9.32384
สระ	-9.32414
การเกษตร	-9.32461
แต่งตั้ง	-9.32465
โดยเฉพาะ	-9.32536
61	-9.32554
๓	-9.32565
ไหม	-9.3263
เป็นเวลา	-9.32652
▁รัฐมนตรีว่าการ	-9.32693
แห่งนี้	-9.32723
กระทรวงมหาดไทย	-9.3274
▁เกิด	-9.32872
การเปลี่ยนแปลง	-9.32995
59	-9.33042
หนี้	-9.3325
การรักษา	-9.33292
ล้าน	-9.33369
▁ผล	-9.3339
ซิน	-9.33406
เชื่อม	-9.33425
J	-9.33426
จะทําให้	-9.3343
ัช	-9.33456
▁จึงได้	-9.33494
ฮั	-9.33535
ระเบียบ	-9.33554
ไปแล้ว	-9.33584
อุณหภูมิ	-9.33599
ในส่วน	-9.33624
ความเร็ว	-9.33628
อน	-9.3371
▁2012	-9.33735
พี่น้อง	-9.3379
บรรจุ	-9.33871
คอม	-9.33924
เสร็จ	-9.33936
กลิ่น	-9.3394
ความสามารถ	-9.33949
▁2556	-9.34003
พุ	-9.34031
08	-9.34076
บัว	-9.34079
เนอร์	-9.3409
all	-9.34214
ในอดีต	-9.34216
มิติ	-9.34295
ay	-9.34314
▁"<	-9.34349
ในแต่ละ	-9.34382
ag	-9.34522
▁ใช้	-9.34545
▁ยัง	-9.34555
พัง	-9.34568
ก็ไม่	-9.34711
๙	-9.3476
ยาย	-9.34833
28	-9.34903
ล่าง	-9.34945
เป็นที่รู้จัก	-9.34979
▁มิ	-9.35017
ปอ	-9.3504
ของรัฐบาล	-9.35083
ต่อเนื่อง	-9.35142
ว่าจะ	-9.35155
โว	-9.35439
ment	-9.35446
อย่างต่อเนื่อง	-9.35497
ร้องเพลง	-9.35594
พนักงาน	-9.3566
มาแล้ว	-9.35753
ภาคใต้	-9.35772
6	-9.35778
คาร์	-9.35832
รถยนต์	-9.35958
ฐ	-9.35998
จุ	-9.36005
ตาราง	-9.36005
ยง	-9.36036
เปลี่ยนแปลง	-9.36038
กลม	-9.3605
เลขาธิการ	-9.36061
กระทํา	-9.36078
▁p	-9.36082
็น	-9.36142
สาธารณะ	-9.3618
นิ้ว	-9.36188
36	-9.36395
ฟู	-9.3641
สติ	-9.36464
ซิล	-9.36466
รวมทั้ง	-9.36531
ความมั่นคง	-9.36547
สิ่งแวดล้อม	-9.36567
ลาก	-9.36622
มาตรการ	-9.36653
เทคนิค	-9.36654
สีแดง	-9.36686
โจมตี	-9.36692
ยื่น	-9.36701
ศาสตราจารย์	-9.36701
ตกลง	-9.36843
▁เซนติเมตร	-9.36865
ประกัน	-9.36878
และความ	-9.3688
▁และยัง	-9.36892
ซัน	-9.37063
▁60	-9.37115
ยศ	-9.37181
ช้า	-9.37214
ฝึก	-9.37327
▁2010	-9.37329
บั	-9.37337
สด	-9.37418
หนา	-9.37455
น้อยกว่า	-9.3747
80	-9.37478
รวบรวม	-9.37499
▁("	-9.37534
ไม่เกิน	-9.37591
โทร	-9.37696
นส์	-9.3772
ก็ตาม	-9.37816
สร้างขึ้น	-9.37827
นิติ	-9.37865
ap	-9.37942
ell	-9.37951
มาตรา	-9.37952
อเมริกัน	-9.37957
หนู	-9.38033
ที่ได้รับ	-9.38041
ที่มีชื่อเสียง	-9.38057
พันธมิตร	-9.38094
หลง	-9.38096
ภารกิจ	-9.38135
เป็นนัก	-9.38265
ไก่	-9.38305
and	-9.38422
▁ชั้น	-9.38469
ใช้เวลา	-9.38497
ผู้ประกอบการ	-9.38512
แช	-9.38523
ard	-9.38529
เคมี	-9.38534
หารือ	-9.38625
วย	-9.38662
ธิดา	-9.38675
▁2548	-9.38751
ศิลป	-9.38756
▁วันนี้	-9.38773
เทอร์	-9.38866
สูตร	-9.38876
๘	-9.38919
น่าจะ	-9.38961
รอด	-9.3897
▁f	-9.38972
ประชา	-9.39089
ขึ้นไป	-9.39093
ครบ	-9.39186
▁2017	-9.39248
ประสูติ	-9.39277
นี้มี	-9.39311
กาล	-9.39432
สําคัญของ	-9.39436
เป็นตัว	-9.39475
กํากับ	-9.39488
ค์	-9.39502
ในการแข่งขัน	-9.39513
สังเกต	-9.39541
55	-9.39549
แหลม	-9.39555
ไบ	-9.39578
คอร์	-9.39624
ภรรยา	-9.39661
hi	-9.39725
กระจาย	-9.39757
ส่วนตัว	-9.39795
ไน	-9.39849
นําเสนอ	-9.39866
ตํานาน	-9.39908
ไม่ให้	-9.39978
ผี	-9.40002
▁มัน	-9.40064
รายละเอียด	-9.40108
เฉลี่ย	-9.4024
44	-9.40253
▁1.	-9.40262
65	-9.40284
ชีพ	-9.40385
จัดการ	-9.40397
ในทาง	-9.40423
่ว	-9.40433
33	-9.40452
กรอบ	-9.40458
ผู้แทน	-9.40504
ชนิดหนึ่ง	-9.40508
ในวัน	-9.40548
ัย	-9.4055
▁รัฐบาล	-9.40574
ประวัติ	-9.40646
ทร	-9.40661
เป็นที่	-9.40743
com	-9.40779
▁พลเอก	-9.40815
อย	-9.40843
▁เม	-9.40876
สวยงาม	-9.4093
นท์	-9.40942
ติดต่อ	-9.40963
โดยใช้	-9.40967
เล็กน้อย	-9.40976
เท่ากับ	-9.40977
วิทยุ	-9.41045
85	-9.41076
ยังได้	-9.41175
ลุ	-9.41184
ของไทย	-9.41192
▁2547	-9.41281
นิกาย	-9.41432
▁เรา	-9.41498
▁อี	-9.4152
ประทับ	-9.41545
สู้	-9.41571
อันดับที่	-9.4158
ครีบ	-9.41587
วอ	-9.41607
รวมถึง	-9.41611
ตรงกับ	-9.41619
ประเพณี	-9.41652
ซีรีส์	-9.41652
ร่า	-9.4166
▁2008	-9.41669
ตั้งแต่วันที่	-9.4174
ive	-9.41744
แห	-9.41755
หนี	-9.41758
สิริ	-9.41766
ti	-9.41833
อยู่กับ	-9.4187
ึง	-9.41991
เดินทางไป	-9.42062
><	-9.42135
?	-9.42222
โปรด	-9.42228
เต้น	-9.42329
ill	-9.42379
เนื้อหา	-9.42466
ล้ม	-9.42514
ลอย	-9.42684
ปัญญา	-9.42705
ของชาว	-9.42709
ย่า	-9.42777
ปุ	-9.42783
เจ้าชาย	-9.42789
up	-9.42804
▁แม้ว่า	-9.42821
โฆษณา	-9.42836
อินโดนีเซีย	-9.42836
ai	-9.42852
มีผล	-9.42868
▁formula	-9.4291
เท้า	-9.42958
▁ได้รับ	-9.43002
est	-9.43052
ครอบคลุม	-9.43134
ออสเตรเลีย	-9.43185
เดียวกับ	-9.43211
บาท	-9.43245
▁นาง	-9.4327
ต้นไม้	-9.43349
▁50	-9.43354
โปรดเกล้าฯ	-9.43437
ที่เขา	-9.43443
เรือน	-9.43471
+	-9.43506
▁รวม	-9.4352
ได้เป็น	-9.43579
▁2016	-9.43678
ang	-9.43764
ราง	-9.43807
41	-9.43824
47	-9.43867
สถานะ	-9.43909
ัท	-9.4392
ce	-9.43946
ล้อ	-9.44031
ตามลําดับ	-9.44033
คร	-9.44103
สุร	-9.44325
75	-9.44362
▁m	-9.44372
ริก	-9.44506
ub	-9.44509
เอกสาร	-9.44536
ตี้	-9.44547
ขณะนี้	-9.44725
ge	-9.44726
ผา	-9.44733
▁เจ	-9.4481
▁แม้	-9.4489
แขวง	-9.44891
ดอ	-9.44966
บทความ	-9.45001
ฝัน	-9.45021
มิได้	-9.45069
สัม	-9.45151
71	-9.4518
สถิติ	-9.45181
เคน	-9.45184
บุรี	-9.45199
กลัว	-9.45229
สตาร์	-9.45297
ภาคตะวันออก	-9.45325
ล้าง	-9.45542
รํา	-9.45602
เว็บไซต์	-9.45603
▁เดอะ	-9.45607
สวม	-9.4566
เอกชน	-9.45662
รหัส	-9.45809
ฮาร์	-9.45896
57	-9.45901
ที่ทํา	-9.45913
▁'	-9.45921
ขัด	-9.45931
▁นอกจาก	-9.45936
สวย	-9.46019
เชื่อมโยง	-9.46037
ขอบ	-9.46038
▁พุทธศักราช	-9.46163
การต่อสู้	-9.46183
ที่ตั้ง	-9.46188
ครับ	-9.46349
นี้จะ	-9.46392
เหมือนกัน	-9.46418
22	-9.46589
▁ชนิด	-9.46618
เลิก	-9.46638
พันธ	-9.4668
▁พระองค์เจ้า	-9.46694
ของตนเอง	-9.46699
ระหว่างวันที่	-9.46722
ชาร์ต	-9.46766
มหาชน	-9.46775
39	-9.4678
อ้าง	-9.46782
การ์	-9.46844
ลาด	-9.46882
เติบโต	-9.46893
▁หลังจากที่	-9.46902
๗	-9.46912
สัง	-9.46978
ความรัก	-9.47025
ดร	-9.47168
เป็นเรื่อง	-9.47168
ชก	-9.47182
ผัก	-9.47276
รัฐมนตรีว่าการ	-9.47354
มิน	-9.47363
นม	-9.47398
37	-9.47462
เปิดเผย	-9.47561
ลงมา	-9.47562
โดยตรง	-9.47654
ไปสู่	-9.4767
ฐานะ	-9.47672
ฤทธิ์	-9.47767
ปัจจัย	-9.47768
อันตราย	-9.47795
▁2014	-9.47811
sh	-9.47821
หนึ่งของ	-9.47836
อาศัยอยู่	-9.47905
เลื่อน	-9.47933
79	-9.47962
38	-9.4797
คิดว่า	-9.47989
▁สังกัด	-9.48013
เพาะ	-9.48018
ในระบบ	-9.48028
ภาษาไทย	-9.48086
em	-9.48097
นัย	-9.48131
▁ระหว่างวันที่	-9.48149
ทักษิณ	-9.4816
ig	-9.48208
กําแพง	-9.48242
เอล	-9.48285
ภายนอก	-9.48291
▁สุ	-9.48309
49	-9.4834
หวาน	-9.48363
ลด์	-9.48372
สงบ	-9.48379
per	-9.4841
เผย	-9.48412
การลงทุน	-9.48434
ไพ	-9.48439
▁เข้าร่วมแข่งขัน	-9.48452
โรงแรม	-9.48506
▁2.	-9.48528
ผู้อํานวยการ	-9.48532
ขึ้นเป็น	-9.48588
เมล็ด	-9.48741
หนังสือพิมพ์	-9.4891
มอ	-9.48941
▁เ	-9.48954
ต่อจาก	-9.49021
▁U	-9.49029
42	-9.49054
ฆ	-9.49074
มุ่ง	-9.49188
▁ตอน	-9.49228
56	-9.49243
เชิญ	-9.49243
ผู้คน	-9.49265
43	-9.49285
วิส	-9.49311
ชาวอเมริกัน	-9.49385
โส	-9.49468
ฝาก	-9.4954
หญิงสาว	-9.49575
นอร์	-9.49579
อาเซียน	-9.4959
นิก	-9.49634
อพยพ	-9.49663
สุวรรณ	-9.49723
0%	-9.49756
ศิลป์	-9.49823
ภูเขา	-9.49831
เชื่อมต่อ	-9.49841
กองทุน	-9.49914
▁รายชื่อ	-9.49949
ติก	-9.4995
บาร์	-9.49975
ในขณะนั้น	-9.49998
แทนที่	-9.50068
มีชื่อเสียง	-9.50089
็อง	-9.50094
ในจังหวัด	-9.50099
na	-9.50101
เครื่องมือ	-9.50137
ปฏิเสธ	-9.50169
ab	-9.502
ยกเว้น	-9.50208
ฝัง	-9.50222
บัง	-9.50295
เปลือก	-9.50329
นักกีฬา	-9.50344
สร	-9.50368
เหมือนกับ	-9.50448
เวน	-9.50586
ยอม	-9.50589
ฎ	-9.50659
พรหม	-9.50682
สาขาวิชา	-9.50701
ng	-9.50819
ist	-9.50825
มีอายุ	-9.509
จัดทํา	-9.50912
โรงงาน	-9.50942
มติ	-9.50945
เสือ	-9.51015
ไปด้วย	-9.51056
พระราชบัญญัติ	-9.51063
เสรี	-9.5108
สําเร็จการศึกษา	-9.5112
รักษ์	-9.51124
▁ภายใต้	-9.51158
ความจริง	-9.51168
ความเข้าใจ	-9.51193
หน	-9.5121
สูงกว่า	-9.5123
งานวิจัย	-9.51248
การบริหาร	-9.51263
▁=	-9.51288
นักบุญ	-9.51315
การประกวด	-9.5136
34	-9.51451
นต์	-9.51454
ปฏิ	-9.51457
สร้างความ	-9.51532
โดยไม่	-9.51536
หก	-9.51604
95	-9.51617
อยู่บน	-9.51645
เช้า	-9.51693
ที่อยู่ใน	-9.51753
ลอง	-9.518
กีฬาโอลิมปิกฤดู	-9.51811
ออฟ	-9.51874
ตอ	-9.51932
ประเทศจีน	-9.51965
ถือว่า	-9.51978
วู	-9.51995
ของประชาชน	-9.52098
ปะ	-9.52109
-2	-9.5211
ิ้ง	-9.52119
od	-9.52249
▁โค	-9.5228
ค้นพบ	-9.52337
เชื่อ	-9.52381
วิชาการ	-9.52406
ระยะทาง	-9.52478
▁เมื่อปี	-9.52504
.30	-9.52505
ทุ่ง	-9.52511
พฤติกรรม	-9.52526
▁สาย	-9.52565
77	-9.52625
▁สํานักงาน	-9.52667
วาน	-9.52709
ย้ายไป	-9.5275
ความเชื่อ	-9.52757
78	-9.52764
tion	-9.52777
ความเสียหาย	-9.52959
Y	-9.5298
่อน	-9.52995
87	-9.53022
อย่า	-9.53035
เบล	-9.53041
67	-9.53072
ver	-9.53102
ั่ง	-9.5312
▁๓	-9.53125
็ค	-9.53157
ในสังกัด	-9.53205
86	-9.53227
ทราย	-9.53229
ออน	-9.5324
วางแผน	-9.5329
7	-9.53336
ฮัน	-9.53345
มาถึง	-9.53366
สํารวจ	-9.53392
รองรับ	-9.53411
▁ขณะ	-9.53417
สาน	-9.53476
▁ไร่	-9.53478
58	-9.5353
ธี	-9.53537
มีประสิทธิภาพ	-9.53597
con	-9.53604
เด่น	-9.53636
ดะ	-9.53644
พันธ์	-9.53669
ที่ประชุม	-9.53672
ทรัพยากร	-9.53685
ในกลุ่ม	-9.53745
52	-9.53786
ด้านการ	-9.53797
ie	-9.5398
เดช	-9.53987
เทศกาล	-9.5399
▁40	-9.5409
ผู้มี	-9.54097
เซนต์	-9.54111
▁โดยใช้	-9.54222
เอช	-9.54234
54	-9.54356
ta	-9.54441
ญาติ	-9.5447
เจ้าหญิง	-9.5451
ยุทธศาสตร์	-9.54533
วอลเลย์บอล	-9.5459
46	-9.54614
21	-9.54757
tic	-9.54773
กับการ	-9.54802
ทั้งคู่	-9.54859
วรรณ	-9.54879
บริ	-9.54917
สามัญ	-9.54921
มีประชากร	-9.54927
มิตร	-9.54938
สะสม	-9.55009
ต่อสู้	-9.55011
ในชื่อ	-9.55034
▁ชาว	-9.55035
เวท	-9.55036
เชื้อสาย	-9.55037
อวกาศ	-9.55038
ที่ปรึกษา	-9.55071
อิทธิพล	-9.55107
ศัพท์	-9.55134
ซูเปอร์	-9.55227
บอกว่า	-9.55244
▁2015	-9.5527
ant	-9.55333
▁ภายหลัง	-9.55346
53	-9.55362
ท่อ	-9.55364
จ้าง	-9.55387
ขึ้นอยู่กับ	-9.55404
เบีย	-9.55441
จุฬาลงกรณ์	-9.55456
ราชา	-9.55712
เจน	-9.5575
คอนเสิร์ต	-9.5577
รวมกัน	-9.55773
เผา	-9.55793
แห้ง	-9.55815
ที่เคย	-9.5585
ow	-9.5585
▁นอกจากนั้น	-9.55867
ปรัชญา	-9.55911
เขาก็	-9.55943
พระราชโอรส	-9.55978
กรุงเทพ	-9.56056
านนท์	-9.56106
ผู้ช่วย	-9.56131
▁เจ้า	-9.56184
การจัดการ	-9.56189
เกล้าเจ้าอยู่หัว	-9.56217
ฝน	-9.56278
ทับ	-9.56301
▁เขาได้	-9.56386
็ด	-9.56389
มีขนาด	-9.56397
ศักยภาพ	-9.56421
oc	-9.56428
▁บริเวณ	-9.56439
▁ระหว่าง	-9.56457
▁ในการ	-9.56478
เดีย	-9.56488
ซึ่งมี	-9.56521
มูลนิธิ	-9.56563
ประสาน	-9.56575
อยุธยา	-9.56649
62	-9.56722
ในบริเวณ	-9.5673
ํา	-9.56765
บัญชี	-9.56772
▁ได้มีการ	-9.56791
สํา	-9.568
▁จนถึง	-9.56846
เหลือง	-9.56849
ฝีมือ	-9.56857
99	-9.5689
โฆษก	-9.56933
ใช้งาน	-9.57012
แดน	-9.57111
▁ซึ่งจะ	-9.57144
▁ก่อน	-9.57146
ได้รับความนิยม	-9.57166
he	-9.57209
ขบวน	-9.5724
ผู้ใหญ่	-9.57255
เป็นภาษา	-9.57259
▁เป็นผู้	-9.57261
ลัทธิ	-9.57277
ที่มา	-9.57317
กู้	-9.57356
เทียน	-9.57356
บุคลากร	-9.57364
63	-9.57373
จําเป็น	-9.5743
66	-9.57487
98	-9.57512
สีเขียว	-9.57563
ออร์	-9.57575
ประดิษฐ์	-9.57593
ผู้ใช้	-9.57617
ลงนาม	-9.57732
ถอน	-9.57734
ประสบการณ์	-9.57798
81	-9.57805
แร่	-9.5786
การเรียนการสอน	-9.57897
▁สร้าง	-9.57929
เช่นนี้	-9.57943
กําหนดให้	-9.57971
รับประทาน	-9.57971
ho	-9.58035
70	-9.58048
▁ถนน	-9.58181
ติดกับ	-9.58181
ก็เป็น	-9.58242
อาทิตย์	-9.58245
หญ้า	-9.58286
▁ฯลฯ	-9.58315
คุม	-9.58392
ของประเทศไทย	-9.58409
เปอร์	-9.58452
ปก	-9.58519
ปลัด	-9.58609
ศัตรู	-9.58692
ินทร์	-9.58775
82	-9.58786
เจ้าฟ้า	-9.58789
ภาครัฐ	-9.58839
สําหรับการ	-9.58853
ดับ	-9.58869
ผู้ชาย	-9.58879
บวก	-9.58921
สีดํา	-9.58939
อิง	-9.58944
ลุก	-9.58949
สัมพันธ์	-9.58978
หลายคน	-9.59067
เฉียงเหนือ	-9.59097
เซล	-9.59227
ติน	-9.59266
พรรณ	-9.59285
พยาบาล	-9.59293
มีจํานวน	-9.59293
83	-9.5941
สว่าง	-9.59463
ร็อก	-9.59473
23	-9.59504
บรรยาย	-9.59568
ธรรมดา	-9.59691
ของจังหวัด	-9.59768
อภิ	-9.59801
ความสนใจ	-9.59859
โดน	-9.59902
69	-9.59946
แปลก	-9.59993
ข้อความ	-9.60091
ip	-9.60125
▁ประจําปี	-9.60146
ลําดับที่	-9.60164
ยกเลิก	-9.60302
วางจําหน่าย	-9.60321
ยุติ	-9.6037
อร	-9.60447
73	-9.60455
แพร่	-9.6049
▁สมัย	-9.60535
สัมผัส	-9.60541
อริ	-9.6056
ไม่นาน	-9.60633
▁ต้อง	-9.60644
เขียว	-9.60691
สูญเสีย	-9.60693
ไตร	-9.60693
ดารา	-9.60718
มาก่อน	-9.60722
ัม	-9.60818
แรกที่	-9.60824
ต่ํากว่า	-9.60837
8	-9.60843
ปีก	-9.60879
แนะนํา	-9.60907
ทัศน์	-9.60969
แบ่งออกเป็น	-9.61079
หลักของ	-9.6111
▁de	-9.61134
de	-9.61136
นครราชสีมา	-9.61165
สิ้นสุด	-9.61202
ทํานอง	-9.61285
นาค	-9.61289
▁2013	-9.6136
ภูมิพลอดุลยเดช	-9.61374
51	-9.61402
ยิ้ม	-9.61403
พาณิชย์	-9.61499
แปร	-9.61535
เพล	-9.6167
000	-9.61673
นวัตกรรม	-9.61821
เดอ	-9.61831
▁สาธารณรัฐ	-9.61833
ยั่งยืน	-9.61927
เตือน	-9.61943
แบ่งเป็น	-9.61956
ม่า	-9.61973
วิล	-9.62006
รับผิดชอบ	-9.6202
แมลง	-9.62118
โชว์	-9.62176
▁อาร์	-9.6218
งา	-9.62197
แสดงความ	-9.62204
ล่าสุด	-9.6221
่ํา	-9.62211
มิส	-9.62262
สังหาร	-9.62265
ก็ต้อง	-9.62266
หลาน	-9.6227
ชิงแชมป์	-9.62286
,2	-9.62301
พงศ์	-9.62304
ในอนาคต	-9.62322
สตา	-9.62362
คริส	-9.62364
คนอื่น	-9.62376
64	-9.62499
กระตุ้น	-9.62575
คราว	-9.62693
ex	-9.62709
ไค	-9.62724
ยุบ	-9.62774
อย่างรวดเร็ว	-9.62777
ni	-9.62836
อียิปต์	-9.62848
เกณฑ์	-9.62855
กรด	-9.62963
▁2006	-9.62974
ที่ทําให้	-9.62996
เอาไว้	-9.63009
ทรา	-9.63009
ย่อม	-9.63076
05	-9.63148
89	-9.63154
น้ําท่วม	-9.63168
สิ้นพระชนม์	-9.63185
ปฏิกิริยา	-9.63214
กํา	-9.63219
การท่องเที่ยว	-9.63241
เวียน	-9.63251
แอร์	-9.63261
.1	-9.63384
ปร	-9.63491
▁งาน	-9.63496
นี้ได้	-9.63559
▁[[	-9.63619
01	-9.6362
หาร	-9.6362
ผลกระทบ	-9.63621
▁ระบบ	-9.63633
ดี้	-9.63703
เป็นจํานวนมาก	-9.63797
กองกําลัง	-9.63995
โอะ	-9.64027
กล้า	-9.64055
สิงห์	-9.64061
เบน	-9.64086
ยาม	-9.64096
กลไก	-9.64103
ผู้โดยสาร	-9.64104
รุนแรง	-9.64105
27	-9.64132
ฝา	-9.64168
กระทรวงยุติธรรม	-9.64228
รัฐสภา	-9.64262
ความปลอดภัย	-9.64279
เครื่องยนต์	-9.64344
26	-9.64381
หลักการ	-9.64386
ฟื้นฟู	-9.64411
74	-9.64429
▁2011	-9.64432
po	-9.64439
ดอกไม้	-9.64446
▁2009	-9.6454
ศาลา	-9.64551
วัสดุ	-9.64559
เจ้าพระยา	-9.6458
▁เค	-9.64601
ตั้งชื่อ	-9.64649
การก่อสร้าง	-9.64703
งู	-9.64745
เป็นปลา	-9.64773
เอาชนะ	-9.64786
=	-9.64786
จนกระทั่ง	-9.64838
มีค่า	-9.6485
ของตัวเอง	-9.64899
กิ่ง	-9.64943
ลัก	-9.64984
สิ่งมีชีวิต	-9.64991
ปรากฏตัว	-9.65014
หอม	-9.65076
ขั้นตอน	-9.65078
เหมาะสม	-9.65118
ไปถึง	-9.65138
เลียน	-9.65139
ความร้อน	-9.65209
▁ไม่มี	-9.65246
ไม่เป็น	-9.65247
๊อ	-9.65277
ของคน	-9.65336
รู้ว่า	-9.65381
ers	-9.65395
ประสงค์	-9.65401
เคลื่อนที่	-9.65459
โอน	-9.65499
เหล่านั้น	-9.65508
ซึ	-9.65595
ดั้งเดิม	-9.65613
เป็นอันดับ	-9.65641
กาญจน	-9.65676
บาน	-9.65742
ไร่	-9.65746
กระทรวงสาธารณสุข	-9.65817
ช์	-9.65835
▁ร่วมกับ	-9.66028
ทวีป	-9.66029
ค่ะ	-9.66053
ความยาว	-9.6613
่อง	-9.66136
บะ	-9.66159
ตึก	-9.66181
คัพ	-9.66212
รณ	-9.66245
ซิส	-9.66253
ใช้ชื่อ	-9.66263
.2	-9.66272
ภพ	-9.66275
ส่วนหนึ่ง	-9.66285
สินเชื่อ	-9.66313
มอร์	-9.66377
โลหะ	-9.66388
ในวงศ์	-9.66405
07	-9.66501
แขน	-9.66513
ยืนยัน	-9.66545
ฟุ	-9.66552
สะท้อน	-9.66552
ภาคเหนือ	-9.66556
บัน	-9.66557
mp	-9.66609
สมบัติ	-9.66624
ของกลุ่ม	-9.66669
เมืองหลวง	-9.66677
▁อัล	-9.66698
ปั้น	-9.66716
เกี่ยวกับการ	-9.66775
ั่น	-9.66784
ผู้เป็น	-9.66787
สิงคโปร์	-9.66804
ไล่	-9.66819
วงดนตรี	-9.6694
ขัน	-9.66945
ช่วยให้	-9.66967
รี่	-9.66989
อนุมัติ	-9.67059
*	-9.67088
ที่ต้อง	-9.6719
นับถือ	-9.67458
ลงทุน	-9.6748
ให้เกิด	-9.67494
ak	-9.67518
02	-9.67554
88	-9.67562
]	-9.67614
ซ้อน	-9.67633
▁พระบาทสมเด็จพระ	-9.67679
ัค	-9.67688
one	-9.67717
คณิตศาสตร์	-9.67793
ในตําแหน่ง	-9.67843
ดิจิทัล	-9.67855
เข้ม	-9.67974
ได้นํา	-9.68025
อัง	-9.68039
ขุด	-9.68073
ยกระดับ	-9.68075
มีอํานาจ	-9.6812
sp	-9.68142
▁2007	-9.68178
man	-9.68205
ทางหลวง	-9.68353
เมน	-9.68386
สุนทร	-9.68419
-25	-9.68431
ครั้งแรกใน	-9.68448
▁เคย	-9.685
▁รางวัล	-9.68596
▁คา	-9.68622
เบิล	-9.68656
านุ	-9.68665
เรียบร้อย	-9.68734
เคยเป็น	-9.68744
สีเหลือง	-9.68747
ประสบ	-9.68874
พระราชพิธี	-9.68919
▁ศูนย์	-9.68929
แส	-9.68952
ประดับ	-9.68997
หมู่เกาะ	-9.6908
้ว	-9.6908
เหลี่ยม	-9.69095
โชค	-9.69142
ประชาสัมพันธ์	-9.69147
อาณาเขต	-9.69165
▁for	-9.69188
ตามที่	-9.69204
แน่นอน	-9.69219
การบิน	-9.69242
ทางเศรษฐกิจ	-9.69291
ight	-9.69343
ย่าน	-9.69449
ดาบ	-9.69455
จุลจอมเกล้า	-9.69459
ไปตาม	-9.69461
ในนาม	-9.69488
เป็นรูป	-9.69497
▁ลักษณะ	-9.69523
กันว่า	-9.69538
ทอด	-9.69567
มาเลเซีย	-9.69674
ทศวรรษ	-9.69677
09	-9.69687
ตะวันออกเฉียงใต้	-9.69715
ออสเตรีย	-9.69716
▁Y	-9.69729
ออกฉาย	-9.69758
ติดตั้ง	-9.69767
ปวด	-9.69787
และพัฒนา	-9.69853
ในรอบ	-9.69914
บัญญัติ	-9.69921
วันนี้	-9.69971
ฟรี	-9.70061
รัม	-9.70108
นัน	-9.70141
เปล	-9.70165
ci	-9.70186
29	-9.70273
สอดคล้องกับ	-9.70296
แห่งหนึ่ง	-9.703
พิพิธภัณฑ์	-9.70334
96	-9.70335
จิตใจ	-9.70412
ฮะ	-9.70468
▁2535	-9.70468
เปีย	-9.70472
ทางสังคม	-9.70632
ดีขึ้น	-9.70642
เทว	-9.70693
▁(20	-9.70699
ตั้งใจ	-9.70722
โคร	-9.7074
แข่ง	-9.70891
▁คําว่า	-9.709
76	-9.70901
เดน	-9.70984
กล้ามเนื้อ	-9.7099
ทิศทาง	-9.71025
ดอร์	-9.71031
พบได้	-9.71063
▁อําเภอเมือง	-9.7111
ถือว่าเป็น	-9.71188
▁จักรพรรดิ	-9.71192
pe	-9.71192
การเล่น	-9.71219
จะมีการ	-9.71238
▁ภายใน	-9.71239
หลายครั้ง	-9.7124
เวิร์	-9.71274
ขนส่ง	-9.7129
สร้างสรรค์	-9.71319
ance	-9.71406
our	-9.71426
เกาหลีใต้	-9.71466
คุณธรรม	-9.71468
กําจัด	-9.71499
เขาได้	-9.71507
วัฒน์	-9.71509
หัก	-9.71512
โทรศัพท์	-9.71536
อัด	-9.71547
ล้วน	-9.71587
องค์ประกอบ	-9.71622
เรียนรู้	-9.71636
▁2546	-9.71641
พระที่นั่ง	-9.71642
ของวง	-9.71754
การควบคุม	-9.71758
ในสหรัฐอเมริกา	-9.71808
สามารถใช้	-9.7182
รังสี	-9.7182
▁นําแสดงโดย	-9.71848
ass	-9.71855
เกีย	-9.71929
ลูกค้า	-9.71932
ระบุว่า	-9.72038
ลงเล่น	-9.72064
เพลงนี้	-9.72071
บํารุง	-9.7208
97	-9.72105
มีบทบาท	-9.72105
ก้าน	-9.72114
อนุรักษ์	-9.72197
มัส	-9.72229
92	-9.72243
พระองค์ทรง	-9.72264
ื	-9.72371
โรมัน	-9.72386
บูชา	-9.72449
ในรายการ	-9.72457
ดังต่อไปนี้	-9.72539
อัส	-9.72548
พบกับ	-9.72572
คล้ายกับ	-9.7264
ไม่รู้	-9.72661
เข็ม	-9.72681
ทรัพย์สิน	-9.72789
▁อาคาร	-9.72816
ชุ	-9.72821
93	-9.72868
ร่วมงาน	-9.72919
ขุนนาง	-9.7305
พระโอรส	-9.73136
ปรมินทรมหา	-9.73184
ฬ	-9.73184
▁(19	-9.73231
ดัดแปลง	-9.73251
▁ห้อง	-9.7327
แถว	-9.73284
เข้ากับ	-9.73323
การออกแบบ	-9.73333
ซาร์	-9.73389
คาด	-9.73408
ประชารัฐ	-9.73413
▁ผม	-9.73414
ชี้แจง	-9.73419
ที่น่า	-9.73433
ก่อตั้งขึ้น	-9.73468
เกิดการ	-9.7349
มวย	-9.73493
สวรรค์	-9.73524
▁ยู	-9.73572
▁ในฐานะ	-9.73604
84	-9.73618
เกี่ยวข้องกับ	-9.73621
▁De	-9.73655
มาตั้งแต่	-9.73743
72	-9.73787
ว่าง	-9.7379
บางคน	-9.73794
มีส่วน	-9.738
ชําระ	-9.73815
der	-9.73821
มีโอกาส	-9.73874
ลัน	-9.73896
วิศวกรรม	-9.73926
▁(1	-9.73954
าธิ	-9.73961
มารี	-9.74049
บูรณาการ	-9.74061
กระทรวงการคลัง	-9.74083
วิจารณ์	-9.7412
เจ็บ	-9.74155
ศูนย์กลาง	-9.74193
ทุกอย่าง	-9.74193
เทศบาล	-9.74199
โร่	-9.74201
การนํา	-9.7423
จนถึงปัจจุบัน	-9.74258
ที่ต้องการ	-9.74296
ในโลก	-9.74316
▁ใบ	-9.74333
ทน	-9.74392
ของพระเจ้า	-9.74399
ชื่อเล่น	-9.74404
ต่อการ	-9.74407
31	-9.74438
ud	-9.74464
▁พร้อมกับ	-9.74491
รับราชการ	-9.74618
ชายแดน	-9.74637
สต	-9.74722
วรรณกรรม	-9.74769
▁ก่อนจะ	-9.74778
▁ในประเทศ	-9.74788
สถานีรถไฟ	-9.74862
ong	-9.74882
ที่โรงเรียน	-9.74894
▁Mo	-9.74979
ผลักดัน	-9.75015
เฉลิม	-9.75016
94	-9.75023
ide	-9.75026
ธน	-9.75038
การกระทํา	-9.75054
รถไฟฟ้า	-9.75099
ศิ	-9.75145
ก้า	-9.75208
นักเขียน	-9.75265
เกิดจาก	-9.75268
นันท	-9.75272
การดําเนินการ	-9.75317
ใกล้เคียง	-9.75318
▁2539	-9.75351
▁เจ้าหญิง	-9.75373
สอบสวน	-9.75397
สนิท	-9.75411
แบน	-9.75413
ด้า	-9.75414
ให้เห็น	-9.75434
ซี่	-9.75489
▁เจ้าชาย	-9.75551
เฟอร์	-9.75552
ส้ม	-9.75565
ตัวแทน	-9.75597
ติดต่อกับ	-9.75605
แต่งงาน	-9.75612
นิยาม	-9.75665
ก่อให้เกิด	-9.75686
04	-9.75706
ทําได้	-9.75722
คัดเลือก	-9.75805
เวิลด์	-9.7584
เทศบาลตําบล	-9.75893
สุทธิ	-9.75913
▁3.	-9.75934
แจ	-9.75959
เลอร์	-9.75978
ที่เหลือ	-9.75983
▁โครงการ	-9.76112
การเงิน	-9.76113
คริสต์	-9.76116
วาย	-9.76132
bo	-9.76145
ทักษะ	-9.76151
เทน	-9.76243
วิญญาณ	-9.76255
หมู	-9.76293
จร	-9.76302
นึก	-9.76321
แล้วก็	-9.76338
▁เครื่อง	-9.76375
แน่	-9.76406
ที่มีการ	-9.76546
จะได้รับ	-9.76573
เจีย	-9.76626
เป็นพระ	-9.76659
สมรสกับ	-9.76698
ไม่ต้อง	-9.76774
▁ไอ	-9.76774
มูล	-9.76796
จะทํา	-9.76821
เขมร	-9.76872
ค่าใช้จ่าย	-9.76881
▁เป็นการ	-9.76908
▁แอ	-9.76941
พญา	-9.76944
เปรียบเทียบ	-9.7696
วุฒิ	-9.77068
เลือกตั้ง	-9.77069
ได้ยิน	-9.77114
วันจันทร์ที่	-9.77145
ปฏิรูป	-9.77176
68	-9.77192
แก้ไขปัญหา	-9.77215
,6	-9.7726
ระหว่างปี	-9.77262
นายก	-9.77271
ไม่ค่อย	-9.77298
▁เป็นนักแสดง	-9.77347
อีกหลาย	-9.77361
>"	-9.77434
โซน	-9.77488
แทบ	-9.77547
วิถี	-9.77563
การปฏิรูป	-9.77567
พระพุทธ	-9.77623
ขบวนการ	-9.77661
ขนาน	-9.77668
▁อะ	-9.77692
หัน	-9.77714
โค้ง	-9.77737
ฟิลิปปินส์	-9.77932
เข้าถึง	-9.77938
เป็นอาหาร	-9.77945
พระพุทธศาสนา	-9.77953
โข	-9.77983
▁ซี	-9.77992
▁ชนะ	-9.7801
ชนะเลิศ	-9.78059
00,000	-9.7808
สลับ	-9.78086
กี้	-9.78086
มงกุฎ	-9.78109
ในภาษา	-9.78141
พจน์	-9.78147
การป้องกัน	-9.78159
ใส	-9.78177
เพื่อการ	-9.78192
พื้นเมือง	-9.78231
ตรงข้าม	-9.78337
สมเด็จ	-9.78343
การเดินทาง	-9.78343
ธุ	-9.78364
น่าน	-9.78385
ลีย์	-9.78417
ฮ่องกง	-9.78462
ผู้บัญชาการ	-9.785
รุก	-9.78582
ค้นหา	-9.78611
ลูกสาว	-9.78653
สาธารณสุข	-9.78695
บุตรชาย	-9.78705
เข้าไปใน	-9.78759
นอ	-9.78827
▁2004	-9.7887
รายชื่อ	-9.78882
▁2544	-9.78884
เดล	-9.78991
▁2543	-9.79059
วินิจฉัย	-9.79102
อุบัติเหตุ	-9.79105
แม้แต่	-9.79155
กล้อง	-9.79175
เป็นต้น	-9.79186
▁Co	-9.79244
เกิดความ	-9.79305
เพียงพอ	-9.79317
บาดเจ็บ	-9.79334
หายไป	-9.79386
การเขียน	-9.79438
ies	-9.79556
เยี่ยม	-9.79572
พิสูจน์	-9.79602
เติม	-9.79673
เบร	-9.79684
.3	-9.79691
ec	-9.79693
ขัง	-9.79711
จดหมาย	-9.79737
ไพร	-9.79757
ในครั้งนี้	-9.7976
pro	-9.79797
▁เดิม	-9.79828
ได้จาก	-9.7991
แผ่	-9.79916
ที่สาม	-9.80016
สูงขึ้น	-9.80024
ตู้	-9.80136
เพิ่ง	-9.80142
ความขัดแย้ง	-9.80278
สหภาพโซเวียต	-9.80289
ที่สร้าง	-9.80342
ทะเลสาบ	-9.80359
,8	-9.80378
วิช	-9.8038
ยักษ์	-9.8043
เจดีย์	-9.80431
นิสัย	-9.80511
ั้น	-9.80541
ค้า	-9.80552
รับบท	-9.80599
ประเทศฝรั่งเศส	-9.80645
มั	-9.80655
เจ็ด	-9.80694
กด	-9.80735
เคล	-9.80738
อย่างหนึ่ง	-9.80742
มั่น	-9.80747
ของมัน	-9.80772
โปรตุเกส	-9.80792
ทั้งใน	-9.80832
ศร	-9.80863
รวมไปถึง	-9.80867
เช่นเดียวกับ	-9.80906
ของบริษัท	-9.80919
เชอร์	-9.80974
▁Me	-9.81061
เกี่ยว	-9.81084
ที่กําลัง	-9.81098
▁ช่วง	-9.8116
เข้ารับ	-9.81163
▁2545	-9.81164
ปรากฏใน	-9.81201
ส่วนมาก	-9.81242
ปลอดภัย	-9.8126
ens	-9.81296
▁แต่ไม่	-9.81298
ถ่ายทอด	-9.81307
ที่นั่ง	-9.81363
นิวยอร์ก	-9.81374
ในหลาย	-9.81389
ความต้องการ	-9.81393
โบสถ์	-9.8141
เฟร	-9.81438
แป	-9.81516
หุ้น	-9.81544
ศาสน	-9.81593
บรรดา	-9.81629
ชั่วคราว	-9.81636
แอฟริกา	-9.81669
ฉลอง	-9.81698
ใช้ในการ	-9.81702
▁2000	-9.81805
06	-9.81819
ian	-9.81839
▁เฮ	-9.81847
มาใช้	-9.81895
กึ่ง	-9.81903
ทางช่อง	-9.8193
เซ็	-9.81949
รัช	-9.81975
.6	-9.82016
รุ่นที่	-9.82085
ผลไม้	-9.8212
เนเธอร์แลนด์	-9.82143
ทองคํา	-9.82144
ละลาย	-9.82174
▁ต่อมาในปี	-9.8218
รีบ	-9.82245
ของมนุษย์	-9.82279
จึงต้อง	-9.82403
..."	-9.8241
ศีล	-9.82442
จําเป็นต้อง	-9.82473
พัด	-9.8248
เสียหาย	-9.82482
เชล	-9.8249
โดยมี	-9.82497
ษา	-9.82547
/1	-9.82563
be	-9.82619
▁""	-9.82648
นั้นมี	-9.82655
บ่อย	-9.82679
เอน	-9.82733
ประมง	-9.82848
มีหน้าที่	-9.82864
▁คํา	-9.8287
เป็นหลัก	-9.82922
นั้นเป็น	-9.82932
ยาวนาน	-9.82934
แบร์	-9.82953
ถัง	-9.82966
ในฤดูกาล	-9.82992
▁เซ	-9.82999
ความถี่	-9.83029
ทิศ	-9.83039
สมัยใหม่	-9.8309
อ่าว	-9.83328
จะสามารถ	-9.8347
ลูกชาย	-9.8348
จอห์น	-9.83494
uc	-9.83511
มองเห็น	-9.83549
ดาร์	-9.83553
บ่อ	-9.83642
มีความสําคัญ	-9.83688
แย	-9.83698
qu	-9.83726
ความแตกต่าง	-9.83755
ลิส	-9.83841
ในระยะ	-9.83946
age	-9.83948
ทดลอง	-9.83953
เจมส์	-9.83964
ทั้งหลาย	-9.84005
ถาวร	-9.84068
ห้วย	-9.84073
นวนิยาย	-9.84075
นางสาว	-9.84078
ความรุนแรง	-9.84081
กบฏ	-9.8412
ชัด	-9.84132
พม	-9.84177
วิหาร	-9.84183
▁อันเป็น	-9.84224
ชนบท	-9.8424
ast	-9.8428
คิว	-9.84281
ศตวรรษที่	-9.84305
สนธิสัญญา	-9.84308
คัมภีร์	-9.84336
▁Ma	-9.84351
ลัด	-9.84364
อินเทอร์เน็ต	-9.84373
สุโขทัย	-9.84449
▁Sh	-9.84464
ที่ใหญ่ที่สุด	-9.84508
สวีเดน	-9.84524
’	-9.84599
รูปร่าง	-9.8462
ยินดี	-9.84636
tra	-9.84637
ess	-9.84683
▁ประตู	-9.84684
ละเอียด	-9.84692
▁2542	-9.84704
ยูไนเต็ด	-9.84715
ก็ถูก	-9.84746
นิส	-9.84752
-3	-9.84878
▁กอง	-9.84916
ถา	-9.84963
ไวรัส	-9.84965
ยัน	-9.84983
ear	-9.85037
คิม	-9.85067
แอบ	-9.85076
ธร	-9.85101
ร้อนครั้งที่	-9.85126
เปรียบ	-9.85155
มณี	-9.85261
หมื่น	-9.85267
▁ดอก	-9.85295
มนตรีช่วยว่าการ	-9.8532
วันพฤหัสบดีที่	-9.85324
ปูน	-9.85335
ชวน	-9.85376
▁นาที	-9.8538
เปิดสอน	-9.85384
▁พวกเขา	-9.85402
เคารพ	-9.85431
▁โร	-9.85442
▁เป็นประธาน	-9.85448
,3	-9.85521
ชายฝั่ง	-9.85524
▁ชั่วโมง	-9.85531
เอะ	-9.85542
เวช	-9.85569
วิชาชีพ	-9.85587
ขนม	-9.85603
แด	-9.85616
เดินทางมา	-9.85658
สีน้ําตาล	-9.85679
พายุ	-9.85687
โดดเด่น	-9.85701
ไม่กี่	-9.85774
ค่ํา	-9.85787
รุ่ง	-9.8582
ปรากฏการณ์	-9.85822
ว่าด้วย	-9.85857
▁อีกทั้ง	-9.85865
การวิจัย	-9.85872
เล็กๆ	-9.85943
ก้อน	-9.85944
▁ซา	-9.86003
อาจมี	-9.86039
บางอย่าง	-9.86051
ตกแต่ง	-9.86162
จากโรงเรียน	-9.86198
ที่ไม่มี	-9.86214
พี่ชาย	-9.86243
▁กรุงเทพมหานคร	-9.86256
▁2540	-9.86274
เท็	-9.86344
▁สหรัฐอเมริกา	-9.86355
โอลิมปิก	-9.86375
ดึง	-9.86456
สงสัย	-9.865
ทุกข์	-9.86501
,7	-9.86544
ภั	-9.86578
lu	-9.86579
ได้ประกาศ	-9.86633
io	-9.86702
โปแลนด์	-9.86718
ที่พบ	-9.86824
ปรากฏว่า	-9.86833
นัส	-9.86861
คัด	-9.86862
ฝ	-9.86902
ย้ํา	-9.86949
?"	-9.87015
ลอนดอน	-9.87027
ออส	-9.87079
กระดาษ	-9.87117
มีความยาว	-9.87155
ออกจําหน่าย	-9.87164
ป่วย	-9.87216
ศีรษะ	-9.87233
▁Th	-9.87251
สห	-9.87285
ต่างกัน	-9.87339
ตื่น	-9.87349
ประจําปี	-9.87353
ชัก	-9.87368
วิเคราะห์	-9.87415
ประกอบไปด้วย	-9.87432
ยิ่งใหญ่	-9.87489
ของพระ	-9.87609
ธรรมศาสตร์	-9.87625
และเป็น	-9.87646
▁(,	-9.87649
ปลัดกระทรวง	-9.87687
มีปัญหา	-9.87712
ริส	-9.87715
ไทยแลนด์	-9.87725
▁อาจหมายถึง	-9.87761
อย่างยิ่ง	-9.8784
ต้า	-9.87846
ญาณ	-9.87873
มุสลิม	-9.87892
▁ยังมี	-9.87896
ยืม	-9.87932
เป็นผล	-9.87937
จะให้	-9.87958
แร	-9.87967
เยือน	-9.87971
การส่งเสริม	-9.87978
คนเดียว	-9.8805
.25	-9.88125
ในโอกาส	-9.88194
สูบ	-9.88196
ได้ดี	-9.8824
บรรยากาศ	-9.88243
ปราบปราม	-9.88243
เดนมาร์ก	-9.88244
ไปจนถึง	-9.88368
ตอนที่	-9.8837
ุ่น	-9.88415
เบื้องต้น	-9.88469
▁บาง	-9.88474
เจาะ	-9.8848
▁ก่อนที่จะ	-9.88482
ต้องมี	-9.88489
มืด	-9.8849
ห่างจาก	-9.88492
▁80	-9.88543
หลุม	-9.88557
บราซิล	-9.88564
เงื่อนไข	-9.88596
วดี	-9.88619
แตกต่างกัน	-9.88639
ทางเพศ	-9.88639
ดีกว่า	-9.88645
กรา	-9.88655
▁๔	-9.88666
เป็นประธาน	-9.88682
ฟังก์ชัน	-9.88753
ปกป้อง	-9.88784
จัดงาน	-9.888
▁ประเภท	-9.88846
บริจาค	-9.88949
▁Ar	-9.88973
สมเด็จพระเจ้า	-9.89046
ของพวกเขา	-9.89072
ขี้	-9.89073
หิ	-9.89103
▁โดยเป็น	-9.89116
▁Al	-9.89121
ช่วงเวลา	-9.8918
ตั้งอยู่ใน	-9.89204
เพื่อสร้าง	-9.89211
ย้อน	-9.89229
สัต	-9.89272
ญา	-9.89321
▁X	-9.8933
▁4.0	-9.89398
▁ดัง	-9.8945
หอย	-9.89461
หุ	-9.89464
▁พร้อมทั้ง	-9.89516
สน	-9.89527
แขก	-9.89595
เป็นตัวแทน	-9.89619
กรีก	-9.89646
แปด	-9.89648
ดื่ม	-9.89687
มีส่วนร่วม	-9.89694
ที่เกี่ยวข้องกับ	-9.89694
เหมาะ	-9.89778
สลาย	-9.89797
ต้นแบบ	-9.89834
ลงพื้นที่	-9.89848
ณา	-9.8985
ี่ย	-9.89865
แพร่หลาย	-9.8993
หมุน	-9.89935
ในทุก	-9.89949
ิด	-9.89959
ue	-9.8997
ชั่ว	-9.89974
อัคร	-9.90006
พระพุทธรูป	-9.90022
ออนไลน์	-9.90069
ทําไม	-9.90114
อบ	-9.90117
เรียบ	-9.90149
ซ่า	-9.9018
.4	-9.90182
จึงเป็น	-9.90199
ในตอน	-9.90243
ea	-9.90243
เฝ้า	-9.90334
มหาราช	-9.90344
กัด	-9.90386
ได้รับเลือก	-9.90392
▁เป็นภาพยนตร์	-9.90416
ดัน	-9.90418
บก	-9.90424
▁อาจ	-9.9043
▁รุ่น	-9.90439
หายใจ	-9.90463
ห่าง	-9.90498
เปลี่ยนชื่อ	-9.90503
เป็นอย่างมาก	-9.90505
พิธีกร	-9.90516
อวัยวะ	-9.90576
อย่างน้อย	-9.90603
เป็นเมือง	-9.90644
▁ประธาน	-9.90647
อยู่ภายใต้	-9.90675
พร้อมกัน	-9.90676
กุศล	-9.90678
เวล	-9.90683
การทํางานของ	-9.90695
เบส	-9.90778
การแพทย์	-9.90815
วาระ	-9.90852
ซับซ้อน	-9.90859
▁จากการ	-9.90866
▁นอกจากนี้ยัง	-9.90905
เกล	-9.90919
ฟอร์	-9.91007
เมตร	-9.91111
ใดๆ	-9.91144
เอกลักษณ์	-9.91148
ด่าน	-9.91153
▁ฤดูกาล	-9.91171
▁2005	-9.91234
เคลื่อนไหว	-9.9124
ธงชาติ	-9.91245
vi	-9.91267
เชียง	-9.91321
โซล	-9.91324
▁a	-9.91327
เวีย	-9.91424
ความสําเร็จ	-9.91489
▁ช่อง	-9.91507
▁วิ	-9.91582
พู	-9.91582
▁ล้านคน	-9.91597
▁เป็นเมือง	-9.916
เห็นชอบ	-9.91608
▁จอห์น	-9.91683
จอด	-9.91714
▁จะมี	-9.91724
เมา	-9.91817
ข้า	-9.91866
การดูแล	-9.91904
ศิษย์	-9.9191
เพน	-9.91919
คติ	-9.91999
เครื่องหมาย	-9.92008
▁Con	-9.9202
ความเสี่ยง	-9.92044
กอน	-9.92052
▁200	-9.9215
▁แปลว่า	-9.92152
▁เรียกว่า	-9.92172
วั	-9.92197
คนไข้	-9.92224
ได้เข้า	-9.92266
ไว้ว่า	-9.92275
หนาแน่น	-9.92278
idae	-9.92279
ke	-9.92291
ศิลา	-9.92511
แผนที่	-9.92527
ะฮ์	-9.9255
คุณค่า	-9.9258
รั	-9.92592
,5	-9.92635
▁โดยจะ	-9.92648
กระจก	-9.92658
อ้างว่า	-9.9271
ฉะนั้น	-9.92719
▁เล่ม	-9.92721
มีชื่อว่า	-9.92777
เหรียญทอง	-9.92799
เป็นแบบ	-9.92801
▁มัก	-9.92831
เพลิง	-9.9287
▁ตารางกิโลเมตร	-9.92882
ประเมิน	-9.92978
สะดวก	-9.92992
ical	-9.93047
ลีน	-9.93049
ถ้วย	-9.93086
ผ่านทาง	-9.93199
แมว	-9.93211
▁เช่นเดียวกับ	-9.93251
ี่ยง	-9.93282
การเรียนรู้	-9.93312
ึก	-9.93327
เป็นกลุ่ม	-9.93443
ยอดขาย	-9.9345
▁re	-9.93508
ัน	-9.93516
ออม	-9.93533
▁วันศุกร์ที่	-9.9356
จับกุม	-9.9359
ระดับปริญญาตรี	-9.93611
ล้อม	-9.93615
▁จันทร์โอชา	-9.93621
นั่นเอง	-9.93633
ผู้ชนะ	-9.93643
อิเล็กทรอนิกส์	-9.93662
เทียม	-9.93695
จากมหาวิทยาลัย	-9.93708
สบาย	-9.93804
นิวเคลียร์	-9.93868
จอร์จ	-9.93877
ความเห็น	-9.93896
บ้านเมือง	-9.93941
▁(25	-9.93993
▁นับเป็น	-9.94017
ต่อปี	-9.9408
บางชนิด	-9.94116
ชัยชนะ	-9.94219
แปลว่า	-9.94225
end	-9.94243
เง	-9.9428
เวย์	-9.94287
วอร์	-9.94301
ในลักษณะ	-9.94306
เดือนตุลาคม	-9.94324
นิยาย	-9.9433
ron	-9.9446
พรรคการเมือง	-9.94472
ปีที่	-9.94526
▁สถาบัน	-9.94554
ดับเบิลยู	-9.94615
วงจร	-9.94694
ก่อนหน้านี้	-9.94739
▁ร่วม	-9.94746
▁หมู่บ้าน	-9.94748
ตาก	-9.94789
▁พรรษา	-9.94802
tor	-9.94853
ผู้ปกครอง	-9.94907
เกิดจากการ	-9.9491
แน่น	-9.94949
▁Thailand	-9.94955
สามี	-9.9496
เอกราช	-9.94993
เทร	-9.95103
เอื้อ	-9.95112
if	-9.95134
ฉัตร	-9.95134
าราม	-9.95169
bi	-9.95207
▁ผลงาน	-9.95208
▁ธ	-9.95298
03	-9.95382
หม่อม	-9.95395
คือการ	-9.9541
ซิม	-9.95432
ตัวอักษร	-9.95449
ได้ทําการ	-9.95533
มังกร	-9.95568
su	-9.95626
การทดลอง	-9.95629
เศษ	-9.95648
อึ	-9.95707
จารึก	-9.95746
iz	-9.9575
เทือกเขา	-9.95788
นามว่า	-9.95814
mi	-9.95824
วิวัฒนาการ	-9.9583
▁โดยการ	-9.95854
ลักษณะของ	-9.9586
อยู่แล้ว	-9.95878
▁คุณ	-9.95921
▁รองนายกรัฐมนตรี	-9.95934
ขึ้นใน	-9.95944
การตรวจ	-9.95952
นอกจาก	-9.96024
ที่บ้าน	-9.96035
หง	-9.96072
เผ่า	-9.96154
วาท	-9.96166
ออกเสียง	-9.96172
ในประวัติศาสตร์	-9.96213
ซาก	-9.96235
สองคน	-9.9626
กันดั้ม	-9.96295
กุ้ง	-9.96302
พระนคร	-9.96305
วิดีโอ	-9.96305
เหล	-9.96319
▁เดลินิวส์	-9.9638
ถุง	-9.96422
ผึ้ง	-9.96422
ของท่าน	-9.9647
สนามกีฬา	-9.96471
ซุน	-9.96502
การเคลื่อนไหว	-9.96529
ถอด	-9.96699
สายตา	-9.96711
การสื่อสาร	-9.96734
ในบาง	-9.96747
สื่อสาร	-9.96793
ซึม	-9.96801
ขวาง	-9.96807
ทัวร์	-9.9681
เลิศ	-9.96819
จาง	-9.96832
เงา	-9.96928
ถ่ายทํา	-9.97046
ลี่	-9.97055
สงครามโลกครั้ง	-9.97069
มด	-9.97158
เกล้า	-9.97166
เลขที่	-9.9719
form	-9.97195
จัง	-9.97204
ชั่วโมง	-9.97247
รายงานว่า	-9.9728
ปัก	-9.97306
แก้ปัญหา	-9.97331
สถานศึกษา	-9.97406
ิ้ว	-9.97475
ฉายา	-9.97482
ca	-9.97495
อุทยานแห่งชาติ	-9.97554
มาร	-9.97559
เพื่อใช้	-9.97591
อาศัยอยู่ใน	-9.97656
ทรี	-9.97695
เฉลิมพระเกียรติ	-9.97703
วัต	-9.97717
ชื่อของ	-9.97721
ฤษ	-9.9774
ระดับสูง	-9.97767
สัญชาติ	-9.97788
มุก	-9.97796
แผนก	-9.97805
แอนด์	-9.9783
act	-9.979
ก็สามารถ	-9.97928
สําเนียง	-9.98003
ผู้ว่าราชการ	-9.98008
นักท่องเที่ยว	-9.9803
การแข่งขันกีฬา	-9.98031
นักวิชาการ	-9.98056
พ้น	-9.98098
กัง	-9.98106
▁เท	-9.98125
เซ็น	-9.98132
เฉพาะอย่างยิ่ง	-9.98232
วินัย	-9.98253
ฝูง	-9.98262
พรีเมียร์ลีก	-9.98262
ดุล	-9.98266
tal	-9.98357
▁พรรค	-9.98358
▁นก	-9.98373
▁วันอังคารที่	-9.98475
เที่ยว	-9.98493
▁ใกล้เคียงกับ	-9.98496
ตลก	-9.98521
▁ชุด	-9.98565
อาณานิคม	-9.98565
▁โดยที่	-9.98568
ผูก	-9.98577
▁[	-9.98588
กลอง	-9.98593
ดูด	-9.98601
ชนิดนี้	-9.98711
สู	-9.98711
ดูเหมือน	-9.98732
หลังจากที่	-9.98742
อ้างอิง	-9.9888
พิทักษ์	-9.98912
คู่กับ	-9.98946
300	-9.98958
ในภาพยนตร์	-9.98968
แคนาดา	-9.98991
ial	-9.99012
ตามกฎหมาย	-9.99093
แม้	-9.99141
ปราบ	-9.99153
เป็นผู้นํา	-9.99162
▁ก็ได้	-9.9917
อํา	-9.99171
โต๊ะ	-9.99256
ชุมนุม	-9.99295
กวน	-9.99298
ภาคเอกชน	-9.99317
ท่องเที่ยว	-9.9935
▁รมว	-9.99386
เลอ	-9.99416
ัจ	-9.99417
ประเทศญี่ปุ่น	-9.99503
au	-9.99511
แสดงว่า	-9.99536
ด้านล่าง	-9.9955
▁2538	-9.99557
วอล	-9.99588
อาจเป็น	-9.99607
ber	-9.99621
๋อ	-9.99623
ห่วง	-9.99728
ตัวเลข	-9.99738
ป้าย	-9.99773
ทําให้เขา	-9.99868
—	-9.99873
เกิดเหตุ	-9.99873
▁Pro	-9.99886
ราชบัลลังก์	-9.99916
ก๊าซ	-9.99917
ยุทธการ	-9.99963
ณี	-9.99995
ดาวเคราะห์	-10.0002
▁ผู้อํานวยการ	-10.0006
▁แต่เมื่อ	-10.0007
ซ่อน	-10.0009
เก่ง	-10.001
ลิป	-10.0011
เรือง	-10.0021
ในภาค	-10.0027
นําเข้า	-10.0027
กั้น	-10.0028
▁สี	-10.0032
เป็นสถานที่	-10.0042
เป็นไปตาม	-10.0044
คุณสมบัติ	-10.0045
ary	-10.0057
อะตอม	-10.0058
ราษฎร	-10.0062
วัยรุ่น	-10.0066
บุคคลที่	-10.0068
โปรตีน	-10.0071
สอด	-10.0073
ack	-10.008
▁ในปัจจุบัน	-10.0085
son	-10.0091
เพียงแค่	-10.0096
หลวงพ่อ	-10.0097
สารสนเทศ	-10.0102
หล่อ	-10.0103
แข็งแรง	-10.0106
อยู่ระหว่าง	-10.0106
▁มีความ	-10.011
ในเวลาต่อมา	-10.0112
ที่อยู่อาศัย	-10.0113
ตัวผู้	-10.0117
▁Z	-10.0123
ได้ถึง	-10.0124
เกษตรและสหกรณ์	-10.0124
ไปเป็น	-10.0125
▁h	-10.0127
ด้านหน้า	-10.0129
ร่ม	-10.0129
มีอยู่	-10.013
▁ถือเป็น	-10.0131
▁โดยได้	-10.0135
ให้ประชาชน	-10.0139
แกร	-10.0144
โต้	-10.0145
ซัม	-10.0146
พ่อแม่	-10.0146
พระมหา	-10.0151
ru	-10.0157
นิ่ง	-10.0159
วันเสาร์	-10.0174
พบใน	-10.0176
นครศรีธรรมราช	-10.0178
ในสังคม	-10.0179
""	-10.0187
เป็นที่นิยม	-10.0187
หัวข้อ	-10.0194
ตลอดเวลา	-10.0194
ด่วน	-10.0195
ฟิสิกส์	-10.0196
ว่ามี	-10.0198
EC	-10.0202
▁นอกจากนี้ยังมี	-10.0202
ใช้ชีวิต	-10.0203
▁พอ	-10.0203
เขื่อน	-10.0209
ั่ว	-10.0209
.7	-10.0214
ความสามารถในการ	-10.0216
ไม่ยอม	-10.0216
ชื่อดัง	-10.0216
ขั้ว	-10.0218
ที่ได้รับการ	-10.022
ประธานการประชุม	-10.022
ชุม	-10.0225
งะ	-10.0229
ราชสมบัติ	-10.0236
ไปได้	-10.0238
บรา	-10.0245
ฮุ	-10.0245
การ์ด	-10.0248
การบริหารจัดการ	-10.0256
สัดส่วน	-10.0259
เป็นแหล่ง	-10.0259
เม็ด	-10.0261
ของเรา	-10.0264
เคลื่อน	-10.0265
เช่า	-10.0265
นายกฯ	-10.0266
ที่ว่า	-10.0268
ของแต่ละ	-10.0269
ยังไม่มี	-10.0271
๊ะ	-10.0272
ชื่นชม	-10.0273
การพิจารณา	-10.0277
วาส	-10.0278
ลัย	-10.0278
▁และต่อมา	-10.028
▁วงศ์	-10.0282
มีอิทธิพล	-10.0293
การปฏิวัติ	-10.0294
โครง	-10.0302
ฟอร์ด	-10.031
การใช้งาน	-10.0311
กรอง	-10.0311
ดยุก	-10.0313
ace	-10.0313
▁ศรี	-10.0315
ย้ายมา	-10.0319
บําบัด	-10.0336
ที่เกิด	-10.0337
ประเทศอังกฤษ	-10.0343
▁สมาชิก	-10.0345
ชายหนุ่ม	-10.0349
▁ชา	-10.035
ความจํา	-10.0354
ence	-10.0356
▁พร้อมด้วย	-10.0359
ฑ	-10.0361
ซอน	-10.0363
[[	-10.0366
เนื้อเรื่อง	-10.0371
ผู้ชม	-10.0377
▁Ro	-10.038
เสี่ยง	-10.0381
ผู้ผลิต	-10.0385
รัฐประหาร	-10.0386
ไต้หวัน	-10.0386
ที่ยัง	-10.0388
นั้นจะ	-10.0388
เดือนมีนาคม	-10.0395
คําถาม	-10.0395
จังหวะ	-10.0399
เหยื่อ	-10.0399
สถานีโทรทัศน์	-10.04
พาร์	-10.0402
เกมส์	-10.0404
หลายชนิด	-10.0407
แลกเปลี่ยน	-10.0412
▁บุญ	-10.0419
▁ข้อ	-10.0421
มาลา	-10.0425
คว้า	-10.0426
ภักดี	-10.0427
ต้องใช้	-10.0429
ice	-10.0437
ถูกใช้	-10.0441
อิสราเอล	-10.0445
ปริญญา	-10.0448
สตี	-10.0455
▁และเมื่อ	-10.0456
เป็นเจ้าของ	-10.0456
หลายอย่าง	-10.0457
▁ต่อมาได้	-10.046
ผู้จัดการ	-10.0463
ได้ด้วย	-10.0464
สุก	-10.0466
ib	-10.0467
วงการ	-10.0469
นิพนธ์	-10.0473
ความคิดเห็น	-10.0477
▁An	-10.0478
ยึดครอง	-10.0478
เป็นอย่างดี	-10.0479
แผนการ	-10.0484
มีลักษณะเป็น	-10.0494
เถ	-10.0494
อนุญาตให้	-10.0494
เซต	-10.0495
▁Di	-10.0497
เธอร์	-10.0504
ฉุกเฉิน	-10.0505
อัม	-10.0512
▁ภาพยนตร์	-10.0513
มัง	-10.0518
สายการบิน	-10.0519
เคียว	-10.0533
ขณะนั้น	-10.0534
91	-10.0535
ได้รับพระราชทาน	-10.0535
รอส	-10.0536
พัฒนาการ	-10.0537
ปีก่อน	-10.0538
คริสต์ทศวรรษ	-10.0538
เป็นศูนย์กลาง	-10.0545
▁ประเทศญี่ปุ่น	-10.056
ของญี่ปุ่น	-10.0564
แค้น	-10.0564
เม็กซิโก	-10.0565
▁ก็จะ	-10.0567
ผู้เข้าแข่งขัน	-10.0567
กําลังใจ	-10.0567
▁ตั้งอยู่ที่	-10.0567
▁โทร	-10.0571
5,000	-10.0586
ฤดู	-10.0588
ลิขสิทธิ์	-10.0593
ท้าว	-10.0593
ห้องเรียน	-10.0595
นําโดย	-10.0601
บุรุษ	-10.0602
สถานีวิทยุ	-10.0603
▁(<	-10.061
ผู้กํากับ	-10.0623
ทูล	-10.0624
วินาที	-10.0625
ชาวอังกฤษ	-10.0627
การจัดตั้ง	-10.0628
▁เปิด	-10.063
▁ฮา	-10.0635
มายัง	-10.0635
da	-10.064
ตามมา	-10.0641
สนามบิน	-10.0647
ซอง	-10.0647
อิม	-10.0656
อาญา	-10.0657
▁และในปี	-10.0664
พลเรือน	-10.0664
ตอนแรก	-10.0665
▁อุ	-10.0669
สายพันธุ์	-10.0672
ty	-10.0673
หม่อมเจ้า	-10.0677
ให้ได้	-10.0678
ประโยค	-10.0678
และเทคโนโลยี	-10.0679
ช่วยกัน	-10.068
หลอดเลือด	-10.0689
ขอบคุณ	-10.069
พรรคประชาธิปัตย์	-10.0692
นับตั้งแต่	-10.0695
โด่งดัง	-10.0697
ดง	-10.0702
มั่นใจ	-10.0709
รัฐวิสาหกิจ	-10.0709
ลัส	-10.071
สมรส	-10.071
ผัน	-10.0713
port	-10.0716
ไก	-10.0717
วิทย์	-10.0719
กรณ์	-10.0722
ความผิด	-10.0725
ase	-10.0726
นักมวย	-10.0727
สหประชาชาติ	-10.0737
▁2541	-10.0738
ข้อตกลง	-10.0743
อัตราการ	-10.0744
กบ	-10.0745
ขี่	-10.0748
ของมหาวิทยาลัย	-10.0749
อนุภาค	-10.0761
ind	-10.077
ฮู	-10.0773
เนส	-10.0775
▁ลูก	-10.0778
▁ด้วยการ	-10.0778
จุล	-10.0778
หลังคา	-10.0779
พระบรม	-10.0779
▁อัลบั้ม	-10.0781
อิสลาม	-10.0786
เดือนมกราคม	-10.0786
แคน	-10.0788
นักฟุตบอล	-10.0789
ยากจน	-10.079
ระบอบ	-10.079
ขับร้อง	-10.08
สื่อมวลชน	-10.0801
คลินิก	-10.0801
หรอก	-10.0801
ชุดนี้	-10.0804
จริงๆ	-10.0804
▁d	-10.0807
เตีย	-10.081
ถึงความ	-10.0815
มั่นคง	-10.0818
ความช่วยเหลือ	-10.0818
อว์	-10.0818
ทวี	-10.0819
แตกต่างจาก	-10.082
ยีน	-10.0821
▁2002	-10.0821
แมค	-10.0822
กลีบ	-10.0824
เดือนกันยายน	-10.0825
จังหวัดเชียงใหม่	-10.0826
หมา	-10.0827
ga	-10.0835
▁ได้รับการ	-10.0836
ลุง	-10.0836
กรุงศรีอยุธยา	-10.0839
ที่เหมาะสม	-10.084
โคล	-10.0841
ไม่มีการ	-10.0841
มีรูปร่าง	-10.0843
มีอาการ	-10.0844
อนาคต	-10.0845
ใช้ชื่อว่า	-10.0849
วิลเลียม	-10.0858
เสมือน	-10.0858
สหพันธ์	-10.0864
ฉบับที่	-10.0867
รุกราน	-10.0873
▁เบ	-10.0876
วันอาทิตย์	-10.0877
ผลประโยชน์	-10.0878
ร่อง	-10.0878
พากย์	-10.0887
็กซ์	-10.0889
สันติ	-10.09
วิทยาเขต	-10.09
อิหร่าน	-10.0901
▁บท	-10.0909
คาดว่า	-10.0912
อย่างยั่งยืน	-10.0913
กัส	-10.0923
ชาวจีน	-10.0924
เพื่อที่จะ	-10.093
ไม่มีใคร	-10.093
สุนัข	-10.0935
ลอก	-10.0938
▁2531	-10.0943
ท่าเรือ	-10.0947
ตามแนว	-10.0949
นิทรรศการ	-10.0949
การปฏิบัติ	-10.096
เลส	-10.0961
ซัส	-10.0961
hy	-10.0961
แย่	-10.0963
คิง	-10.097
ทรัพยากรธรรมชาติ	-10.0976
โมเลกุล	-10.0978
ทําร้าย	-10.0982
ศึกษาต่อ	-10.0982
ต่อสู้กับ	-10.0985
ไมล์	-10.0997
Br	-10.1002
มุข	-10.1004
ใกล้ชิด	-10.1004
เท่าที่	-10.1005
คําตอบ	-10.1007
โซเวียต	-10.1007
สัตว์ป่า	-10.1007
ยอง	-10.1011
อาชีวศึกษา	-10.1012
นี้คือ	-10.1013
จําพวก	-10.1014
บริสุทธิ์	-10.1022
กัล	-10.1026
é	-10.1027
จําแนก	-10.1027
บาล	-10.1027
ฤดูร้อน	-10.1029
ปลด	-10.1029
หลังจากนั้น	-10.103
เปลี่ยนไป	-10.1034
น้ําแข็ง	-10.1038
ust	-10.1044
เน็ต	-10.1046
gen	-10.1047
▁70	-10.1054
วีร	-10.106
สุดท้ายของ	-10.1068
เชื้อเพลิง	-10.1072
▁;	-10.1074
ของโรงเรียน	-10.1074
▁โดยให้	-10.1075
ราชภัฏ	-10.1076
การขับเคลื่อน	-10.1081
▁เด	-10.1082
ระหว่างการ	-10.1084
ป้า	-10.1095
พัฒน์	-10.1098
สั่งให้	-10.1099
อะนิเมะ	-10.11
รับเชิญ	-10.1103
ได้กล่าว	-10.1105
หลังจากการ	-10.1106
ป้อม	-10.1106
การให้	-10.111
ได้เข้าร่วม	-10.1114
เว็บ	-10.112
ran	-10.1124
▁1980	-10.113
เช่นเดียวกัน	-10.1135
ฟ้อง	-10.114
เราจะ	-10.1141
บันเทิง	-10.1142
ลงใน	-10.1143
น้องชาย	-10.1145
ละครเรื่อง	-10.1153
ซอย	-10.1158
ฟาโรห์	-10.1159
ฟื้น	-10.1163
ประกวด	-10.1164
จดทะเบียน	-10.1164
ช่องทาง	-10.1165
ครุ	-10.1168
sa	-10.1168
ยาเสพติด	-10.1169
ตต์	-10.1172
โคน	-10.1173
วอน	-10.1175
คุณหญิง	-10.1176
▁Le	-10.1176
▁Com	-10.1177
ช่อ	-10.1177
ผลผลิต	-10.1177
โรจน์	-10.1179
▁Be	-10.1186
ได้ง่าย	-10.1187
พารา	-10.1189
เกษตรกรรม	-10.1193
are	-10.1193
มากนัก	-10.1195
▁รอบ	-10.1197
ปาร์	-10.1198
อัต	-10.1199
ในรัชสมัย	-10.1199
si	-10.1201
ตอนนี้	-10.1201
สํานักพิมพ์	-10.1207
เกะ	-10.1209
เกลือ	-10.121
เป็นที่ตั้งของ	-10.121
เปลี่ยนเป็น	-10.1211
▁ภาค	-10.1213
น้องสาว	-10.1217
ในเกม	-10.1218
นิน	-10.1223
ด้านหลัง	-10.1224
▁จุด	-10.1226
ome	-10.1227
สืบทอด	-10.1227
แทรก	-10.123
หะ	-10.1232
มี่	-10.1233
ในช่วงเวลา	-10.1241
ประหลาด	-10.1244
ock	-10.1244
▁สถานี	-10.1249
สาระ	-10.1253
ตับ	-10.1254
เดือนธันวาคม	-10.1259
มะเร็ง	-10.126
ล้ํา	-10.1265
มานาน	-10.1272
มหาสมุทร	-10.1277
หลับ	-10.1277
ถัดมา	-10.1279
▁Se	-10.1281
▁2537	-10.1283
ข้อเสนอ	-10.1286
เครือ	-10.1288
มนตรี	-10.1301
ประสิทธิภาพ	-10.1302
ทางตะวันออก	-10.1308
ควรจะ	-10.131
ดวงอาทิตย์	-10.1311
▁g	-10.1314
ครบรอบ	-10.1315
รับฟัง	-10.1316
ได้สําเร็จ	-10.1318
ราชสํานัก	-10.1323
ป์	-10.1323
▁องศา	-10.1327
วงกลม	-10.1327
กิตติ	-10.1327
▁แต่ว่า	-10.1329
ส่วนราชการ	-10.1334
เดือนเมษายน	-10.1339
ที่มีอยู่	-10.1341
บวร	-10.1351
ล็อก	-10.1355
้วน	-10.1356
ประกันภัย	-10.1356
▁To	-10.1362
do	-10.1363
.8	-10.1364
▁Tr	-10.1366
การคลัง	-10.137
เองก็	-10.1371
เพอร์	-10.1372
การเกิด	-10.1373
World	-10.1374
ได้พบกับ	-10.1374
หลุด	-10.1374
▁วันพุธที่	-10.1379
ขอนแก่น	-10.1381
บ่อยครั้ง	-10.1381
มัธยมศึกษา	-10.1384
ใย	-10.1385
พึง	-10.1388
การเพิ่ม	-10.139
เขียนบท	-10.1397
ตัวเมีย	-10.1399
คลัง	-10.1399
แตกต่าง	-10.1402
▁เดอ	-10.1412
ค้าง	-10.1416
เหม	-10.1417
ปรุง	-10.1418
▁พบ	-10.142
ยี	-10.1421
ริโอ	-10.1428
มีเพียง	-10.1428
บรม	-10.1429
ประดิษฐาน	-10.1429
เดือนพฤษภาคม	-10.1429
สรรพ	-10.1433
มีการใช้	-10.1433
กอร์	-10.144
ดีเด่น	-10.1442
▁อายุ	-10.1442
การตรวจสอบ	-10.1444
▁ฉัน	-10.1444
โฉม	-10.1445
ทิพย์	-10.1445
▁เป็นเพลง	-10.1445
พระสงฆ์	-10.1445
สภาวะ	-10.1448
น็อค	-10.1456
ศักดิ์สิทธิ์	-10.1461
ปู่	-10.1462
พิษณุโลก	-10.1465
เปลี่ยนชื่อเป็น	-10.1467
▁ตัวอย่าง	-10.1467
พระพุทธเจ้า	-10.1468
ได้ใช้	-10.1469
จอมพล	-10.1469
แจก	-10.147
ล่อง	-10.147
les	-10.1476
ob	-10.1479
กล้วย	-10.148
ประถมศึกษา	-10.1482
กล่าวหา	-10.1485
โพธิ	-10.1486
ปรับตัว	-10.1489
จัน	-10.1492
สังคมและความ	-10.1498
ทางหลวงแผ่นดิน	-10.1498
รับบทเป็น	-10.1506
▁ซึ่งได้	-10.1508
▁ตัวอย่างเช่น	-10.1509
แนะ	-10.1512
ได้รับแต่งตั้ง	-10.1516
ก่อนหน้า	-10.152
ถ้ํา	-10.1526
ที่เกิดจาก	-10.1536
ลืม	-10.1537
เสริมสร้าง	-10.1538
มิว	-10.1539
ศรัทธา	-10.1542
อักเสบ	-10.1547
ลําต้น	-10.1549
ภาคกลาง	-10.1549
แก๊ส	-10.1552
เทียบ	-10.1552
นอร์เวย์	-10.1558
โตร	-10.156
ord	-10.1561
ผู้สูงอายุ	-10.1562
Cl	-10.1565
บอย	-10.1576
▁2018	-10.1578
โพธิ์	-10.1582
อํานวยความสะดวก	-10.1583
นันท์	-10.1583
เรียกร้อง	-10.1593
พ่ายแพ้	-10.1593
การคัดเลือก	-10.1594
ยม	-10.1594
เซ็นสัญญา	-10.1596
ชาร์	-10.1598
▁กิโลกรัม	-10.1598
ลือ	-10.16
ครอบครอง	-10.1605
อธิบดีกรม	-10.1609
หลุยส์	-10.1618
เกินไป	-10.1618
ฟุตบอลโลก	-10.1622
ได้สร้าง	-10.1624
ส่วนประกอบ	-10.1625
เป็นคํา	-10.1626
ประมุข	-10.1626
เทศบาลเมือง	-10.1632
ทางตะวันตก	-10.1635
ทราบว่า	-10.1638
เก้า	-10.1647
โกล	-10.1647
ถั่ว	-10.1652
รับทราบ	-10.1654
ที่กําหนด	-10.1654
IS	-10.1657
กระทั่ง	-10.166
นีย์	-10.1662
โล่	-10.1665
้ด	-10.1668
ี่ยว	-10.1669
ทิศใต้	-10.1669
โจว	-10.1671
หลอก	-10.1673
ลิม	-10.1673
▁เกิดวันที่	-10.1676
ภาระ	-10.1678
อันเป็น	-10.1681
ทางเดิน	-10.1687
โก้	-10.1687
ธรรมเนียม	-10.1695
มั่นคงของมนุษย์	-10.1696
ric	-10.1697
การขนส่ง	-10.1697
ซอฟต์แวร์	-10.1702
▁แม้จะ	-10.1709
ก่อนที่จะ	-10.1711
อัตโนมัติ	-10.1712
ม์	-10.1714
สกี	-10.1715
หันมา	-10.1715
Q	-10.1716
เสื่อม	-10.1717
.9	-10.1724
ts	-10.1724
นิด	-10.1725
พอล	-10.1731
คุณภาพชีวิต	-10.1732
ล้มเหลว	-10.1738
เป็นจํานวน	-10.1741
Ch	-10.1741
ในหมู่	-10.1742
ทั้งสาม	-10.1743
เมฆ	-10.1743
เดินหน้า	-10.1746
ตอง	-10.1747
เสื้อผ้า	-10.1747
ther	-10.1747
รมว	-10.175
เป็นหัวหน้า	-10.1751
▁1990	-10.1751
ผู้เชี่ยวชาญ	-10.1753
ปัตตานี	-10.1759
▁&	-10.176
ตอบสนอง	-10.1763
การแก้ไขปัญหา	-10.1764
▁2003	-10.1766
โตเกียว	-10.1768
ราชินีนาถ	-10.1772
มีพระ	-10.1774
โง	-10.1776
สามเหลี่ยม	-10.1776
ดิบ	-10.1777
เอ็กซ์	-10.1778
็อน	-10.1781
็อต	-10.1788
ปน	-10.1788
ทดสอบ	-10.1801
▁และสามารถ	-10.1804
เรย์	-10.1804
ออกมาจาก	-10.1807
ผู้อื่น	-10.181
▁จบการศึกษา	-10.1814
ทางใต้	-10.1816
สวัสดิ์	-10.1819
ได้เริ่ม	-10.182
▁จึงทําให้	-10.1821
แอม	-10.1822
ดัก	-10.1823
เรื่องการ	-10.1824
ที่แตกต่างกัน	-10.183
นักวิทยาศาสตร์	-10.1833
ล่ะ	-10.1833
กัก	-10.1838
▁ส่งผลให้	-10.1844
เขาจะ	-10.1844
เป็นเพียง	-10.1846
เออร์	-10.1849
เบื้อง	-10.1851
ชอ	-10.1854
ชีว	-10.1857
ดิส	-10.1861
ฒ	-10.1863
อาหรับ	-10.1865
กูล	-10.1866
▁La	-10.1871
ที่เธอ	-10.1874
mb	-10.1876
นาฬิกา	-10.1881
ของระบบ	-10.1882
เป็นเจ้าภาพ	-10.1882
ในยุโรป	-10.1883
รวดเร็ว	-10.1883
▁เปิดเผยว่า	-10.189
ของเมือง	-10.189
ในการพัฒนา	-10.1892
ระบาด	-10.1897
▁Bo	-10.1899
แป้ง	-10.1899
ark	-10.19
มหาวิหาร	-10.1901
ven	-10.1906
ยิ่งขึ้น	-10.1908
อุบลราชธานี	-10.1912
เกิล	-10.1914
ame	-10.1919
เป็นไปได้	-10.1922
นั้นก็	-10.1924
ชาร์ล	-10.1928
ในกรณี	-10.193
ใบหน้า	-10.1931
ยังสามารถ	-10.1931
รัชกาล	-10.1934
ไมเคิล	-10.1934
ใช้ประโยชน์	-10.1937
gra	-10.1937
สมเด็จพระราชินี	-10.1938
จอง	-10.1938
เงียบ	-10.1939
กองทัพบก	-10.1942
ริง	-10.1943
เว้น	-10.1944
เนิน	-10.1949
การจัดอันดับ	-10.1949
พระราชธิดา	-10.1949
จาน	-10.195
เครียด	-10.195
แล้วเสร็จ	-10.1951
โจร	-10.1954
ละครโทรทัศน์	-10.196
ภิ	-10.1961
ในอัลบั้ม	-10.1962
เพื่อป้องกัน	-10.1962
ich	-10.1964
ree	-10.1971
เสด็จพระราช	-10.1975
ทิน	-10.1987
ผนัง	-10.1989
ทัย	-10.199
▁2534	-10.1991
gi	-10.1992
mer	-10.1992
ous	-10.2001
ในรัฐ	-10.2002
ภาควิชา	-10.2003
หมายความว่า	-10.2009
จําลอง	-10.2013
ี่ยน	-10.2013
คํานวณ	-10.2014
ไม่ดี	-10.2015
ทัศน	-10.2018
จะช่วย	-10.2018
และสิ่งแวดล้อม	-10.2019
▁และได้รับ	-10.202
สนุก	-10.202
นวล	-10.2023
มอบหมายให้	-10.2023
แคล	-10.2024
ชาวญี่ปุ่น	-10.2032
เมื่ออายุ	-10.2033
▁อย่างไรก็ดี	-10.2036
เดือนมิถุนายน	-10.2041
ไอร์แลนด์	-10.2041
ขยายตัว	-10.2044
ดาราศาสตร์	-10.2051
ภาษาจีน	-10.2051
สหภาพ	-10.2053
เป็นสิ่งที่	-10.2056
เมืองไทย	-10.2062
เรียบเรียง	-10.2064
ไทร	-10.2068
ชายแดนภาคใต้	-10.2069
ปัน	-10.207
ส่งออก	-10.2073
หลอด	-10.2083
อิส	-10.2087
นราธิวาส	-10.209
ที่นี่	-10.2093
ไข้	-10.2094
กังวล	-10.2095
St	-10.2098
หลายแห่ง	-10.2098
lic	-10.2102
เจ้าเมือง	-10.2107
ส่วนใหญ่เป็น	-10.2112
หัวเราะ	-10.2117
ปฏิบัติหน้าที่	-10.2117
นําไปใช้	-10.2119
▁โรค	-10.2119
สวัสดิการ	-10.212
รู้จักกัน	-10.2121
ลัม	-10.2122
คุย	-10.2123
ริเริ่ม	-10.2129
นํามาใช้	-10.2133
วาร์	-10.2137
าภรณ์	-10.2137
รินทร์	-10.2137
มีข้อ	-10.214
มีความสามารถ	-10.2144
ในการสร้าง	-10.2146
pi	-10.2152
ka	-10.2157
ติดต่อกัน	-10.2162
บรรลุ	-10.2166
ได้ออก	-10.2171
ถอย	-10.2176
ism	-10.2179
บลู	-10.2179
ไหม้	-10.2184
ที่เขียน	-10.2184
ah	-10.2186
ไซด์	-10.2198
ทิว	-10.2199
ในห้อง	-10.2199
แหล่งน้ํา	-10.22
อบรม	-10.2201
เรียว	-10.2204
▁ซึ่งทําให้	-10.2206
การรับ	-10.2208
มป์	-10.2209
ฤดูหนาว	-10.2209
นาซี	-10.221
งดงาม	-10.2212
สัมพันธ์กับ	-10.2219
▁You	-10.2225
เธอก็	-10.2226
▁Mar	-10.2227
การกําหนด	-10.2227
สวรรคต	-10.223
WWE	-10.2231
!"	-10.2232
อินทรีย์	-10.2234
ลวดลาย	-10.2238
AT	-10.2239
ดวงตา	-10.2239
อย่างกว้างขวาง	-10.2241
ทริ	-10.2243
มิล	-10.2243
เพียงแต่	-10.2247
การปรับปรุง	-10.2257
รุ่งเรือง	-10.226
บูรณะ	-10.2264
ในภูมิภาค	-10.2269
เคร	-10.2273
ตุรกี	-10.2275
เดือนพฤศจิกายน	-10.2281
อาสนวิหาร	-10.2286
หมวดหมู่	-10.2287
คลุม	-10.2291
แถลง	-10.2292
ิ่น	-10.2297
พอใจ	-10.2302
เข้าแข่งขัน	-10.2305
สุรินทร์	-10.2306
ัวร์	-10.2307
ปะทะ	-10.231
ว้า	-10.231
พื้นผิว	-10.2313
สังเคราะห์	-10.2315
อํานวย	-10.2316
หน่อย	-10.2317
ไอ้	-10.2319
มัธยม	-10.2319
มาร่วม	-10.2319
สมการ	-10.232
▁ประยุทธ์	-10.2325
แบบนี้	-10.233
ata	-10.2338
ประสานงาน	-10.234
ทีมชาติไทย	-10.2341
อาย	-10.2341
ใต้ดิน	-10.2348
รัด	-10.235
ner	-10.2351
ki	-10.2352
การสํารวจ	-10.2354
▁Te	-10.2371
บาย	-10.2372
เบิร์ก	-10.2375
ไผ่	-10.2375
ซัล	-10.2377
ความสูง	-10.2378
▁รูป	-10.2382
สั่งการ	-10.2382
ดรา	-10.2384
ประเทศเยอรมนี	-10.2385
ใกล้กับ	-10.2385
ทันสมัย	-10.2387
นําไปสู่	-10.2392
งอก	-10.2395
นักการเมือง	-10.2397
ลอบ	-10.24
การเปลี่ยน	-10.24
ในแนว	-10.2401
ต้ม	-10.2402
“	-10.2404
พลเอก	-10.2405
ซิตี	-10.2413
มรดก	-10.2414
▁SMEs	-10.2415
สหรัฐฯ	-10.2416
เทอ	-10.2423
สะอาด	-10.2431
เดือนกุมภาพันธ์	-10.2431
กีตาร์	-10.2431
----------------	-10.2432
แผ่นดินไหว	-10.2433
ลอน	-10.2434
พุ่ม	-10.2437
เอกอัครราชทูต	-10.2437
สหกรณ์	-10.2437
เซา	-10.2438
วิจิตร	-10.2439
ลงโทษ	-10.244
สปีชีส์	-10.2442
ยูโร	-10.2442
มัล	-10.2443
เป็นสัตว์	-10.2445
▁เกิดเมื่อ	-10.2446
ture	-10.2446
จบการศึกษา	-10.2451
ปีต่อมา	-10.2451
คนละ	-10.2452
จัดแสดง	-10.2455
▁ไม่ว่าจะเป็น	-10.2464
การสนับสนุน	-10.2464
แกรนด์	-10.2471
กองทัพเรือ	-10.2473
ปลายปี	-10.2474
ชิงแชมป์โลก	-10.2481
▁2536	-10.2481
เปล่า	-10.2486
การปรับ	-10.2487
ina	-10.2489
▁2560)	-10.2491
so	-10.2494
บึง	-10.2494
lan	-10.2494
องค์กรปกครองส่วน	-10.2499
ิ้ล	-10.2499
นักดนตรี	-10.2504
เบลเยียม	-10.251
เดือนสิงหาคม	-10.2516
ต้องการให้	-10.2516
ม่วง	-10.2516
KO	-10.2518
สรร	-10.252
มุมมอง	-10.2522
ตํารา	-10.2522
สมุทร	-10.2523
เต่า	-10.2523
เกษม	-10.2527
ธาร	-10.2531
ผู้บริโภค	-10.2532
กําชับ	-10.2532
pp	-10.2542
เกราะ	-10.2544
แชมป์โลก	-10.2548
ชวา	-10.2549
วัว	-10.2556
หลายๆ	-10.2556
ไม่ว่าจะ	-10.2556
ที่มหาวิทยาลัย	-10.256
ทารก	-10.2561
▁500	-10.2565
ทรงพระกรุณา	-10.2567
ด้านบน	-10.257
สัมมนา	-10.2572
ถ่ายภาพ	-10.2573
เศรษฐศาสตร์	-10.2579
ณรงค์	-10.2579
▁Ex	-10.2584
ณิช	-10.2585
แกรมมี่	-10.2595
จมูก	-10.2595
การรับรู้	-10.2603
รักษาการ	-10.2604
ต่อไปนี้	-10.2604
ประท้วง	-10.2606
/2560	-10.2612
ในสาขา	-10.2613
หมวด	-10.2617
▁โม	-10.2618
-4	-10.2618
ite	-10.2619
จัดสรร	-10.2619
การทดสอบ	-10.263
การปกครองของ	-10.2631
สุดยอด	-10.2634
ประเสริฐ	-10.2635
ทางเลือก	-10.2637
ฮัม	-10.2638
ดาวฤกษ์	-10.2639
ในสงคราม	-10.264
บิล	-10.2646
eg	-10.2649
พลเมือง	-10.2651
▁1992	-10.2651
▁1996	-10.2652
การแบ่ง	-10.2658
คอล	-10.2659
คําร้อง	-10.2659
แล้ง	-10.266
สํารอง	-10.2663
สุริย	-10.2664
ish	-10.2671
พ้นจาก	-10.2673
แรงบันดาลใจ	-10.2675
ฐิ	-10.2676
เป็นโรค	-10.268
เดือนกรกฎาคม	-10.2681
ผิวหนัง	-10.2685
ach	-10.2685
▁2533	-10.2697
แม็ก	-10.27
ภาคี	-10.2703
ณฑ	-10.2704
สวิตเซอร์แลนด์	-10.2704
วัฒนา	-10.2706
min	-10.2706
แต่เดิม	-10.2716
กลายมาเป็น	-10.2717
เค้า	-10.2719
กลางคืน	-10.272
มีความหมาย	-10.2722
วันศุกร์	-10.2723
ได้ทรง	-10.2726
แดด	-10.2727
ในการทํา	-10.2728
เวอร์ชัน	-10.2728
การโจมตี	-10.2729
ั้ง	-10.273
เรื่อย	-10.2731
เท่ากัน	-10.2733
พื้นดิน	-10.2736
จักรพรรดินี	-10.2736
ส่งผลให้	-10.2739
เบญจ	-10.274
ภัทร	-10.2743
มลายู	-10.2744
็ต	-10.2748
ัติ	-10.2756
ว่ายน้ํา	-10.2758
การตลาด	-10.276
tri	-10.2761
ทางการศึกษา	-10.2761
แผล	-10.2762
ทดแทน	-10.2764
นิต	-10.2778
บรู	-10.2779
กลาย	-10.2782
og	-10.2783
ress	-10.2786
ลําปาง	-10.2787
อาจจะเป็น	-10.2788
เป็นซิงเกิล	-10.2791
หากิน	-10.2795
รับใช้	-10.2795
ค้าขาย	-10.2801
งานเขียน	-10.2805
ยกย่อง	-10.2805
ขับรถ	-10.2806
ราษฎร์	-10.2808
การเดิน	-10.2808
ตติ	-10.2818
-5	-10.2819
เทวี	-10.282
อินเตอร์	-10.2822
สําคัญในการ	-10.2825
บิ๊ก	-10.2827
fer	-10.2827
บรรทุก	-10.2831
ik	-10.2838
ปีศาจ	-10.2843
นัง	-10.2845
บี้	-10.2846
จัดเก็บ	-10.2856
การณ์	-10.2858
พระธรรม	-10.2865
เลขานุการ	-10.2872
สามัคคี	-10.2878
แพง	-10.2884
land	-10.2885
เป็นส่วน	-10.2886
รับรู้	-10.2886
เวียง	-10.2886
ond	-10.2889
ป่าไม้	-10.289
เอ็ด	-10.289
บวช	-10.2891
เก่าแก่	-10.2896
ปรี	-10.2898
ดอย	-10.29
ood	-10.2902
กระทรวงการพัฒนา	-10.2903
ฟฟ์	-10.2906
มีขนาดเล็ก	-10.2906
กวี	-10.2909
ครองราชย์	-10.2911
น้อม	-10.2911
นักวิจัย	-10.2911
อภัย	-10.2911
สงขลา	-10.2913
ข้างเคียง	-10.2915
ton	-10.2915
ค่อย	-10.2918
พระเยซู	-10.2919
-0	-10.2925
mon	-10.2926
มินิ	-10.293
ปรับเปลี่ยน	-10.2932
มองว่า	-10.2933
หลบหนี	-10.2937
นําไปสู่การ	-10.2938
ปีเดียวกัน	-10.2938
ชนชั้น	-10.294
ดีที่สุด	-10.2942
จิตรกร	-10.2944
อู่	-10.2947
มวยไทย	-10.2947
จะเห็น	-10.2948
มีทั้ง	-10.2948
รูปทรง	-10.295
คูณ	-10.2956
สูญ	-10.2965
นายสุ	-10.297
ค้น	-10.2971
ขีด	-10.2974
ได้รับเลือกตั้ง	-10.2975
ไหว	-10.2975
รณรงค์	-10.2976
มิวสิก	-10.2984
สนธิ	-10.2984
สอบถาม	-10.2987
มีมติ	-10.2988
หนาว	-10.2994
ความพยายาม	-10.3003
สตัน	-10.3004
ใช่	-10.3005
อัยการ	-10.3008
เรื่อยๆ	-10.301
ตอบรับ	-10.3013
คุ้ม	-10.3015
เปา	-10.3016
AN	-10.3018
we	-10.3023
ความสุข	-10.3026
เภสัช	-10.3026
กระสุน	-10.3026
โศก	-10.3027
อยด์	-10.303
เคอร์	-10.303
เป็นระบบ	-10.3031
เส้นเมริเดียนที่	-10.3032
ดุสิต	-10.3032
ส่อง	-10.3034
รพ	-10.3035
▁กม	-10.3037
ฉีด	-10.3038
ยืนยันว่า	-10.3041
เกต	-10.3046
ร่วมมือกับ	-10.3048
อิรัก	-10.3049
ทุกวัน	-10.3052
จัก	-10.3053
แรม	-10.3056
ครั้งแรกเมื่อ	-10.3057
จันทร	-10.3058
เรื่องราวของ	-10.3059
ana	-10.3063
เสรีภาพ	-10.3074
นับเป็น	-10.3077
IC	-10.308
ตอนกลาง	-10.3082
ที่แท้จริง	-10.3086
เล็	-10.3091
ทําหน้าที่เป็น	-10.3093
▁ถึงแม้ว่า	-10.3095
CO	-10.3096
โดยรวม	-10.3112
คลอด	-10.3114
แต่อย่างใด	-10.3115
เกรง	-10.3121
แต่งงานกับ	-10.3121
สีน้ําเงิน	-10.3121
บ้า	-10.3124
ในเครือ	-10.3126
แม้ว่า	-10.3128
สํานึก	-10.3128
สิงห	-10.3129
ชล	-10.3131
ถูกส่ง	-10.3131
ปอด	-10.3132
▁เป็นชื่อ	-10.3133
ถูกจับ	-10.3133
อาสา	-10.3134
จัดตั้งขึ้น	-10.3142
iss	-10.3147
ign	-10.3148
เกี่ยวข้อง	-10.3148
▁Ra	-10.3155
ไข	-10.3157
▁กล่าวคือ	-10.317
▁(3	-10.3175
ขับไล่	-10.3177
ตกเป็น	-10.3187
ที่ดีที่สุด	-10.3192
ลูกทุ่ง	-10.3194
เขตการปกครอง	-10.3194
ออกอัลบั้ม	-10.3195
tu	-10.3195
เวส	-10.3196
เที่ยวบิน	-10.3201
ได้รับบาดเจ็บ	-10.3209
เป้า	-10.3209
อุปสรรค	-10.321
ฟิล์ม	-10.3212
แหละ	-10.3212
มีคน	-10.3215
บรรเลง	-10.3218
ฮังการี	-10.3218
เมล	-10.3222
นาที	-10.3223
ริช	-10.3224
เที่ยง	-10.3228
จัดการแข่งขัน	-10.3229
lay	-10.323
เทป	-10.3232
▁ฟุต	-10.3234
ขณะที่	-10.3238
ST	-10.3243
วัล	-10.3246
เครื่องจักร	-10.3246
แลน	-10.3247
สมดุล	-10.3247
อีสาน	-10.3247
สงฆ์	-10.3248
,500	-10.3258
▁2519	-10.3262
▁ฝ่าย	-10.3268
อาคารเรียน	-10.3271
อัลบั้มนี้	-10.3272
yl	-10.3273
เชน	-10.3273
อุทยาน	-10.3275
คมนาคม	-10.3277
ยกฐานะ	-10.3277
บันได	-10.3282
จัดอยู่ใน	-10.3282
ทําอะไร	-10.3283
พึ่ง	-10.3284
ที่ใช้ในการ	-10.329
ชั้นสูง	-10.329
-20	-10.3296
ขอบเขต	-10.3297
เลย์	-10.3298
ยูนิ	-10.3301
พยาน	-10.3302
ทางการเงิน	-10.3303
ที่สุดในโลก	-10.3306
โดยสาร	-10.3308
Z	-10.3311
ทหารบก	-10.3313
ข้างต้น	-10.3319
va	-10.3321
ศึกษาธิการ	-10.3321
หลักเกณฑ์	-10.3326
วงษ์	-10.3327
ผิดพลาด	-10.3328
ือง	-10.333
สํานักงานคณะกรรม	-10.3331
▁2527	-10.3344
ินทร	-10.3345
ft	-10.335
มัด	-10.335
▁2001	-10.3363
ในภายหลัง	-10.3367
คนร้าย	-10.3368
อําเภอเมือง	-10.3376
นายทหาร	-10.3377
5%	-10.3378
หมัด	-10.3381
เสด็จสวรรคต	-10.3384
ผู้รับ	-10.3387
สมทบ	-10.3389
ัณฑ	-10.3394
ร้านค้า	-10.3395
ปารีส	-10.34
az	-10.3407
บุรีรัมย์	-10.3407
ผ่า	-10.3408
ปัจจุบันคือ	-10.3408
นารี	-10.341
ตั้งอยู่บน	-10.3412
▁For	-10.3414
นายพล	-10.3415
ป็อป	-10.342
เพีย	-10.3421
ประกอบอาชีพ	-10.3423
ซิง	-10.3424
บัญชา	-10.3424
พระชนมายุ	-10.3426
นิล	-10.3427
เพชรบุรี	-10.3429
การประเมิน	-10.3432
ความต้องการของ	-10.3438
ัณ	-10.344
ล่วง	-10.3442
แวน	-10.3444
สภาพแวดล้อม	-10.3445
ผ่านไป	-10.3446
ครั้งนั้น	-10.3446
ปลดปล่อย	-10.3447
▁1998	-10.3447
ตระหนัก	-10.3451
ผู้สื่อข่าว	-10.3451
ขึ้นครองราชย์	-10.3451
นอกเหนือจาก	-10.3457
ัฟ	-10.3458
ดาวเทียม	-10.3462
จิตวิทยา	-10.3462
ศุภ	-10.3464
สืบสวน	-10.3471
ต่างจาก	-10.3476
ก้าวหน้า	-10.3476
กกต	-10.3476
็อบ	-10.3478
แฮม	-10.3487
โระ	-10.3487
เป็นจุด	-10.3488
รอก	-10.3494
แอส	-10.3497
iv	-10.3499
ost	-10.3505
ure	-10.3506
คอง	-10.3513
พื้นบ้าน	-10.3519
ซื้อขาย	-10.3528
รวย	-10.3531
หม้อ	-10.3534
ba	-10.3534
ครั้งแรกในปี	-10.3536
กทม	-10.3542
-19	-10.3543
สงเคราะห์	-10.3544
๊ด	-10.355
▁ผลิตโดย	-10.3556
ปทุม	-10.3558
เป็นภาพ	-10.3559
ศักราช	-10.356
ผู้ก่อตั้ง	-10.3563
คว้าแชมป์	-10.3566
▁กํากับโดย	-10.3573
ทางวิชาการ	-10.3581
▁ชินวัตร	-10.3582
ฝนตก	-10.3582
ฮั่น	-10.3584
กําไร	-10.3586
▁ก่อนที่	-10.359
แกนนํา	-10.3595
แลก	-10.3595
ข้อเท็จจริง	-10.3601
แด่	-10.3603
คารา	-10.3605
บุคลิก	-10.3607
ท็อป	-10.361
เป็นชาว	-10.361
ยัก	-10.3612
ster	-10.3615
ดวงจันทร์	-10.3618
อนุญาต	-10.3621
ไฟล์	-10.3625
เทียบเท่า	-10.3627
bu	-10.3634
ดัม	-10.3636
ในปีพ	-10.3638
การปลูก	-10.3638
เดย์	-10.3646
ป้องกันและ	-10.3647
▁ครั้น	-10.3652
การให้บริการ	-10.3657
net	-10.366
แพร	-10.366
วิก	-10.3661
ox	-10.3666
2,000	-10.3667
กาแฟ	-10.3671
เอกซ์	-10.3671
ไส้	-10.3675
จราจร	-10.3676
บันทึกเสียง	-10.3679
พระภิกษุ	-10.3681
▁มีบุตร	-10.3681
คุก	-10.3681
หุ่นยนต์	-10.3683
สันติภาพ	-10.3684
ในขณะที่	-10.3688
▁แต่ถ้า	-10.369
น่ะ	-10.3692
บังคับให้	-10.3695
สมุนไพร	-10.3696
พูดภาษา	-10.3699
จินดา	-10.37
aceae	-10.3702
ในวงการ	-10.3703
รื้อ	-10.3704
กองทัพอากาศ	-10.3705
ทอม	-10.3706
วุ	-10.3711
น้า	-10.3711
การลด	-10.3719
ถูกทําลาย	-10.373
โดยบริษัท	-10.373
แสดงถึง	-10.3732
รัศมี	-10.3735
คลับ	-10.3737
อยู่ใกล้	-10.3737
พบปะ	-10.3739
ละเมิด	-10.374
รัชทายาท	-10.3741
ส่วนกลาง	-10.3741
ซัง	-10.3754
สิ่งก่อสร้าง	-10.3757
ของสหรัฐอเมริกา	-10.3757
แท่น	-10.3758
อุทิศ	-10.3758
กระโดด	-10.3759
นามสกุล	-10.3766
ต้อนรับ	-10.3779
ความคืบหน้า	-10.3779
ชิด	-10.378
ชีวภาพ	-10.3786
วรรค	-10.3786
ธนบุรี	-10.3791
บูร์ก	-10.3793
รีย์	-10.3794
วัฒน	-10.3795
ไห	-10.3795
คอมมิวนิสต์	-10.3795
ความดัน	-10.3795
แปรรูป	-10.3801
ไกร	-10.3802
ไช	-10.3803
สิ้นสุดลง	-10.3804
ภูเก็ต	-10.3806
▁ห้องประชุม	-10.3808
▁อีกทั้งยัง	-10.3811
ชรา	-10.3814
อภิเษกสมรส	-10.3815
แม่เหล็ก	-10.3815
เครื่องดื่ม	-10.3819
เศรษฐกิจและสังคม	-10.3823
วัคซีน	-10.3824
แข็งแกร่ง	-10.3824
▁2523	-10.3828
ระดับชั้น	-10.383
เฮนรี	-10.383
โกรธ	-10.383
มีเนื้อที่	-10.3831
จุดเริ่มต้น	-10.3838
ทุกวันนี้	-10.3844
แห่งแรก	-10.3846
พริม	-10.3849
ทางตอนเหนือ	-10.385
ืด	-10.385
แวร์	-10.3854
พรรคไทยรักไทย	-10.3863
ในประเทศญี่ปุ่น	-10.3866
ตรัส	-10.3867
นั้นๆ	-10.3869
เสนา	-10.3871
สังคมนิยม	-10.3874
AC	-10.388
รณ์	-10.3881
สถาปนิก	-10.3882
คาบสมุทร	-10.3888
กระบี่	-10.3889
นิสิต	-10.3891
unt	-10.3896
ความผิดปกติ	-10.3899
กระบวน	-10.39
ในบรรดา	-10.3902
ฟอร์ม	-10.3903
ทางศาสนา	-10.3907
ประกาศว่า	-10.3913
าลัย	-10.3917
ทาส	-10.3922
เจรจา	-10.3932
บรรพบุรุษ	-10.3934
นาถ	-10.3939
International	-10.394
โธ	-10.3944
เฟีย	-10.3944
กระทบ	-10.3951
ผัง	-10.3953
ในสมัยนั้น	-10.3959
▁เป็นต้นมา	-10.396
สกัด	-10.397
มอเตอร์	-10.3972
ล้านดอลลาร์สหรัฐ	-10.3973
มีการเปลี่ยนแปลง	-10.3974
อับ	-10.3977
หยิบ	-10.398
อิเล็กตรอน	-10.398
เปร	-10.398
เยี่ยมชม	-10.3981
ริค	-10.3983
▁โดยเริ่ม	-10.3983
ฝึกอบรม	-10.3987
หน้าตา	-10.3994
cr	-10.3994
การทุจริต	-10.3995
บทประพันธ์	-10.4
ทางอากาศ	-10.4001
ให้ความช่วยเหลือ	-10.4004
จริยธรรม	-10.4006
พระมเหสี	-10.4006
ium	-10.4009
เวสต์	-10.4011
พิการ	-10.4011
คิน	-10.4012
หลีกเลี่ยง	-10.4012
บัส	-10.4016
เคยมี	-10.4016
เจ้านาย	-10.4018
บริหารส่วนตําบล	-10.402
แผง	-10.4021
สาธิต	-10.4026
อย่างหนัก	-10.403
ประเทศเกาหลีใต้	-10.4031
ระยะยาว	-10.4032
พระนครศรีอยุธยา	-10.4032
ซัก	-10.4032
การจัดงาน	-10.4034
มิใช่	-10.4035
ใช้สําหรับ	-10.4038
ผืน	-10.4039
สเป	-10.4046
รวมกับ	-10.4051
พันธุกรรม	-10.4052
ลัง	-10.4053
ปีเตอร์	-10.4055
อุดรธานี	-10.4058
ปาง	-10.4067
พระธิดา	-10.4068
▁1,000	-10.4072
พระราม	-10.4082
เก็ต	-10.4083
ฝรั่ง	-10.4085
สุภาพ	-10.4088
บิต	-10.4094
▁1960	-10.4094
ug	-10.4096
▁ซึ่งต่อมา	-10.4096
จะไม่มี	-10.4098
ผบ	-10.4098
มิวสิกวิดีโอ	-10.4099
▁และยังมี	-10.4111
ระเบียง	-10.4111
ใกล้เคียงกับ	-10.4114
รุ่นใหม่	-10.4118
คลอ	-10.4122
นิวซีแลนด์	-10.4125
รังสิต	-10.4125
อํานวยการ	-10.4126
ความไม่	-10.4127
พวกเธอ	-10.4127
นิช	-10.4129
str	-10.413
ath	-10.4135
พรรษา	-10.4135
หมาก	-10.4135
อยู่เสมอ	-10.4137
จตุ	-10.4149
สงวน	-10.4152
เยาว์	-10.4153
าจารย์	-10.4158
แขวน	-10.4158
บอร์	-10.416
พุทธศาสนา	-10.416
มอญ	-10.4165
▁1999	-10.4167
เกษตรศาสตร์	-10.4167
ฟอง	-10.417
ิร์น	-10.417
ผู้ฝึกสอน	-10.4171
dy	-10.4172
ในช่วงปี	-10.4185
นิเวศ	-10.4191
เพื่อหา	-10.4192
มีหลาย	-10.4197
▁Award	-10.4198
ปฏิวัติ	-10.4205
ท่อน	-10.4206
▁รองปลัดกระทรวง	-10.4212
AR	-10.4213
ย็อง	-10.4222
อ่าง	-10.4225
ปกคลุม	-10.4226
มีการจัด	-10.4226
จัดหา	-10.4228
หุ้ม	-10.4231
คริสตจักร	-10.4231
แม่ทัพ	-10.4232
ไขมัน	-10.4233
พูดถึง	-10.4234
ซีดี	-10.4234
▁2532	-10.4238
ผสมผสาน	-10.4238
▁2518	-10.4239
ออกซิเจน	-10.4245
พี่สาว	-10.4248
oll	-10.4249
ไม่พอใจ	-10.4255
▁2530	-10.4267
พระครู	-10.4267
วิเศษ	-10.4267
จัดจําหน่าย	-10.4269
๐๐	-10.4271
ส่วนใหญ่จะ	-10.4271
เป็นไม้	-10.4276
เทล	-10.4279
ชมรม	-10.4279
รวมตัวกัน	-10.4279
ระดม	-10.428
ภัณฑ์	-10.4282
ทุกภาคส่วน	-10.4285
ปลอม	-10.4286
ซึมเศร้า	-10.4286
ลาออก	-10.4288
พวกมัน	-10.429
ขั้นตอนวิธี	-10.4294
ไมโคร	-10.4294
มีความสัมพันธ์	-10.4296
เหนียว	-10.4299
ปริญญาตรี	-10.4302
สตูดิโอ	-10.4303
เอ็ดเวิร์ด	-10.4305
ลพบุรี	-10.4305
สาธารณรัฐประชาชน	-10.4309
ทางการแพทย์	-10.4316
▁2529	-10.4323
ธีร	-10.4324
กระทรวงพาณิชย์	-10.4324
ลุ่ม	-10.4325
ตอบแทน	-10.4325
วิชัย	-10.433
ในแง่	-10.4331
100	-10.4331
Or	-10.4333
ระงับ	-10.4339
แบคทีเรีย	-10.4339
เต็มไปด้วย	-10.434
นับแต่	-10.4345
▁2515	-10.4348
อุตรดิตถ์	-10.4353
เมื่อเทียบกับ	-10.4357
วงเงิน	-10.4358
8%	-10.4363
แถลงข่าว	-10.4366
จัดขึ้นที่	-10.4366
แคบ	-10.4368
ลาร์	-10.4369
ทางทิศตะวันออก	-10.437
ริด	-10.4372
การแข่งขันฟุตบอล	-10.438
ทางวิทยาศาสตร์	-10.4381
ลิ้น	-10.4385
มีสมาชิก	-10.4391
ผง	-10.4395
ser	-10.4395
นิคม	-10.4395
เป็นลูก	-10.4397
ทวีปยุโรป	-10.4397
ตามนโยบาย	-10.4397
เข้าเรียน	-10.4402
ติดอันดับ	-10.4405
ข้างหน้า	-10.4406
เข้มข้น	-10.4407
พนม	-10.4413
ล้านนา	-10.4417
ไถ	-10.4421
มนต์	-10.4424
ไม่อาจ	-10.4425
ราชินี	-10.4431
รองนายกรัฐมนตรี	-10.4434
บูล	-10.444
par	-10.4442
นักบิน	-10.4442
นางแบบ	-10.4447
จักรวาล	-10.4448
amp	-10.4452
ชั้นนํา	-10.4452
ก้น	-10.4454
ปริศนา	-10.4455
เกาหลีเหนือ	-10.4458
คริสเตียน	-10.4462
EK	-10.4464
ไม่ทราบ	-10.4466
ชนิดอื่น	-10.4467
๋ง	-10.4467
ไม่ได้รับ	-10.4469
ตุ๊กตา	-10.4469
เหมือง	-10.447
ท่ามกลาง	-10.4476
................	-10.4476
พับ	-10.4477
พิพากษา	-10.448
ยุ่ง	-10.448
เปอร์เซีย	-10.448
โน้ม	-10.4483
ดัชนี	-10.4483
มีขน	-10.4484
การสอน	-10.4485
ประพฤติ	-10.4488
ให้สัมภาษณ์	-10.4489
ได้กลายเป็น	-10.4495
จัดกิจกรรม	-10.4496
คัดค้าน	-10.4496
เนื้อเยื่อ	-10.4497
▁นั่นคือ	-10.4501
▁2522	-10.4502
แปซิฟิก	-10.4503
วัตร	-10.4503
ยังไง	-10.4508
เช่นนั้น	-10.4509
อยากจะ	-10.4514
มิด	-10.4517
คาร์บอน	-10.4517
เรียล	-10.4518
อย่างชัดเจน	-10.4523
ได้รับผลกระทบ	-10.4524
กล่อง	-10.4525
ผู้สนับสนุน	-10.4527
ต่างชาติ	-10.4527
ยะลา	-10.4527
ปุ่ม	-10.4532
เป็นละครโทรทัศน์	-10.4533
บอร์ด	-10.4535
พวง	-10.4537
ปรารถนา	-10.4538
เลิฟ	-10.4538
เดวิด	-10.4545
ประธานกรรมการ	-10.4545
าภิเษก	-10.4545
รัต	-10.4547
ธนา	-10.4549
บัล	-10.455
In	-10.455
ตํา	-10.4552
ซีเรีย	-10.4556
▁1988	-10.4559
โชติ	-10.4564
โยะ	-10.457
สมุด	-10.4572
วัตถุประสงค์	-10.4574
มีคุณสมบัติ	-10.4577
-6	-10.4577
ขุ	-10.458
เมนต์	-10.4581
▁1984	-10.4585
บริโภค	-10.459
เซียน	-10.4591
น้อยลง	-10.4595
ความก้าวหน้า	-10.4602
พรี	-10.4607
ขนาดกลาง	-10.4607
บัลลังก์	-10.4607
วิท	-10.4609
ครัว	-10.461
สับสน	-10.4611
ิษฐ	-10.4612
สั่น	-10.4614
ของเหลว	-10.4615
ทางทิศตะวันตก	-10.4616
จํานวนหนึ่ง	-10.4619
เท่าเทียม	-10.4624
ปฏิบัติตาม	-10.4624
รองชนะเลิศ	-10.4628
▁1970	-10.463
ได้ย้าย	-10.4631
สมควร	-10.4632
ชลบุรี	-10.4632
ครั้งสุดท้าย	-10.4633
อากาศยาน	-10.4634
วี่	-10.4635
own	-10.4637
ฝุ่น	-10.4643
ไม่ชอบ	-10.4649
ผู้เขียน	-10.4653
▁WWW	-10.4656
ชิ้นส่วน	-10.4662
กราฟ	-10.4662
รายการโทรทัศน์	-10.4673
▁หมู่ที่	-10.4674
ต้นทุน	-10.4674
รอบคัดเลือก	-10.4675
วีระ	-10.4675
ปฏิบัติงาน	-10.4675
สแตน	-10.4678
การค้นพบ	-10.468
พูดคุย	-10.4687
ari	-10.4691
ต้าน	-10.4694
ใ	-10.4696
▁สํานักโฆษก	-10.4699
ตัก	-10.47
ได้รับการยอมรับ	-10.4704
ชุน	-10.4705
เผชิญ	-10.4705
นาร์	-10.4714
พยัญชนะ	-10.4719
น้อยที่สุด	-10.472
กดดัน	-10.4721
ทางเหนือ	-10.4722
โอลิมปิกฤดูหนาว	-10.4724
สารประกอบ	-10.4728
gu	-10.4729
und	-10.473
การฝึก	-10.4731
เงินทุน	-10.4732
เทิร์น	-10.4737
เกียรติยศ	-10.4737
ทะเบียน	-10.4745
ผอ	-10.4748
สันนิษฐานว่า	-10.4753
สังฆ	-10.4753
°	-10.4755
มีชื่อเรียก	-10.4757
พระทัย	-10.4757
นิยมใช้	-10.4759
พระราชดําริ	-10.4762
เกา	-10.4769
หลบ	-10.477
เชื่อกันว่า	-10.4774
คําแนะนํา	-10.4774
นเรศวร	-10.4776
ดําเนินงาน	-10.478
TV	-10.4787
สุราษฎร์ธานี	-10.479
สไตล์	-10.479
นี้เอง	-10.4791
รัชสมัย	-10.4803
เสร็จสิ้น	-10.4804
ออล	-10.4805
เกล็ด	-10.4806
▁2528	-10.4811
รัฐศาสตร์	-10.4817
▁เขายัง	-10.4819
ตุลาการ	-10.4819
ความรับผิดชอบ	-10.4822
กระทรวงกลาโหม	-10.4824
มวยสากล	-10.4831
ลุย	-10.4838
แต่ละคน	-10.4838
จะเกิด	-10.4846
ได้รับตําแหน่ง	-10.485
ควบคู่	-10.4853
ัตถ	-10.4854
ในกรณีที่	-10.4854
ตั้งถิ่นฐาน	-10.4854
ก็เริ่ม	-10.4855
ก่อนหน้านั้น	-10.4858
จึงไม่	-10.4864
ผสมพันธุ์	-10.4865
สวด	-10.4872
ถามว่า	-10.4873
▁ซม	-10.4879
การวิเคราะห์	-10.4883
เตียง	-10.4887
อยากให้	-10.489
DLU	-10.489
กระบอก	-10.4892
ick	-10.4897
เดี๋ยว	-10.4904
MCHA	-10.4904
การต่างประเทศ	-10.4904
โลกครั้งที่สอง	-10.4909
ขยะ	-10.491
มาเรีย	-10.491
ประเทศอินเดีย	-10.4916
เปิดให้บริการ	-10.4917
พี่น้องประชาชน	-10.4917
ภูมิศาสตร์	-10.492
บ้านพัก	-10.4921
สาวๆ	-10.4923
ศาสตรบัณฑิต	-10.4926
ญญา	-10.4931
สุสาน	-10.4932
สงกรานต์	-10.4933
เข้มแข็ง	-10.4933
ครั้งใหญ่	-10.4936
ปริญญาโท	-10.4937
แต่งตั้งให้	-10.4942
ด้อย	-10.4948
ลูกหลาน	-10.4952
ผิดปกติ	-10.4954
ปาล์ม	-10.4955
เมะ	-10.4956
บรรณ	-10.4956
ณัฐ	-10.4962
ประจุ	-10.4965
ound	-10.4974
ชํานาญ	-10.4976
ตรวจเยี่ยม	-10.4977
ถนนสาย	-10.4982
ัญญา	-10.4983
เข้าด้วยกัน	-10.4983
หม่อมราชวงศ์	-10.4987
นัล	-10.499
สกอตแลนด์	-10.4998
แรงดัน	-10.5002
ชิต	-10.5002
ไหล่	-10.5004
อ้วน	-10.5007
ทุกๆ	-10.501
ราชาธิบดี	-10.5013
อยู่ห่างจาก	-10.5015
หุ่น	-10.502
ครม	-10.5022
โดยปกติ	-10.5023
เนล	-10.5026
อ้อม	-10.5032
ลงทะเบียน	-10.5039
tro	-10.5041
ศรีสะเกษ	-10.5042
ข้อหา	-10.5042
ชื่นชอบ	-10.5043
อนุบาล	-10.5044
แก่ประชาชน	-10.5046
ดจ์	-10.5047
เทีย	-10.5048
ตรัง	-10.5049
พระธาตุ	-10.5051
การช่วยเหลือ	-10.5051
เทพเจ้า	-10.5052
สะกด	-10.5053
มอล	-10.5057
พุ่ง	-10.506
ภูมิอากาศ	-10.5062
ตะวันตกเฉียงใต้	-10.5063
อธิการบดี	-10.5063
รากฐาน	-10.5065
ร็อค	-10.507
ชาวนา	-10.507
ในปีเดียวกัน	-10.507
ันต์	-10.5075
ปักกิ่ง	-10.5079
ความจําเป็น	-10.508
หันไป	-10.5081
คณะสงฆ์	-10.5084
เกียร์	-10.5085
บังคับบัญชา	-10.5087
เดือด	-10.5093
ชื่อเดิม	-10.5097
แกะ	-10.5098
ya	-10.51
สมุทรปราการ	-10.51
ชาวเยอรมัน	-10.5105
คิดค้น	-10.5106
มากยิ่งขึ้น	-10.5108
หลายปี	-10.5108
tory	-10.5114
เวลส์	-10.5114
คํานึงถึง	-10.5115
อาวุโส	-10.5115
จุดประสงค์	-10.5117
เสน	-10.5119
เครื่องดนตรี	-10.512
บางกอก	-10.5122
กรุงลอนดอน	-10.5126
ขึ้นทะเบียน	-10.5127
ประเทศออสเตรเลีย	-10.5129
ครัวเรือน	-10.513
เข้าศึกษา	-10.5138
log	-10.514
pri	-10.5143
เซอ	-10.5144
ฉลาด	-10.5145
กลุ่มนี้	-10.5155
มีรายได้	-10.5157
คาร์ล	-10.5164
ุ้ง	-10.5164
นักธุรกิจ	-10.5164
มีความสุข	-10.5165
วารสาร	-10.5165
ประหยัด	-10.5166
ทิเบต	-10.5167
ึ่ง	-10.5171
โปรดิวเซอร์	-10.5181
ใบอนุญาต	-10.5182
เลี้ยงดู	-10.5197
เนียม	-10.5198
อย่างรุนแรง	-10.52
ทําให้เธอ	-10.52
อยู่ในเขต	-10.5202
กํากับการแสดงโดย	-10.5203
มุ่งเน้น	-10.5207
ฤกษ์	-10.5208
อีกมากมาย	-10.5212
เบื้องหลัง	-10.5223
บนเกาะ	-10.5225
เด็กหญิง	-10.5225
ด้านข้าง	-10.5227
บีบ	-10.5232
มัย	-10.5236
dia	-10.5238
พริก	-10.5239
ภายในประเทศ	-10.5242
ต้นฉบับ	-10.5244
ทางทหาร	-10.5245
ire	-10.5249
สีสัน	-10.5259
เรียกกันว่า	-10.5262
แพน	-10.5265
ular	-10.5271
ทางราชการ	-10.5273
ครั้งหนึ่ง	-10.5273
คลาสสิก	-10.5277
ฉิ	-10.5279
col	-10.5283
พระบรมราช	-10.5285
และวัฒนธรรม	-10.5288
ฝ่า	-10.5288
เชี่ยวชาญ	-10.5293
สูงที่สุด	-10.5295
lin	-10.5299
พลอย	-10.5305
บล็อก	-10.5306
พิธีเปิด	-10.5306
นครสวรรค์	-10.5306
ประหารชีวิต	-10.5307
สารเคมี	-10.5307
โมเดล	-10.531
กัปตัน	-10.5314
กระทรวงคมนาคม	-10.5322
แฟชั่น	-10.5327
สกลนคร	-10.5329
พํานัก	-10.5329
ิกส์	-10.5332
ก็ยังคง	-10.5337
จะเริ่ม	-10.5338
แหวน	-10.5342
เดร	-10.5343
old	-10.5345
เพื่อพัฒนา	-10.5348
พบเห็น	-10.5367
ชาญ	-10.5377
สถิต	-10.5379
คนสุดท้าย	-10.5379
▁1997	-10.5381
ตัง	-10.5382
อธิบดี	-10.5382
กระเป๋า	-10.5382
ปนัดดา	-10.5382
แห่งราชวงศ์	-10.5383
รื่น	-10.539
นักมวยปล้ํา	-10.5393
บุตรสาว	-10.5394
คําพูด	-10.5397
การรบ	-10.542
นุช	-10.5421
▁2525	-10.5422
ชาวยิว	-10.5427
ตั้งแต่สมัย	-10.5431
เชื่อถือ	-10.5432
สุพรรณบุรี	-10.5435
แม้จะ	-10.5436
ประกาศใช้	-10.5439
ต้นกําเนิด	-10.5441
แกง	-10.5443
▁No	-10.5447
อดีตสมาชิก	-10.545
ประกาศนียบัตร	-10.5458
ริชาร์ด	-10.5458
มีหลักฐาน	-10.5462
อนามัย	-10.5465
รางวัลออสการ์	-10.5465
มีเนื้อหา	-10.5466
หัวหน้าพรรค	-10.5473
เคีย	-10.5479
บรรเทา	-10.5488
อินทร	-10.5489
ณ์	-10.5494
โอรส	-10.5498
ะห์	-10.5499
น้ําตก	-10.5508
รัล	-10.5517
ผิดกฎหมาย	-10.5517
ทางวัฒนธรรม	-10.5519
มุ่งมั่น	-10.552
องค์ชาย	-10.552
มนุษย	-10.5521
ปราศจาก	-10.5529
ล้อมรอบ	-10.5532
คนใหม่	-10.5532
อุทกภัย	-10.5533
มีความรู้	-10.554
นารายณ์	-10.5541
ฟัก	-10.5547
ที่พบใน	-10.5549
มกุฎราชกุมาร	-10.5549
เนียน	-10.5552
▁ทว่า	-10.5555
พรรคคอมมิวนิสต์	-10.5561
ผลงานเพลง	-10.5565
pan	-10.5568
ิ่ม	-10.5568
ตอนใต้	-10.5569
กรุ๊ป	-10.5572
จักรยาน	-10.5573
ร้าง	-10.558
แช่	-10.5583
บ้านเรือน	-10.5586
เด็กและเยาวชน	-10.5589
ตามธรรมชาติ	-10.5591
เฉียงเหนือของ	-10.5596
ax	-10.5598
กิโลเมตร	-10.5598
ทางประวัติศาสตร์	-10.56
ความเป็นจริง	-10.5608
ลิเวอร์พูล	-10.561
เบอร์ลิน	-10.5611
วันพุธ	-10.5611
พระตําหนัก	-10.5616
ทรู	-10.5618
ไม่ควร	-10.562
รองจาก	-10.562
รู้สึกว่า	-10.5621
ทั้งสองฝ่าย	-10.5622
หงส์	-10.5625
▁กลุ่มประชาสัม	-10.5633
มั่งคั่ง	-10.5634
โชกุน	-10.5634
ไลท์	-10.5636
มีลักษณะคล้าย	-10.5639
หย่า	-10.5648
คนพิการ	-10.5649
ode	-10.565
หนุน	-10.565
ทุกครั้ง	-10.5651
จิตรกรรม	-10.5653
ตรงกลาง	-10.5664
row	-10.5664
เยื่อ	-10.5671
ซื่อ	-10.5673
ท่าทาง	-10.5674
แขนง	-10.5675
อาชญากรรม	-10.568
เฮอร์	-10.568
▁อนึ่ง	-10.5688
พระราชบิดา	-10.5688
การกระจาย	-10.5693
โซ่	-10.5701
คัส	-10.5702
วันหนึ่ง	-10.5704
วิกฤต	-10.5705
ชาวฝรั่งเศส	-10.5707
กุหลาบ	-10.5711
สนอง	-10.5711
พันธ์และเผยแพร่	-10.5712
นัม	-10.5713
การขยาย	-10.5719
อี้	-10.5724
เศร้า	-10.5726
ื่	-10.5727
โดยมาก	-10.5729
ข่าย	-10.5732
แบบจําลอง	-10.5733
แซม	-10.5735
car	-10.5738
ภูมิประเทศ	-10.5739
ระดับโลก	-10.5741
อัญเชิญ	-10.5742
หน้าต่าง	-10.5749
อนุสรณ์	-10.5749
ภูเขาไฟ	-10.5749
แสวงหา	-10.575
ซิงเกิ้ล	-10.575
โลหิต	-10.575
ขโมย	-10.575
เหลืออยู่	-10.5756
รามคําแหง	-10.5758
สิทธิมนุษยชน	-10.5758
ชื้น	-10.5758
การจัดทํา	-10.576
สุ่ม	-10.5761
▁1994	-10.5764
▁๑๐	-10.577
เหล้า	-10.5771
Al	-10.5772
ซับ	-10.5773
วัชร	-10.5779
ราชบุรี	-10.5781
ภาพยนตร์ไทย	-10.5781
โรมาเนีย	-10.5781
ชุดแรก	-10.5785
อุ่น	-10.5785
เจ้าบรมวงศ์เธอ	-10.5785
คนสําคัญ	-10.5786
หมุนเวียน	-10.579
แยกตัว	-10.5791
กํากับดูแล	-10.5796
ซ่อม	-10.5796
สุลต่าน	-10.5797
ตามปกติ	-10.5801
ชื่น	-10.5802
บรรพ	-10.5805
เล็บ	-10.5819
กรีซ	-10.582
อัศวิน	-10.5821
▁2524	-10.5821
ทางโทรทัศน์	-10.5821
จําคุก	-10.5822
che	-10.5823
ตอนปลาย	-10.5823
เรียกร้องให้	-10.5828
เข้าชม	-10.5832
อรี่	-10.5839
เชษฐ	-10.5839
อัป	-10.5842
ยับยั้ง	-10.5844
ไปทั่ว	-10.5845
ภาษาญี่ปุ่น	-10.5845
ภาพถ่าย	-10.5848
พ่อค้า	-10.5848
ลูกจ้าง	-10.5851
พลิก	-10.5851
รอม	-10.5851
ปทุมธานี	-10.5852
เป็นอาจารย์	-10.5852
มีผลต่อ	-10.5854
เชียงราย	-10.5854
ที่มีขนาดใหญ่	-10.5859
เดินทางกลับ	-10.586
ER	-10.5866
ด้านการศึกษา	-10.5875
รุ่นแรก	-10.5876
IT	-10.588
ยี่	-10.5882
คนโต	-10.5882
าสน์	-10.5885
ภาพเขียน	-10.5887
▁Mi	-10.5892
ครั้งที่สอง	-10.5896
▁2526	-10.5897
ยืด	-10.5898
ทายาท	-10.5899
50,000	-10.5899
ร้านอาหาร	-10.5903
แร็	-10.5908
ประทับใจ	-10.5913
ติดเชื้อ	-10.5913
บางแห่ง	-10.5917
เนื้อร้อง	-10.5923
จุฬา	-10.5923
การส่งออก	-10.5925
เพื่อลด	-10.5928
กลืน	-10.5931
▁2516	-10.5932
เคราะห์	-10.5937
เมื่อครั้ง	-10.594
เสถียร	-10.5941
ร้าว	-10.5944
พอดี	-10.5945
line	-10.5946
อ้อย	-10.5956
เสียใจ	-10.5956
ประยุกต์	-10.5957
มีดังนี้	-10.5958
เบี้ย	-10.596
อาร์เจนตินา	-10.5963
เขตร้อน	-10.5965
หัวเมือง	-10.5971
สันตะปาปา	-10.5971
แกม	-10.5979
ปัสสาวะ	-10.5979
วอลเลย์บอลหญิง	-10.5979
ฟอน	-10.5981
อบอุ่น	-10.5981
ลาออกจาก	-10.5987
ระดับมัธยมศึกษา	-10.5995
ล่มสลาย	-10.5995
อรรถ	-10.5999
เคลือบ	-10.6003
บาป	-10.6005
โรงภาพยนตร์	-10.6008
ประเทศแคนาดา	-10.6013
วงการบันเทิง	-10.6023
ทางสถานีโทรทัศน์	-10.6027
ในช่วงแรก	-10.603
โดยไม่มี	-10.6036
ถูกสร้างขึ้น	-10.6047
OEM	-10.6051
SA	-10.6051
สํานักงานใหญ่	-10.6062
พัฒนาระบบ	-10.6064
คู่แข่ง	-10.6064
ล่วงหน้า	-10.6069
ไม่เห็น	-10.6072
พฤหัสบดี	-10.6074
ปากีสถาน	-10.6075
จํานวนประชากร	-10.6078
อลล์	-10.6079
มวยปล้ํา	-10.608
นําเอา	-10.6082
นักแต่งเพลง	-10.6083
ชลประทาน	-10.6084
เป็นประโยชน์	-10.6084
▁University	-10.6092
ไม่อยาก	-10.6092
ต้านทาน	-10.6093
Qu	-10.6093
อรุณ	-10.6095
ศึกษาขั้นพื้นฐาน	-10.6097
วิศวกร	-10.6099
อุปถัมภ์	-10.61
@	-10.61
มิสแกรนด์	-10.6101
กุมาร	-10.6106
ประเทศชาติ	-10.6115
อีกครั้งหนึ่ง	-10.612
สัมภาษณ์	-10.6125
ผูกพัน	-10.613
พระบิดา	-10.6131
สยามบรมราชกุมารี	-10.6132
กลางวัน	-10.6139
คงจะ	-10.6149
ปริญญาเอก	-10.6153
รถถัง	-10.6154
โรเบิร์ต	-10.6165
ซีเกมส์	-10.6169
เบียร์	-10.6177
แบ่งแยก	-10.618
พิชิต	-10.6186
สถาบันอุดมศึกษา	-10.6189
ทวีปเอเชีย	-10.6194
ถล่ม	-10.6197
ฝึกฝน	-10.6198
เต้	-10.6203
ตั้งขึ้น	-10.6205
บริหารจัดการ	-10.6206
กรีน	-10.6207
ส่วนภูมิภาค	-10.6208
โบราณสถาน	-10.6209
อย่างเต็มที่	-10.621
กลั่น	-10.621
ระยอง	-10.6212
แลง	-10.6213
เริ่มขึ้น	-10.6227
ผู้สมัคร	-10.6232
เพาะปลูก	-10.6234
ung	-10.6246
มหาสารคาม	-10.6246
ا	-10.6246
การจราจร	-10.6247
เขียนภาพ	-10.6252
อิจิ	-10.6254
ใช้บริการ	-10.6262
▁Sp	-10.6262
แนวร่วม	-10.6272
CD	-10.6274
▁2517	-10.628
เตะ	-10.6282
เทค	-10.6283
ห้าง	-10.6288
ชํา	-10.6291
ธ์	-10.6291
ว่าด้วยการ	-10.6293
ฟินแลนด์	-10.6296
pre	-10.6296
ปลุก	-10.6299
เงินรางวัล	-10.63
มีการสร้าง	-10.6307
โดยไม่ต้อง	-10.6307
หนวด	-10.6312
คัม	-10.6313
ดาราจักร	-10.6319
จะเกิดขึ้น	-10.6322
ประสบปัญหา	-10.6328
‘	-10.6329
แอฟริกาใต้	-10.6333
พลาสติก	-10.6337
หลี่	-10.6344
ศุลกากร	-10.6345
สามก๊ก	-10.6345
▁2511	-10.6346
ปีที่ผ่านมา	-10.6349
เชียร์	-10.6352
นักเตะ	-10.6354
การปฏิบัติงาน	-10.6357
มีชีวิตอยู่	-10.6359
▁2520	-10.636
ร่วง	-10.6362
ลําพูน	-10.6362
ให้ความสําคัญกับ	-10.6367
เรียกชื่อ	-10.6373
▁with	-10.6378
ฝึกหัด	-10.6383
เน็	-10.6384
โบราณคดี	-10.639
สั้นๆ	-10.639
ที่ระลึก	-10.64
ความเข้มแข็ง	-10.6401
การเข้าถึง	-10.6412
ตรงกันข้าม	-10.6412
แถม	-10.6412
ave	-10.6415
ative	-10.6417
สม่ําเสมอ	-10.642
สารนิเทศ	-10.6421
พักผ่อน	-10.6421
ความตาย	-10.643
ได้มีโอกาส	-10.6433
ปรีชา	-10.6435
ประเทศลาว	-10.6435
บิด	-10.6436
ลี้ภัย	-10.6437
เจ้าจอมมารดา	-10.6437
ดึงดูด	-10.644
รักษาโรค	-10.644
สุรา	-10.6441
ไลฟ์	-10.6445
น้อยมาก	-10.6449
การตัดสินใจ	-10.645
บรรดาศักดิ์	-10.6453
เป็นรูปธรรม	-10.6458
แฝด	-10.6462
MO	-10.6463
ฮิว	-10.6465
สีฟ้า	-10.6466
อยู่ใต้	-10.6469
ต้นปี	-10.647
วันจันทร์	-10.6471
อาราม	-10.6476
ประติมากรรม	-10.6479
พราหมณ์	-10.6479
คาดว่าจะ	-10.6484
อย่างแท้จริง	-10.6487
จําเลย	-10.6489
:00	-10.6492
พระศพ	-10.6492
ผจญภัย	-10.6496
สีเทา	-10.6496
บําเพ็ญ	-10.6504
▁Car	-10.6508
หมวก	-10.6512
การชุมนุม	-10.6514
สักการะ	-10.6521
บทเพลง	-10.6521
RI	-10.6522
ผู้ใด	-10.6525
จังหวัดชลบุรี	-10.6526
ขาดแคลน	-10.6529
ขัดแย้ง	-10.6531
โรคมะเร็ง	-10.6543
เริ่มใช้	-10.6545
ความเดือดร้อน	-10.6555
พระราชินี	-10.6555
พูน	-10.6572
เพื่อนร่วม	-10.6572
oss	-10.6576
พระสันตะปาปา	-10.658
▁ภายหลังจาก	-10.6585
แจ๊	-10.6585
ทําประตู	-10.6587
วอชิงตัน	-10.6589
สนทนา	-10.6589
พิกัด	-10.6589
สรรค์	-10.6596
SME	-10.6596
จันทบุรี	-10.6598
รักษาความปลอดภัย	-10.66
โรงเรียนมัธยม	-10.6603
เต้า	-10.6604
เนะ	-10.6613
งานศึกษา	-10.6613
เจ้าคณะ	-10.6616
โพรง	-10.6624
แมนเชสเตอร์	-10.6632
ตะวัน	-10.6633
เชิญชวน	-10.6633
การแก้ปัญหา	-10.6633
เทวดา	-10.6637
มะพร้าว	-10.664
เสนาบดี	-10.664
ใช้วิธี	-10.6645
แม่น้ําเจ้าพระยา	-10.6646
ระบาย	-10.6647
กลยุทธ์	-10.6648
พรมแดน	-10.6648
ระวัง	-10.665
หมึก	-10.6657
ภาษาฝรั่งเศส	-10.6659
ฟิลิป	-10.6666
อย่างใกล้ชิด	-10.667
เพื่อเพิ่ม	-10.6673
ake	-10.6675
เฉลิมฉลอง	-10.6675
ทะลุ	-10.6677
เป็นที่รู้จักกัน	-10.6679
ถูกเรียกว่า	-10.6682
ห่อ	-10.6685
เสกสมรส	-10.6685
รองเท้า	-10.6686
ุ้ย	-10.669
ราชอิสริยาภรณ์	-10.6692
สูญพันธุ์	-10.6695
เป็นเวลานาน	-10.6699
ให้ความสําคัญ	-10.6703
ระดับนานาชาติ	-10.6704
ไหลผ่าน	-10.6707
บ่าย	-10.6707
able	-10.6712
ในช่วงปลาย	-10.6713
รอยด์	-10.6714
สลัก	-10.6715
กางเขน	-10.6717
ประเทศพม่า	-10.6717
ประถม	-10.6722
บุหรี่	-10.6725
BC	-10.6731
ราชวิทยาลัย	-10.6732
ศาสนาพุทธ	-10.6736
vis	-10.6739
ก็ยังมี	-10.674
ความลับ	-10.6741
โพร	-10.6742
เอเชียนเกมส์	-10.6743
สุวรรณภูมิ	-10.6743
โยะชิ	-10.6743
มีความหมายว่า	-10.6745
▁School	-10.6751
เพลงชาติ	-10.6751
ตลอดทั้ง	-10.6768
แฝง	-10.6768
ฐานข้อมูล	-10.6778
จับมือ	-10.6784
ook	-10.6789
ปฏิทิน	-10.6794
สตูดิโออัลบั้ม	-10.6797
ดิจิตอล	-10.6803
Cr	-10.6805
ล้านบาท	-10.6806
ฆาต	-10.6806
พันปี	-10.681
เอียง	-10.6812
ความเหมาะสม	-10.6819
เพิ่มมากขึ้น	-10.6822
ไง	-10.6826
วุ่นวาย	-10.6829
▁1991	-10.683
AP	-10.6837
นักบวช	-10.6839
อาสาสมัคร	-10.684
ขยับ	-10.6842
cho	-10.6842
ระเจ้าบรมวงศ์เธอ	-10.6851
ทํารายได้	-10.6855
ศตวรรษ	-10.6858
สภานิติบัญญัติ	-10.6864
แทร	-10.6866
▁2503	-10.6868
แรน	-10.6869
การบริโภค	-10.687
จุดเด่น	-10.6872
สรรเสริญ	-10.6873
ade	-10.6874
กลับบ้าน	-10.688
ปิ่น	-10.6882
ชักชวน	-10.6883
รสชาติ	-10.689
ลอสแอนเจลิส	-10.689
คุกคาม	-10.6899
หนีไป	-10.6904
ในช่วงต้น	-10.6905
0.00	-10.6907
จูเนียร์	-10.6908
ไฮโดรเจน	-10.6908
นักรบ	-10.6911
ได้รับการยกย่อง	-10.6912
ica	-10.6913
ร่วมสมัย	-10.6913
บิลบอร์ด	-10.6917
ร้ายแรง	-10.6918
โจโฉ	-10.6925
มอบรางวัล	-10.6931
***********	-10.6933
AM	-10.6934
ประสิทธิ์	-10.6942
ท่วม	-10.6947
ext	-10.6952
พุทธศตวรรษที่	-10.6955
พะเยา	-10.6958
เก็บไว้	-10.6959
ท้องฟ้า	-10.6963
เนตร	-10.6964
โดยอาศัย	-10.6965
บางครั้งก็	-10.6965
▁1972	-10.6968
3,000	-10.6973
ปืนใหญ่	-10.6974
•	-10.6978
ฮินดู	-10.6978
มีวัตถุประสงค์	-10.698
บรรณาธิการ	-10.6996
แม่น้ําโขง	-10.6998
▁1995	-10.7
จันท	-10.7001
เจียง	-10.7007
แท่ง	-10.701
ส่งสัญญาณ	-10.7011
use	-10.7013
mm	-10.7013
เป็นเหตุให้	-10.7014
ไปรษณีย์	-10.7014
ลเลอร์	-10.7016
ให้การสนับสนุน	-10.7017
กมล	-10.7018
การเจรจา	-10.7019
ํ	-10.7019
เนปาล	-10.7026
ดําเนินคดี	-10.7028
โครงสร้างพื้นฐาน	-10.703
ผลลัพธ์	-10.7031
ปานกลาง	-10.7032
ประภา	-10.7032
-8	-10.7035
ขยายพันธุ์	-10.7038
กลุ่มดาว	-10.7042
เร็	-10.7042
ก็คง	-10.7042
เป็นที่ยอมรับ	-10.7046
ธิราช	-10.7047
เด็ดขาด	-10.7049
สมาธิ	-10.705
แพท	-10.705
กอบ	-10.7053
มีเดีย	-10.7053
เกินกว่า	-10.7054
ผู้จัดการทีม	-10.7056
ค่ายเพลง	-10.7059
แต่เพียง	-10.706
วิพากษ์วิจารณ์	-10.7067
ด้วยเช่นกัน	-10.707
นรก	-10.7079
แก๊ง	-10.7079
▁กรมพระ	-10.708
กลอน	-10.7083
ปรึกษา	-10.7083
ฟอส	-10.7093
เป็นบุตรของ	-10.7096
▁2475	-10.7096
ไหว้	-10.7097
ร่วมแสดง	-10.7099
พระอิสริยยศ	-10.7099
เทียบกับ	-10.71
แมรี	-10.7103
ส่วนผสม	-10.7108
ตัวแปร	-10.7115
คําสอน	-10.7119
เปรม	-10.712
ลลี่	-10.7121
เห็นได้ชัด	-10.7129
พระราชกฤษฎีกา	-10.7129
ประเทศสเปน	-10.7132
คุณพ่อ	-10.7133
ประชาคม	-10.7134
ต่างหาก	-10.7137
สังคมไทย	-10.7137
การแลกเปลี่ยน	-10.7137
คล้ายคลึงกับ	-10.7138
ัญญ	-10.714
สิงโต	-10.7147
มหาสมุทรแปซิฟิก	-10.7148
น้ําจืด	-10.7152
ยกทัพ	-10.7158
▁แม้ว่าจะ	-10.7161
ัฏ	-10.7162
ชีววิทยา	-10.7169
ไลน์	-10.717
▁2521	-10.7172
ไม่ปรากฏ	-10.7177
▁1993	-10.7182
ได้รับคํา	-10.7191
เรื่อยมา	-10.7192
ไม่จําเป็นต้อง	-10.7197
วิตามิน	-10.7201
ความเชื่อมั่น	-10.7204
เจ้าอาวาสวัด	-10.7207
ฮิตเลอร์	-10.721
ระบายน้ํา	-10.7213
พอสมควร	-10.7214
ภาษากรีก	-10.7216
เทิล	-10.7216
▁สํานักงานปลัด	-10.7219
National	-10.722
บูรพา	-10.722
ตั้งครรภ์	-10.7234
ดิโอ	-10.7234
เคิล	-10.7235
พ้อง	-10.7238
เมตตา	-10.7238
มหาวิทยาลัยมหิดล	-10.7246
วิกิพีเดีย	-10.7247
เอนไซม์	-10.7247
กัม	-10.7249
เจ้าอาวาส	-10.725
มีการนํา	-10.7251
▁ทั้งยัง	-10.7255
แฮร์รี่	-10.7256
มิวสิค	-10.7256
ชุมพร	-10.7257
cre	-10.7258
โคลน	-10.7262
รับจ้าง	-10.7267
รอบชิงชนะเลิศ	-10.7267
พราน	-10.7268
มีผู้เสียชีวิต	-10.7268
กอล์ฟ	-10.7274
เหย้า	-10.7274
ความเป็นอยู่	-10.7276
มหานคร	-10.7282
โหวต	-10.7283
เอ่ย	-10.7283
อันดับหนึ่ง	-10.7287
ความหวัง	-10.7289
แอนิเมชัน	-10.7292
สํานักงานเขต	-10.7303
นวม	-10.7317
-7	-10.7325
การอบรม	-10.7329
มีแนวโน้ม	-10.7329
ถี	-10.7333
จีเอ็มเอ็ม	-10.7338
เตรียมความพร้อม	-10.7338
จักรวรรดิโรมัน	-10.734
อย่างจริงจัง	-10.7347
อ็อง	-10.7348
▁10,000	-10.7354
การคํานวณ	-10.7356
ทบทวน	-10.7356
ความทรงจํา	-10.7356
mic	-10.7361
การจัดการศึกษา	-10.7361
เด็กชาย	-10.7365
เทพรัตนราชสุดาฯ	-10.7365
ไมตรี	-10.7366
ลําบาก	-10.7373
จบลง	-10.7383
ไคร	-10.7384
ถึงแก่กรรม	-10.7384
บริหารธุรกิจ	-10.739
▁2500	-10.7391
เทนนิส	-10.7394
ประเทศมาเลเซีย	-10.7396
เชิด	-10.7401
กุญแจ	-10.7402
ดอกเบี้ย	-10.7404
เบรีย	-10.7409
ทางทิศเหนือ	-10.7412
พระอนุชา	-10.742
ธนาคารออมสิน	-10.7421
ธนู	-10.7424
เลือกตั้งสมาชิก	-10.7425
หนังสือการ์ตูน	-10.7426
พระมารดา	-10.7428
วันหยุด	-10.7433
กว้างขวาง	-10.7435
▁มิลลิเมตร	-10.7439
รบกวน	-10.7446
อารยธรรม	-10.7447
▁Man	-10.7451
ภิกษุ	-10.7452
ash	-10.7457
▁ปีก่อนคริสตกาล	-10.7458
รถโดยสาร	-10.7462
ประมวลผล	-10.7462
oph	-10.7466
เผด็จการ	-10.7467
****************	-10.7468
มากเกินไป	-10.7468
มีความสูง	-10.7468
ก่อการร้าย	-10.7476
ค้นคว้า	-10.7478
ุ่ย	-10.7482
บกพร่อง	-10.7485
เชือก	-10.7485
ปั่น	-10.7486
เพ็ญ	-10.7487
แตกต่างกันไป	-10.7488
ดําเนินโครงการ	-10.7493
ถ้าหาก	-10.7498
คาถา	-10.7504
กติกา	-10.7506
วางไข่	-10.7512
วินโดวส์	-10.7513
กระจุก	-10.7513
จัดให้มี	-10.7516
มหาศาล	-10.7521
ระบบประสาท	-10.7522
▁2513	-10.7522
พยากรณ์	-10.7523
▁Center	-10.7523
John	-10.7532
วันอังคาร	-10.7533
ถูกนํามา	-10.7536
พานิช	-10.7538
ตามพระราชบัญญัติ	-10.7545
ฟท์	-10.7551
บารมี	-10.7552
สิบสอง	-10.7554
อ่อนแอ	-10.7556
สัตว์เลี้ยง	-10.7562
เถอะ	-10.7564
หมิง	-10.7565
รถไฟใต้ดิน	-10.7571
ุ้ม	-10.7573
เป็ด	-10.7578
คณะอนุกรรมการ	-10.7579
สามเณร	-10.7579
ซ่อมแซม	-10.7579
แต่งเพลง	-10.7579
ทวาร	-10.7581
ณิ	-10.7584
สีชมพู	-10.7584
สถาบันการศึกษา	-10.7586
หีบ	-10.7588
สมาพันธ์	-10.7588
เกลียด	-10.7597
เป็นฝ่ายชนะ	-10.7602
พฤกษ์	-10.7604
เค็ม	-10.7607
พยายามที่จะ	-10.7609
อิฐ	-10.7612
ห้องสมุด	-10.7616
ดิวิชัน	-10.7616
ลูกเสือ	-10.7625
อเล็กซานเดอร์	-10.7626
อวอร์ด	-10.7626
อนันต์	-10.7628
สุจริต	-10.7654
▁ประกอบกับ	-10.7657
ภาษาละติน	-10.7665
เหลือเพียง	-10.7669
พระบรมราชโองการ	-10.7673
ละครเวที	-10.7676
พระมหากรุณาธิคุณ	-10.7692
วุฒิสภา	-10.7693
แคระ	-10.7694
เข้าฉาย	-10.77
อนุสาวรีย์	-10.7701
แพทยศาสตร์	-10.7703
ชมพู	-10.7711
ยูเครน	-10.7711
ไอออน	-10.7715
ยอดเขา	-10.7717
out	-10.7724
ุ้น	-10.7725
วิดีโอเกม	-10.7727
ประทาน	-10.7728
เลี้ยงลูกด้วยนม	-10.773
9.00	-10.7733
การสนับสนุนจาก	-10.7746
แสดงให้เห็นว่า	-10.7749
low	-10.7752
เพรส	-10.7753
พุทธศักราช	-10.7755
ต่างด้าว	-10.7758
สีม่วง	-10.7759
ix	-10.7761
สุพรรณ	-10.7763
การติดเชื้อ	-10.7764
ประชุมคณะกรรมการ	-10.7772
ห่างไกล	-10.778
ร่วมมือกัน	-10.7783
ทิศตะวันออก	-10.7787
เข้าร่วมประชุม	-10.7799
คณะผู้บริหาร	-10.7804
มีพฤติกรรม	-10.7806
จ่ายเงิน	-10.7819
ภูมิภาคเอเชีย	-10.7823
duct	-10.783
ประกอบธุรกิจ	-10.7831
พระชายา	-10.7835
ระบอบประชาธิปไตย	-10.7837
เพื่อรองรับ	-10.7837
▁Star	-10.7839
การแข่ง	-10.7839
ชัง	-10.7842
ปุ๋ย	-10.7845
▁2507	-10.7851
ภูมิปัญญา	-10.7851
ปล้ํา	-10.7852
เปิดโอกาสให้	-10.7855
IN	-10.7863
ชิมะ	-10.7863
วิลล์	-10.7867
มาโดยตลอด	-10.7868
สินค้าเกษตร	-10.7869
จังหวัดขอนแก่น	-10.7869
▁จากนั้นจึง	-10.7873
ild	-10.788
เสถียรภาพ	-10.7881
ถัดไป	-10.7883
ไทยทีวีสีช่อง	-10.7893
ไม่ทัน	-10.7894
เซ็นเตอร์	-10.7898
ราชกิจจานุเบกษา	-10.7903
เซ็นทรัล	-10.7903
เร่งด่วน	-10.7905
พรรคเพื่อไทย	-10.7907
▁นรม	-10.7916
รวมทั้งสิ้น	-10.7916
ยะมะ	-10.7922
หนองคาย	-10.7922
วิสาหกิจ	-10.7925
รายจ่าย	-10.7929
เศรษฐกิจพอเพียง	-10.7932
reat	-10.7934
การขยายตัว	-10.7942
ชนเผ่า	-10.7944
ภาพลักษณ์	-10.7949
กํากับภาพยนตร์	-10.7949
เมทัล	-10.7951
เอ็ก	-10.7953
กรุงปารีส	-10.7954
UN	-10.7955
ที่รู้จักกันดี	-10.796
เบ็	-10.7961
สปอร์ต	-10.797
ศาสนาคริสต์	-10.7971
เคียง	-10.7971
การผ่าตัด	-10.7981
ภาชนะ	-10.7983
เกียรติคุณ	-10.7987
ปะการัง	-10.799
เศรษฐี	-10.7992
พระเชษฐา	-10.7996
คณะทํางาน	-10.7998
เช็ก	-10.8
บาร์เซโลนา	-10.801
▁1976	-10.8019
เก้าอี้	-10.802
มุ่งหน้า	-10.8025
เพื่อนสนิท	-10.8025
จนถึงปี	-10.8025
▁2512	-10.8041
ทวีปแอฟริกา	-10.8044
กีฬาโอลิมปิก	-10.8044
ความยุติธรรม	-10.8046
rop	-10.8047
▁2499	-10.8048
จังหวัดสงขลา	-10.8049
ดัชเชส	-10.8049
ช่วยลด	-10.8056
ประยุกต์ใช้	-10.8057
over	-10.8058
เริ่มแรก	-10.8058
นิวเคลียส	-10.8059
โปร่งใส	-10.8059
ทางตอนใต้ของ	-10.8061
ิ้น	-10.8062
สระบุรี	-10.8062
วาดภาพ	-10.8065
ความเปลี่ยนแปลง	-10.8066
▁ปอนด์	-10.8069
นนทบุรี	-10.8077
▁ยกตัวอย่างเช่น	-10.8079
ฆ่าตัวตาย	-10.8088
ภายใต้ชื่อ	-10.8095
ได้รับอิทธิพลจาก	-10.8099
องค์ความรู้	-10.81
ลูกศิษย์	-10.8116
▁Vi	-10.8118
ผู้สําเร็จราชการ	-10.8118
หรือเปล่า	-10.8119
เดรีย	-10.8121
คัง	-10.8122
Ind	-10.8123
▁Music	-10.8128
ผุ	-10.8129
ละติน	-10.8131
สุริยะ	-10.8132
ควาย	-10.8137
หลั่ง	-10.8138
ness	-10.8138
ขึ้นชก	-10.8143
??	-10.8145
รับการแต่งตั้ง	-10.8155
▁1989	-10.8159
การถ่ายภาพ	-10.8163
ดิฉัน	-10.8165
ดอลลาร์	-10.8172
แม่นยํา	-10.8178
บัลแกเรีย	-10.8178
app	-10.8179
air	-10.8182
บริวาร	-10.8188
วรรณคดี	-10.8194
ทิศเหนือ	-10.8196
หลวงปู่	-10.8203
แบ่งเขตการปกครอง	-10.8213
นายจ้าง	-10.8222
เริง	-10.8222
นักโทษ	-10.8226
&	-10.8227
อุดมการณ์	-10.8229
วรวิหาร	-10.8234
ซ็อง	-10.8237
จรวด	-10.8247
เวทมนตร์	-10.8247
แอ็	-10.825
หลิว	-10.8259
วิถีชีวิต	-10.8259
แน่ชัด	-10.8259
ร้อยเอ็ด	-10.826
แก้ความกํากวม	-10.8268
ฟอก	-10.827
นักลงทุน	-10.8273
เจตนา	-10.8278
แจ่ม	-10.8288
ไทม์	-10.8292
หนาวครั้งที่	-10.8298
บริบท	-10.8306
มีส่วนร่วมในการ	-10.8306
ดัตช์	-10.8308
เทคโนโลยีราชมงคล	-10.8308
แม้กระทั่ง	-10.8316
ซิตี้	-10.832
ทิศตะวันตก	-10.8321
แต้ม	-10.8324
แพร่กระจาย	-10.8327
สงครามกลางเมือง	-10.8328
ลึง	-10.8329
เพื่อให้เกิด	-10.8331
ลึกลับ	-10.8334
que	-10.8336
แอลกอฮอล์	-10.8338
ภาษาอาหรับ	-10.8339
ผู้ต้องหา	-10.8339
อิ่ม	-10.8342
หาดใหญ่	-10.8345
เอลิซาเบธ	-10.8348
กาฬสินธุ์	-10.8348
พัฒน	-10.835
วัตถุดิบ	-10.8351
โป่ง	-10.8354
ชาวต่างชาติ	-10.8357
ผู้ว่าการ	-10.836
วงแหวน	-10.8361
โหมด	-10.8362
ไพ่	-10.8362
ทาวน์	-10.8369
1,0	-10.8369
เทศบาลนคร	-10.8379
▁ดิศกุล	-10.8379
บัญชีรายชื่อ	-10.8381
เข้าชิง	-10.8382
นักประวัติศาสตร์	-10.8403
▁1968	-10.8406
นักวิจารณ์	-10.8412
ผลัด	-10.8414
การเจริญเติบโต	-10.8419
เป็นฝ่ายแพ้	-10.842
ผู้พิพากษา	-10.8424
▁Bank	-10.843
คณะกรรมาธิการ	-10.843
หยวน	-10.843
way	-10.8431
ธรณี	-10.8439
Ju	-10.8442
ฟุตบอลทีมชาติ	-10.8443
ท้าทาย	-10.845
ยิม	-10.8451
ผลึก	-10.8455
อุ้ม	-10.8459
ปัด	-10.8461
คับ	-10.8463
กระจายพันธุ์	-10.8465
,000,000	-10.847
วงโคจร	-10.847
▁ท้องที่อําเภอ	-10.8471
พัทยา	-10.8471
มหาดไทย	-10.8473
น่ารัก	-10.8477
เฟิร์	-10.8479
นอล	-10.848
เยียวยา	-10.8481
โค้ช	-10.8481
ปกครองตนเอง	-10.8483
วชิร	-10.8491
พงศาวดาร	-10.8491
เงินกู้	-10.8494
คณะแพทยศาสตร์	-10.85
เลี้ยว	-10.8501
ปล้น	-10.8501
เคลื่อนย้าย	-10.8504
โคจร	-10.8506
▁2514	-10.8511
บรรทัด	-10.8512
สาธารณชน	-10.8512
ภาคอีสาน	-10.8517
เพิ่มประสิทธิภาพ	-10.8523
ความสะดวก	-10.8525
รู้จักกันในชื่อ	-10.8527
ระบบปฏิบัติการ	-10.8528
วียน	-10.8532
โกลด์	-10.8533
เชื้อชาติ	-10.8538
ฟรานซิส	-10.8543
ศาลรัฐธรรมนูญ	-10.8544
ลุ่มน้ํา	-10.8544
สมาชิกสภา	-10.8548
ปีที่แล้ว	-10.8551
ระมัดระวัง	-10.8553
ศรีลังกา	-10.8557
ศาสตร์พระราชา	-10.8563
นอกจากจะ	-10.8572
2.5	-10.8572
ค่อยๆ	-10.8576
ถกเถียง	-10.8584
ผนวก	-10.8584
เดินทางไปยัง	-10.8589
เฉิน	-10.8592
จัตุรัส	-10.8594
▁Un	-10.8605
ON	-10.861
นโปเลียน	-10.8615
▁ด้วยเหตุนี้	-10.8615
กระแสไฟฟ้า	-10.8617
▁ตารางวา	-10.8617
สารคดี	-10.8617
สหภาพยุโรป	-10.8618
บาทหลวง	-10.8619
ชกมวย	-10.8621
การบริหารงาน	-10.8625
เข้มงวด	-10.8625
รอบสุดท้าย	-10.8628
ศูนย์การค้า	-10.8633
ขีดความสามารถ	-10.8633
เปียโน	-10.8639
ตลอดกาล	-10.8645
เร่งรัด	-10.8648
กิริยา	-10.8656
ō	-10.8657
เข้าเยี่ยมคารวะ	-10.8657
เสน่ห์	-10.8657
โปเกมอน	-10.8657
ี๊ย	-10.8659
แจ็ค	-10.8659
แห่งสหประชาชาติ	-10.8672
นครพนม	-10.8682
พระชนม์	-10.8687
แบรนด์	-10.8688
ออกกําลังกาย	-10.8688
ดราม่า	-10.869
ถนัด	-10.8698
บริเตน	-10.8699
รองประธาน	-10.8703
ตอบสนองต่อ	-10.8704
มาร์ติน	-10.8706
▁พระบรมราชินีนาถ	-10.8709
Si	-10.8711
ลวด	-10.8716
ตะกอน	-10.8717
ลําไส้	-10.8724
บันทึกไว้	-10.8724
▁1964	-10.8732
ยี่สิบ	-10.8736
สดใส	-10.8741
แจ็ก	-10.8744
อัฟกานิสถาน	-10.8751
อภิปราย	-10.8753
สังคมศาสตร์	-10.8765
เถระ	-10.8771
เศรษฐ	-10.8776
กรุณา	-10.8784
โรงละคร	-10.8788
ิอุส	-10.8792
เพดาน	-10.8794
ดีเอ็นเอ	-10.8804
อินทรี	-10.8806
ขัดขวาง	-10.8806
กรมศิลปากร	-10.8807
ควีน	-10.8812
ภี	-10.8815
อภิสิทธิ์	-10.8818
ช่องว่าง	-10.8825
เจริญเติบโต	-10.8833
ง่ายๆ	-10.8836
เรือนจํา	-10.8837
ความจุ	-10.8842
พิทยา	-10.8847
เน้นย้ํา	-10.885
พัชร	-10.8855
▁2491	-10.8855
กระทรวงแรงงาน	-10.8857
ฮอร์โมน	-10.8857
หุบเขา	-10.8857
แว่น	-10.8865
เครื่องประดับ	-10.8865
ตะกั่ว	-10.8868
เปรี้ยว	-10.8868
โทรคมนาคม	-10.8871
เขตแดน	-10.8882
อุปสมบท	-10.8889
มลพิษ	-10.8889
ประมวล	-10.889
พลาง	-10.891
พินิจ	-10.8911
กระทรวงเกษตรฯ	-10.8921
ความเป็นธรรม	-10.8921
เงินสด	-10.8921
ครรภ์	-10.8925
เคร่งครัด	-10.8932
โรมันคาทอลิก	-10.8935
แนวความคิด	-10.8944
ไม่เห็นด้วย	-10.8944
ยุคกลาง	-10.8952
ซื่อสัตย์	-10.8954
บรรจบ	-10.8954
มิตรภาพ	-10.8954
หม่อมหลวง	-10.8961
นินจา	-10.8964
เป็นนักฟุตบอลชาว	-10.8966
รับหน้าที่	-10.8966
ดีวีดี	-10.897
มังงะ	-10.8976
พระบรมศพ	-10.8977
ซุ้ม	-10.8981
หุ้นส่วน	-10.9006
จับคู่	-10.9006
เยอร์	-10.9008
ถูกนํามาใช้	-10.9011
โถ	-10.9012
เพียงคนเดียว	-10.9015
พิจิตร	-10.902
พวกเรา	-10.902
มีบทบาทสําคัญใน	-10.9022
จดจํา	-10.9029
ผู้ทรงคุณวุฒิ	-10.904
ภูมิคุ้มกัน	-10.904
เฝ้าระวัง	-10.9051
ประมูล	-10.9059
á	-10.9062
ถนอม	-10.9063
ل	-10.9073
ประเทศเวียดนาม	-10.9082
๓๐	-10.9093
คิดเป็นร้อยละ	-10.9095
สังเกตการณ์	-10.9096
ดาวน์โหลด	-10.9105
ection	-10.9107
ยิงประตู	-10.9128
มหกรรม	-10.9128
ระดับปริญญาโท	-10.9138
อัตราส่วน	-10.9145
หลอม	-10.915
พระสนม	-10.9161
แมตช์	-10.9171
ไตรมาส	-10.9182
ชายหาด	-10.9186
ให้การต้อนรับ	-10.9204
ยุทธศาสตร์ชาติ	-10.9207
▁เอฟซี	-10.9207
เจได	-10.9211
▁*******	-10.9216
อับดุล	-10.9216
ยูเนสโก	-10.9226
กรุงโตเกียว	-10.9241
หน้ากาก	-10.9249
ผนึก	-10.9254
ฝัก	-10.9263
ลังกา	-10.9265
บริติช	-10.9271
นิติบุคคล	-10.9273
▁2505	-10.9278
สมัยก่อน	-10.9284
ศาสนาอิสลาม	-10.9291
ควบ	-10.9302
ละออง	-10.9302
ทะเลทราย	-10.9305
วัลย์	-10.9305
จิ้น	-10.9305
เซิน	-10.9306
ตอนล่าง	-10.9308
ฟาร์ม	-10.9311
หิมะ	-10.9312
ชดเชย	-10.9315
▁องศาเซลเซียส	-10.9315
เลื่อนชั้น	-10.9323
ซีซั่น	-10.9326
เข้าสู่วงการ	-10.9337
วิกตอเรีย	-10.9337
ความเป็นไปได้	-10.9344
อาร์เซนอล	-10.9349
ได้รับอนุญาต	-10.9354
เข้าประกวด	-10.9368
สุขาภิบาล	-10.9371
▁พลตํารวจเอก	-10.9371
ฟุตซอล	-10.9393
เวียงจันทน์	-10.9394
ขจร	-10.9395
เป็นเมืองหลวงของ	-10.9398
โสภณ	-10.9399
เบิร์น	-10.9401
จักรี	-10.9403
ฉะเชิงเทรา	-10.9405
โน้ต	-10.9405
สมาชิกวุฒิสภา	-10.941
ฮาวาย	-10.9412
ตระเวน	-10.9416
ทั้งปวง	-10.9416
แอนน์	-10.9427
เจ็บป่วย	-10.9429
อัสสัมชัญ	-10.9439
aster	-10.9445
างกูร	-10.9448
แคลิฟอร์เนีย	-10.9451
จังหวัดเชียงราย	-10.9459
พิธีกรรม	-10.9467
ขวด	-10.9472
ประยูร	-10.9473
โมบิลสูท	-10.9484
ประเทศฟิลิปปินส์	-10.9484
มอบหมาย	-10.9485
ตลาดหลักทรัพย์	-10.9495
พระบรมมหาราชวัง	-10.9495
กิ่งอําเภอ	-10.9501
ตรวจจับ	-10.9502
คณบดี	-10.9506
พระชนมพรรษา	-10.9506
กรุงโรม	-10.9507
4,000	-10.9514
โดเมน	-10.9522
อุโมงค์	-10.9529
ภัยพิบัติ	-10.953
ก้อง	-10.9542
ห้องปฏิบัติการ	-10.9542
สอดคล้อง	-10.9543
ยี่ห้อ	-10.9556
กฤษณ	-10.9557
ความชื้น	-10.9563
สัญจร	-10.9564
▁หมายเหตุ	-10.9564
rand	-10.9574
ปราชญ์	-10.9575
ประเมินผล	-10.9583
ระยะสั้น	-10.9586
เฮาส์	-10.9587
ศาลฎีกา	-10.9588
ผ่อน	-10.9592
อาร์เอส	-10.9594
แกล้ง	-10.9598
ข้าพเจ้า	-10.9598
เหนี่ยว	-10.9609
คิวบา	-10.961
กรุงธนบุรี	-10.9613
q	-10.9616
แบ็ก	-10.9619
็อค	-10.9619
จินตนาการ	-10.9621
▁ในขณะเดียวกัน	-10.9621
โตเต็มที่	-10.9626
ัตสึ	-10.9639
▁2510	-10.964
หมั้น	-10.9644
ระดับอุดมศึกษา	-10.9656
ทางหลวงหมายเลข	-10.966
รอดชีวิต	-10.9675
ถ่วง	-10.9679
มัธยมศึกษาตอนต้น	-10.9679
tain	-10.9681
มีมติเห็นชอบ	-10.9703
ลงสมัครรับเลือก	-10.9722
องคมนตรี	-10.9725
เซาท์	-10.9729
โรแมนติก	-10.9737
ปล้อง	-10.9737
คาดหวัง	-10.974
มอสโก	-10.9748
โจเซฟ	-10.9749
พระอุโบสถ	-10.9752
วิกฤติ	-10.9753
แกะสลัก	-10.9772
ขันธ์	-10.9772
พิมล	-10.9773
ยุคสมัย	-10.9778
สหพันธรัฐ	-10.9783
20,000	-10.9795
หมิ่น	-10.9796
๕๐	-10.9799
ศักดิ	-10.9804
แสตมป์	-10.9807
ไนท์	-10.9809
โรงไฟฟ้า	-10.982
รวด	-10.9824
▁comp	-10.9824
เซลล์ประสาท	-10.9827
กฤต	-10.9828
ตื้น	-10.983
พระไตรปิฎก	-10.983
ออกอากาศทางช่อง	-10.9837
กระชับ	-10.9854
สนุกสนาน	-10.9854
!!	-10.9854
อันศักดิ์สิทธิ์	-10.9863
อักษรย่อ	-10.9865
หฤทัย	-10.9865
โจทย์	-10.9877
เฉพาะกิจ	-10.9878
ยูฟ่า	-10.9889
▁ถึงแม้	-10.9896
▁2508	-10.99
จิ๋ว	-10.9901
โครงข่าย	-10.9901
สโตน	-10.9906
พอร์ต	-10.9909
คฤหาสน์	-10.9913
บุกเบิก	-10.9913
เหนื่อย	-10.9913
ยินยอม	-10.992
ข้าหลวง	-10.9921
เสี้ยว	-10.9924
ชาลส์	-10.9949
▁นอกจากนั้นยัง	-10.9951
สง่า	-10.9972
หยาบ	-10.9973
เท่าไหร่	-10.9984
เห็ด	-10.9994
เข้าใจผิด	-11.0004
#	-11.0008
ā	-11.0008
อัจฉริยะ	-11.0008
เกสร	-11.0009
ทรมาน	-11.0016
ก่อเหตุ	-11.002
สมมุติ	-11.002
คาดการณ์	-11.0021
	-11.0032
กรุงรัตนโกสินทร์	-11.0033
▁One	-11.0043
เรื้อรัง	-11.0044
ธีระเกียรติ	-11.0044
ประชวร	-11.0056
ประเทศกรีซ	-11.006
คาทอลิก	-11.0067
บังเอิญ	-11.0068
ปรกติ	-11.0068
มาดริด	-11.0068
าธิปไตย	-11.008
Trans	-11.0081
สับ	-11.0088
คุ้นเคย	-11.0092
ประจวบคีรีขันธ์	-11.0092
ศุกร์	-11.0093
รัฐแคลิฟอร์เนีย	-11.0103
เกิร์ล	-11.0104
ฝี	-11.0107
กรรมการผู้จัดการ	-11.0118
โตโยต้า	-11.0128
พระชันษา	-11.0128
ระลึกถึง	-11.0136
▁ลงวันที่	-11.0139
กางเกง	-11.014
ภคินี	-11.0152
โปรเจกต์	-11.0152
เป็นประธานในพิธี	-11.0162
กิตติมศักดิ์	-11.0164
ไพบูลย์	-11.0164
คว่ํา	-11.0165
ลอบสังหาร	-11.0166
กะเหรี่ยง	-11.0177
ปศุสัตว์	-11.0177
กํานัน	-11.0179
ปาเลสไตน์	-11.0189
แสดงให้เห็นถึง	-11.0201
ร่องรอย	-11.0205
กระดาน	-11.0214
ฆาตกรรม	-11.0216
เล่าปี่	-11.0225
เมทริกซ์	-11.0238
▁สถิติการชก	-11.0238
ครบวงจร	-11.024
อสูร	-11.0243
ระฆัง	-11.025
สวัสดิ	-11.025
อินโดจีน	-11.0274
หน่อ	-11.0277
▁2506	-11.0281
อิสรภาพ	-11.0287
แล่น	-11.0287
นะงะ	-11.0287
อดทน	-11.0291
ตําหนัก	-11.0292
▁Development	-11.0299
อันเนื่องมาจาก	-11.0299
ผู้มีรายได้น้อย	-11.0299
กรมบัญชีกลาง	-11.0305
าวด์	-11.0323
กระต่าย	-11.0324
รั้ว	-11.0325
กระทรวงดิจิทัลฯ	-11.0334
จัดทําแผน	-11.0335
สมุทรสาคร	-11.0336
สํานวน	-11.0336
ภิรมย์	-11.0336
▁แต่ทว่า	-11.0341
ชั้นมัธยมศึกษาปี	-11.0342
สิ่งเร้า	-11.0348
ทางกายภาพ	-11.0348
และปริมณฑล	-11.0348
ปลาน้ําจืด	-11.0355
กะโหลก	-11.0361
มองโกเลีย	-11.0361
จังหวัดนนทบุรี	-11.0363
ปลอด	-11.0364
▁wh	-11.0371
ใฝ่	-11.0373
นิวตรอน	-11.0373
บ่งบอก	-11.0375
พึ่งพา	-11.0381
โผล่	-11.0385
ทางรถไฟสาย	-11.0388
สนามแม่เหล็ก	-11.039
มองโกล	-11.039
วิเชียร	-11.0395
สังข์	-11.0398
สะเทือน	-11.041
บทกวี	-11.042
กองบัญชาการ	-11.0423
โซนิค	-11.0423
อุบล	-11.0423
▁2501	-11.0431
ไว้วางใจ	-11.0435
มุขนายก	-11.0437
หิรัญ	-11.0437
กริยา	-11.0449
ข่าน	-11.0454
▁บุนนาค	-11.046
อสังหาริมทรัพย์	-11.046
แอร์ไลน์	-11.0461
ครีม	-11.0471
ฤดูฝน	-11.0472
ฮิโระ	-11.0477
ข้าวโพด	-11.0485
ชายฝั่งทะเล	-11.0495
ความเหลื่อมล้ํา	-11.0498
บิดามารดา	-11.0503
ห่ม	-11.0508
เป็นมรดกโลก	-11.0511
สมิธ	-11.0511
แบล็ก	-11.0523
High	-11.053
▁2502	-11.0531
จระเข้	-11.0535
พัทลุง	-11.0535
ในสมัยรัชกาลที่	-11.0544
สารานุกรม	-11.0548
อัตราดอกเบี้ย	-11.0549
ความไม่สงบ	-11.0563
เวชศาสตร์	-11.0569
▁Act	-11.0573
จุดมุ่งหมาย	-11.0573
เยื่อหุ้ม	-11.0576
โทรศัพท์มือถือ	-11.0586
ฟีฟ่า	-11.0586
[	-11.0603
แหล่งท่องเที่ยว	-11.0604
บัดนี้	-11.0612
ประจักษ์	-11.0624
ลักเซมเบิร์ก	-11.0624
เทควันโด	-11.0624
ทนายความ	-11.0625
ทัด	-11.0633
ซามูไร	-11.0637
ซ้อม	-11.0638
ลาออกจากตําแหน่ง	-11.0643
▁2509	-11.0658
พี่อาร์ม	-11.0662
เซอร์เบีย	-11.067
ุทธ	-11.0675
สมัชชา	-11.0688
พิบูลสงคราม	-11.0701
เผ่าพันธุ์	-11.0702
การสู้รบ	-11.0703
เป็นไปอย่าง	-11.071
ขีปนาวุธ	-11.0713
สมรรถภาพ	-11.0713
พจนานุกรม	-11.0714
ลําธาร	-11.0719
▁2504	-11.0721
а	-11.0726
สมเด็จพระสังฆราช	-11.0726
แผ่นป้าย	-11.073
ฟิลด์	-11.0734
คบหา	-11.0743
ดิวิชั่น	-11.0752
พระจอมเกล้า	-11.0758
ช่องแคบ	-11.0764
คณิต	-11.0775
จอร์เจีย	-11.0778
ห่วงใย	-11.0779
▁was	-11.0792
ไดโนเสาร์	-11.0804
กราฟิก	-11.0815
สมมติฐาน	-11.0817
พัทธ์	-11.0817
ตอบโต้	-11.082
▁Asia	-11.0827
ได้รับการเสนอช	-11.0835
ไมโครซอฟท์	-11.0856
/2561	-11.0869
บ่งชี้	-11.0895
ราศี	-11.0896
จนกว่าจะ	-11.0907
ยัด	-11.0915
เกษียณ	-11.0921
เหลียง	-11.0921
ภาษาบาลี	-11.0921
ยิว	-11.0924
▁ดอลลาร์สหรัฐ	-11.0928
สตูล	-11.0933
ปักษ์	-11.0934
▁เป็นบุตรของนาย	-11.0937
เปรียญ	-11.0947
หย่อน	-11.0947
ประมวลกฎหมาย	-11.0951
ผู้ตรวจราชการ	-11.096
แม็ค	-11.0968
▁กรมหมื่น	-11.0978
สาธารณ	-11.0982
ทัศนคติ	-11.0988
ept	-11.0993
สําราญ	-11.1
พิสัย	-11.1
จันทน์	-11.103
สมรรถนะ	-11.1039
ology	-11.1059
สแควร์	-11.1066
ภริยา	-11.1079
เอลฟ์	-11.1093
กล่อม	-11.1093
ผู้ประสบภัย	-11.1106
รวมผลสองนัด	-11.1106
ถ่ายทอดสด	-11.1109
ถัดจาก	-11.1119
ก่อนคริสต์ศักราช	-11.1119
เครดิต	-11.1119
▁พบกระจายพันธุ์	-11.112
ในตอนท้าย	-11.1124
ดุษฎีบัณฑิต	-11.1133
ทําความสะอาด	-11.1133
trans	-11.1134
นโรดม	-11.1143
nivers	-11.1147
บาสเกตบอล	-11.1159
ที่เก่าแก่ที่สุด	-11.1165
ปริมาตร	-11.1167
▁องศาตะวันออก	-11.1177
เอิร์ล	-11.12
6,000	-11.1206
ember	-11.123
facebook	-11.124
ปลาฉลาม	-11.124
ผัด	-11.124
มัธยมศึกษาปีที่	-11.1241
▁อดุลย์	-11.1254
สุขุม	-11.1257
จอร์แดน	-11.1259
ห้อย	-11.1268
กระทรวงวิทยาศา	-11.1271
▁ออกอากาศทุกวัน	-11.1278
คณาจารย์	-11.1281
สตร์และเทคโนโลยี	-11.1284
---------------	-11.1285
ยูโกสลาเวีย	-11.1308
เอเธนส์	-11.1308
ถ่านหิน	-11.131
รัตนโกสินทร์	-11.1347
ศาสดา	-11.1349
ปลื้ม	-11.1363
พระบรมราชูปถัมภ์	-11.1363
สัมฤทธิ์	-11.1367
ปัง	-11.1379
ยานยนต์	-11.1381
เตรียมอุดมศึกษา	-11.139
เพชรบูรณ์	-11.139
▁เป็นอําเภอหนึ่ง	-11.1392
คล้ายคลึงกัน	-11.1404
เปอร์เซ็นต์	-11.1404
×	-11.1404
แม่ฮ่องสอน	-11.1404
ัธยมศึกษาตอนปลาย	-11.1416
ร้องไห้	-11.1418
กลีบดอก	-11.1422
ศิลปากร	-11.1428
มหัศจรรย์	-11.1431
เธีย	-11.1432
ดิสนีย์	-11.1446
ทุจริต	-11.1454
α	-11.1459
ฝ้าย	-11.1459
กรมสามัญศึกษา	-11.146
แทรกแซง	-11.1473
แอปเปิล	-11.1487
พระเจ้าวรวงศ์เธอ	-11.1487
ศรีนครินทรวิโรฒ	-11.1487
▁เจริญเศรษฐศิลป์	-11.1487
็อป	-11.1489
−	-11.1501
โฆษกประจําสํานัก	-11.1501
เชื่อมั่น	-11.1508
ธรณีวิทยา	-11.1517
เสนาธิการ	-11.1528
พยางค์	-11.1543
ผ่านเข้ารอบ	-11.1567
ภาษาสันสกฤต	-11.157
นิพพาน	-11.1584
▁System	-11.1584
รางวัลโนเบล	-11.1587
ตอบคําถาม	-11.1594
อารย	-11.1596
อัญมณี	-11.1598
~	-11.1598
เบิกจ่าย	-11.1598
มัธยมปลาย	-11.161
ขู่	-11.1612
คุ้งตะเภา	-11.1612
ฝ่ายสัมพันธมิตร	-11.1626
บรมราชชนนี	-11.1626
ชิคาโก	-11.1627
ป้อน	-11.1627
ภาณุ	-11.1654
III	-11.1655
ซัด	-11.1655
ช่อดอก	-11.166
ทึบ	-11.1669
มีส่วนเกี่ยวข้อง	-11.1674
พรรคพลังประชาชน	-11.1683
วีดีโอ	-11.1689
▁Championship	-11.1697
ยางพารา	-11.17
ฝึกซ้อม	-11.171
ไฮโดร	-11.1739
สันนิบาต	-11.1739
ความเอนเอียง	-11.1739
๐๐๐	-11.1747
ส่งผลกระทบต่อ	-11.1796
ขนมปัง	-11.1811
สันนิษฐาน	-11.1815
ผู้รักษาประตู	-11.1825
ยากลําบาก	-11.1827
มหาสมุทรแอตแลนติ	-11.1837
แย้ม	-11.1839
สุขุมวิท	-11.184
สก็อต	-11.184
พยาธิ	-11.184
แถลงการณ์	-11.1855
กายวิภาค	-11.1868
oint	-11.1877
กล้าหาญ	-11.1897
สโลวาเกีย	-11.1897
ไอดอล	-11.1911
ชีวประวัติ	-11.1914
ไอซ์แลนด์	-11.194
	-11.1955
ทมิฬ	-11.1955
บวม	-11.1962
นางเจ้าสิริกิติ์	-11.1968
ถวายพระพร	-11.1973
กระทําความผิด	-11.1987
โยธิน	-11.1994
ตาบอด	-11.1997
เพลย์สเตชัน	-11.1999
ศาสตร	-11.2008
วิสัยทัศน์	-11.2028
ปราจีนบุรี	-11.2028
คอนกรีต	-11.2028
บรูไน	-11.203
พระบรมวงศานุวงศ์	-11.2042
แอนตาร์กติก	-11.2042
8,000	-11.2051
30,000	-11.2072
นิมิต	-11.2074
พระสวามี	-11.2086
อัลบัม	-11.2087
ปัญจ	-11.2101
ลูกบาศก์	-11.2101
ที่ราบลุ่ม	-11.2102
เป็นอันมาก	-11.2104
ิงแฮม	-11.2111
ถ้อยคํา	-11.2116
สุริยุปราคา	-11.2116
อุทธรณ์	-11.2116
เลื้อย	-11.2116
ริมฝีปาก	-11.2131
ถือได้ว่าเป็น	-11.2135
อ่างเก็บน้ํา	-11.2145
▁Girl	-11.2146
ค้ําประกัน	-11.2146
มหาวชิราลงกรณ	-11.216
เถิด	-11.2162
off	-11.2171
วิษณุ	-11.2175
แบ่งออกได้เป็น	-11.2175
เมียนมา	-11.2187
จู่โจม	-11.219
โทลคีน	-11.219
ช้างเผือก	-11.2191
มหิดล	-11.2192
▁from	-11.2205
ฉาน	-11.2208
ดยุคแห่ง	-11.2219
ผู้ร่วมการทดลอง	-11.222
เลวร้าย	-11.222
เครื่องปฏิกรณ์	-11.2235
ยานพาหนะ	-11.2236
สาหร่าย	-11.225
การจับสลาก	-11.225
คณะรักษาความสงบ	-11.225
รถจักรยานยนต์	-11.2265
วิกฤตการณ์	-11.2265
ข้อพิพาท	-11.2266
ภิบาล	-11.2274
ทวีปอเมริกาเหนือ	-11.228
แย่งชิง	-11.2295
ทําเนียบ	-11.2306
ในวัยเด็ก	-11.2308
ร่ํารวย	-11.231
สพฐ	-11.231
ตําหนิ	-11.2325
โภค	-11.2326
ลักลอบ	-11.2326
ครบถ้วน	-11.234
มรณะ	-11.234
พักตร์	-11.234
เฮลิคอปเตอร์	-11.2355
กรีฑา	-11.2355
ยืดหยุ่น	-11.2355
สุรเชษฐ์	-11.237
ชัยนาท	-11.2371
หมากรุก	-11.2371
ลึกซึ้ง	-11.24
มวยสากลสมัครเล่น	-11.24
อสุจิ	-11.2416
หัด	-11.2421
เซี่ยงไฮ้	-11.2431
ศักย์	-11.2446
ใช้สอย	-11.2464
บราวน์	-11.2477
มหาดเล็ก	-11.2477
ซิดนีย์	-11.2492
หวั่น	-11.2492
▁แจ็กสัน	-11.2492
ประเทศเพื่อนบ้าน	-11.2492
พยัคฆ์	-11.2507
ซากดึกดําบรรพ์	-11.2507
ซุปเปอร์	-11.2523
สวัสดิการแห่งรัฐ	-11.2523
ป๊อป	-11.2523
อธิการ	-11.2524
เคิร์	-11.2532
แคลเซียม	-11.2553
พระเจ้าหลุยส์ที่	-11.2557
สีกองทัพบกช่อง	-11.2569
นายกเทศมนตรี	-11.2584
พระหัตถ์	-11.2584
ห้างสรรพสินค้า	-11.2584
พระเพลิงพระบรมศพ	-11.26
มันสําปะหลัง	-11.26
ฟราน	-11.2613
โครโมโซม	-11.2615
คลองผดุงกรุงเกษม	-11.2615
บังกลาเทศ	-11.2631
เพ็ชร	-11.2634
พรรคชาติไทย	-11.2665
โต้แย้ง	-11.2678
บิชอป	-11.2678
อาบน้ํา	-11.268
อล์ก	-11.2682
1.00	-11.2701
แบตเตอรี่	-11.2709
คาราบาว	-11.2709
ควอนตัม	-11.2724
กล้องโทรทรรศน์	-11.274
ข่มขืน	-11.274
จลาจล	-11.274
สัตว์เลื้อยคลาน	-11.274
ปลงพระชนม์	-11.274
เปี่ยม	-11.274
ประสิทธิผล	-11.274
ปัจเจก	-11.2756
โมะโตะ	-11.2756
ฮอนด้า	-11.2772
ราวุธ	-11.2777
โคลัมเบีย	-11.2787
แฟนตาซี	-11.2787
ผิง	-11.2788
งค์การบริหารส่วน	-11.2792
ที่ว่าการอําเภอ	-11.2804
▁Time	-11.282
3.00	-11.2834
ปาฐกถา	-11.2835
เคาน์ตี	-11.2835
ะหฺ	-11.2847
สรุปสาระสําคัญ	-11.2851
ปณิธาน	-11.2867
เพลย์ออฟ	-11.2867
ในชีวิตประจําวัน	-11.2867
ฝ่ายค้าน	-11.2867
นางงามจักรวาล	-11.2883
▁Entertainment	-11.2883
เฒ่า	-11.2899
สิกข	-11.2903
ให้คําปรึกษา	-11.2931
ณะวิศวกรรมศาสตร์	-11.2932
พรุ่งนี้	-11.2932
เลขาธิการคณะกรรม	-11.2939
สวดมนต์	-11.2963
นามปากกา	-11.297
▁สปีด	-11.2972
เสนอชื่อเข้าชิง	-11.2972
เขี้ยว	-11.2979
เพี้ยน	-11.2995
พหลโยธิน	-11.3011
แชมเปียน	-11.3011
เลบานอน	-11.3027
โจรสลัด	-11.3027
อินเตอร์เนชันแนล	-11.3059
สเตเดียม	-11.3059
ไม้ยืนต้น	-11.3092
2.00	-11.3093
ค้างคาว	-11.3108
ทัณฑ์	-11.3125
พัสดุ	-11.3125
เนรเทศ	-11.3125
คอร์เทกซ์	-11.3141
▁๒๕๔	-11.3142
ย้อม	-11.3142
เอสเอ็มอี	-11.3157
ลําเลียง	-11.3157
ได้ชื่อว่าเป็น	-11.3173
เอฟเอคัพ	-11.3174
แฟรงก์	-11.3174
บาวาเรีย	-11.3174
แท็กซี่	-11.319
มรสุม	-11.319
ปกรณัม	-11.319
เหลียว	-11.319
ธํารง	-11.319
พลเรือเอก	-11.3207
เอนเตอร์เทนเมนต์	-11.3223
▁แต่อย่างไรก็ตาม	-11.3223
สนิทสนม	-11.324
เค้ก	-11.324
American	-11.3256
▁เวชชาชีวะ	-11.3289
ทารุณ	-11.3289
ปนเปื้อน	-11.3306
เจตนารมณ์	-11.3306
ไทยเป็นการทั่วไป	-11.3306
ห้วง	-11.3306
อนันต	-11.332
บริบูรณ์	-11.3322
เกลียว	-11.3322
ไบรอัน	-11.3322
มังคล	-11.3323
แยกแยะ	-11.3339
สยองขวัญ	-11.3339
เถรวาท	-11.3339
เสียดาย	-11.3339
อุโบสถ	-11.3384
มัสยิด	-11.3389
โคลอมเบีย	-11.3389
เปิดทําการสอน	-11.3389
นัยน์ตา	-11.3391
อธิปไตย	-11.3406
$	-11.3423
สมุห	-11.3427
ศิขร	-11.3447
ー	-11.3473
รําลึกถึง	-11.3473
ไพเราะ	-11.3473
ลุมพินี	-11.349
เย็บ	-11.3491
อลิซ	-11.3503
ๅ	-12.6706
