<unk>	0
<s>	0
</s>	0
▁	-2.5458
.	-4.07735
ที่	-4.50113
ของ	-4.69227
และ	-4.94145
ใน	-4.9452
>	-4.97676
▁และ	-4.97967
)	-4.99947
NE	-5.05627
ศ	-5.10931
▁(	-5.111
เป็น	-5.22567
ได้	-5.32632
"	-5.42947
การ	-5.60339
▁"	-5.62463
น	-5.63425
า	-5.71565
,	-5.72119
ส	-5.75377
ก	-5.77117
มี	-5.77303
ให้	-5.77513
</	-5.77712
▁พ	-5.77726
จาก	-5.87825
มา	-5.89433
ม	-5.89711
กับ	-5.92507
-	-5.9669
ว่า	-6.00559
▁เป็น	-6.08321
ไป	-6.09036
ง	-6.12856
ด	-6.14358
▁โดย	-6.15263
<	-6.20174
ต	-6.21058
จะ	-6.22084
นี้	-6.2411
▁ซึ่ง	-6.24964
▁ค	-6.26812
ค	-6.27884
ตัว	-6.33722
โดย	-6.3543
ล	-6.35619
▁1	-6.35679
ทาง	-6.39026
ว	-6.4001
▁2	-6.42655
ด้วย	-6.43663
ท	-6.46757
กัน	-6.48281
พ	-6.48523
ย	-6.49714
บ	-6.49893
▁แต่	-6.50395
นั้น	-6.50764
▁หรือ	-6.50954
s	-6.51321
ความ	-6.54024
ร	-6.54322
/	-6.5693
▁มี	-6.58162
▁ใน	-6.59209
แล้ว	-6.59898
หรือ	-6.60141
อ	-6.60756
อยู่	-6.63335
ป	-6.64311
▁<	-6.65846
ก็	-6.66398
▁ๆ	-6.67658
▁3	-6.67726
อย่าง	-6.69565
ต่อ	-6.69866
ไม่	-6.7005
ผู้	-6.70717
เพื่อ	-6.73267
น้ํา	-6.75804
ตาม	-6.7832
ถูก	-6.78545
ดี	-6.80674
แห่ง	-6.81149
ใช้	-6.81334
ขึ้น	-6.82675
ถึง	-6.8281
คน	-6.83517
แบบ	-6.8414
คือ	-6.84532
ห	-6.86639
พระ	-6.89557
ทํา	-6.89976
ปี	-6.90165
ไทย	-6.91128
นา	-6.92601
ร์	-6.92699
อีก	-6.95389
▁คือ	-6.9638
▁19	-6.964
เมือง	-6.9788
เมื่อ	-6.98361
▁ปี	-6.99713
▁()	-6.99729
▁4	-7.00426
ช	-7.01946
เรื่อง	-7.05237
e	-7.05743
ใหม่	-7.0766
งาน	-7.08113
ที่มี	-7.08329
▁เมื่อ	-7.10002
▁24	-7.10103
ะ	-7.10547
ฟ	-7.108
หนึ่ง	-7.11189
y	-7.11421
ทั้ง	-7.14474
จ	-7.14954
ซึ่ง	-7.15523
เขา	-7.15898
▁การ	-7.1626
จึง	-7.16448
ส์	-7.16487
ตา	-7.17144
่	-7.17617
▁5	-7.17892
สามารถ	-7.18455
ยา	-7.18552
ลา	-7.18682
ในการ	-7.18686
ๆ	-7.18849
เพลง	-7.19196
ชื่อ	-7.19246
ในปี	-7.19563
เข้า	-7.21374
:	-7.2187
▁คน	-7.22476
ออก	-7.22592
กา	-7.23651
ประเทศ	-7.24359
▁เช่น	-7.24583
ลง	-7.2485
มาก	-7.26033
ต้อง	-7.26481
ทรง	-7.26527
AB	-7.26624
ระหว่าง	-7.27553
ยัง	-7.27612
ด้าน	-7.28092
”	-7.28482
โอ	-7.28561
นํา	-7.29264
รี	-7.2992
นาย	-7.30212
หน้า	-7.3094
▁ได้	-7.31154
บ้าน	-7.31448
กลุ่ม	-7.31725
วง	-7.31986
สร้าง	-7.32271
เ	-7.32856
รา	-7.33086
ใจ	-7.33163
▁เพื่อ	-7.3337
a	-7.34854
▁“	-7.35264
ซี	-7.35278
วัน	-7.35625
รับ	-7.35711
ต่าง	-7.36193
อา	-7.3682
บน	-7.36954
แต่	-7.37285
o	-7.37726
กว่า	-7.3811
ไว้	-7.39042
จังหวัด	-7.39397
ใหญ่	-7.40211
ลี	-7.41497
เสียง	-7.41905
พื้นที่	-7.41998
ริ	-7.43464
อยู่ใน	-7.44421
ประมาณ	-7.44533
เอ	-7.44631
ผล	-7.4471
ลิ	-7.44746
S	-7.45709
วัด	-7.45801
▁6	-7.46087
ภาพ	-7.46734
หลัง	-7.48447
t	-7.48518
▁ณ	-7.48737
มิ	-7.48854
เล	-7.48886
n	-7.48969
แรก	-7.49801
ทุก	-7.50075
▁ส่วน	-7.50493
สําหรับ	-7.51267
ธ	-7.51586
th	-7.51754
หา	-7.51943
ระบบ	-7.52414
▁ในปี	-7.53046
v	-7.53251
คํา	-7.54131
มาจาก	-7.54396
สอง	-7.54563
ทั้งหมด	-7.54788
เกิด	-7.54841
ที่จะ	-7.54983
A	-7.5521
เงิน	-7.55375
ฯ	-7.55679
er	-7.56313
ชาว	-7.56484
ทําให้	-7.56663
เร	-7.56939
นิ	-7.57237
ระดับ	-7.57445
▁S	-7.5745
เม	-7.58027
al	-7.58195
จน	-7.58393
รวม	-7.58543
▁7	-7.58743
ซ	-7.5879
ดู	-7.59609
P	-7.59682
ผ่าน	-7.59857
คา	-7.60004
วิ	-7.60169
ราช	-7.60277
ย์	-7.60342
โร	-7.60913
แสดง	-7.61292
สี	-7.61394
ข่าว	-7.6175
ต่างๆ	-7.61818
สูง	-7.61997
จัด	-7.62038
ส่ง	-7.62289
อื่น	-7.63179
วา	-7.63643
กลาง	-7.63689
ได้รับ	-7.63738
์	-7.64451
▁-	-7.64833
ดา	-7.6521
คุณ	-7.65329
ไม่ได้	-7.65337
โลก	-7.65624
โก	-7.65985
ประจํา	-7.66099
้	-7.66462
หลัก	-7.67232
▁ซึ่งเป็น	-7.67265
พัฒนา	-7.67303
ทีม	-7.67389
โรงเรียน	-7.67427
หลาย	-7.67522
ซา	-7.67704
in	-7.68096
▁18	-7.68272
ข	-7.6836
▁10	-7.69081
ก่อน	-7.70477
C	-7.70507
ลูก	-7.70948
ส่วน	-7.71211
เวลา	-7.72454
r	-7.72575
ชั้น	-7.72593
ฝ่าย	-7.72763
เน	-7.72836
ดังกล่าว	-7.72842
c	-7.72942
▁จึง	-7.73291
ที	-7.73597
การศึกษา	-7.73627
M	-7.73657
▁8	-7.74075
เธอ	-7.74104
อาหาร	-7.74159
กําลัง	-7.74187
เซ	-7.74203
โน	-7.74424
ตั้ง	-7.7444
l	-7.74469
▁เพราะ	-7.75019
T	-7.75245
เดิม	-7.75258
ชิ	-7.75899
▁2560	-7.75925
นี	-7.76078
เด็ก	-7.7619
นัก	-7.76423
พิ	-7.766
ทหาร	-7.77221
รูป	-7.77277
ติ	-7.77696
ภาษา	-7.78197
โค	-7.78211
เปิด	-7.78385
ข้อมูล	-7.78417
สาย	-7.78529
กระ	-7.78596
รัฐบาล	-7.78765
ประชาชน	-7.78903
มัน	-7.78948
ละ	-7.79029
โครงการ	-7.79095
บาง	-7.79124
โม	-7.79348
จิ	-7.7937
▁โดยมี	-7.79425
ขอ	-7.79481
เริ่ม	-7.79786
.</	-7.79818
i	-7.79833
จํานวน	-7.80509
E	-7.80994
▁เขา	-7.81134
พา	-7.81202
เครื่อง	-7.81287
โต	-7.81436
▁นาย	-7.8186
รัก	-7.8187
สาร	-7.81879
เมื่อวันที่	-7.82074
ร่วม	-7.82488
▁ทําให้	-7.82488
ต์	-7.828
ค่า	-7.83361
แก่	-7.83402
an	-7.83426
ชีวิต	-7.83457
ชุด	-7.83469
f	-7.83516
บา	-7.83656
อัน	-7.83715
ระ	-7.84018
รัฐ	-7.84027
กิ	-7.84197
เล่น	-7.84243
แม่	-7.8428
ภาค	-7.84705
(	-7.84739
d	-7.85129
เพียง	-7.85257
รถ	-7.86221
มหาวิทยาลัย	-7.86275
▁9	-7.8661
or	-7.867
▁:	-7.86764
...	-7.86938
มือ	-7.87033
พล	-7.87075
▁ประเทศ	-7.87196
เรียก	-7.87496
เรือ	-7.87548
ธรรม	-7.88155
ทอง	-7.88651
มีการ	-7.88667
อาจ	-7.88746
เจ้า	-7.88784
▁P	-7.89019
D	-7.89359
จีน	-7.89412
เสีย	-7.89679
โด	-7.89794
ประ	-7.89826
บริเวณ	-7.90106
พระองค์	-7.90218
โล	-7.90473
เรียน	-7.91005
คณะ	-7.91254
p	-7.91314
เด	-7.91417
ing	-7.91744
สัตว์	-7.9175
ต้น	-7.91938
ตําแหน่ง	-7.91965
เกี่ยวกับ	-7.92485
▁จังหวัด	-7.92843
พิเศษ	-7.93572
ภายใน	-7.93665
▁ได้แก่	-7.9375
เข้ามา	-7.94126
ให้กับ	-7.9417
ชาติ	-7.94417
ชัย	-7.94523
เห็น	-7.94945
่ง	-7.94957
ทํางาน	-7.95076
บี	-7.95278
รายการ	-7.95739
พบ	-7.95764
B	-7.95895
u	-7.96783
สาม	-7.9714
▁15	-7.97184
กลับ	-7.97234
เก	-7.97266
ที่สุด	-7.97524
สม	-7.97732
ตั้งแต่	-7.97909
เว	-7.98295
ซิ	-7.98319
เดียว	-7.9845
ได้รับการ	-7.98564
▁จาก	-7.9866
k	-7.98696
มากกว่า	-7.98847
▁M	-7.99284
▁B	-7.9943
ชาย	-7.99474
สําคัญ	-7.99558
▁ต่อมา	-8.00001
นิยม	-8.00122
ช่วย	-8.00439
▁C	-8.00784
▁20	-8.01021
▁12	-8.01046
ศึกษา	-8.01064
ภาพยนตร์	-8.01214
สงคราม	-8.01437
le	-8.01682
ไม่มี	-8.0184
แห่งชาติ	-8.02101
จะมี	-8.02187
▁of	-8.02309
ar	-8.02372
ออกมา	-8.02493
ของเขา	-8.02515
w	-8.02606
เบ	-8.02818
เลย	-8.032
กะ	-8.03516
ที่เป็น	-8.03555
m	-8.04175
เดียวกัน	-8.04268
ป่า	-8.04518
เอา	-8.04974
เพราะ	-8.05062
รอบ	-8.05473
บริษัท	-8.05744
น้อย	-8.05855
อังกฤษ	-8.05981
สุ	-8.06193
▁16	-8.06213
มีความ	-8.06248
▁ปัจจุบัน	-8.06372
ดิ	-8.06661
จริง	-8.06678
กําหนด	-8.06987
แทน	-8.07006
จุด	-8.07124
ชา	-8.0723
ิ	-8.07311
เหนือ	-8.07351
ไม้	-8.07399
วี	-8.07664
เขต	-8.07761
รุ	-8.07808
▁เนื่องจาก	-8.08119
ยาว	-8.08638
▁A	-8.08742
เขียน	-8.0877
en	-8.08997
นาง	-8.09011
สู่	-8.09111
ครู	-8.09166
ั	-8.09412
ดาว	-8.09461
แยก	-8.0953
เพิ่ม	-8.0968
คู่	-8.09707
on	-8.09713
กฎหมาย	-8.09956
เช่น	-8.10024
สังคม	-8.1004
แนว	-8.10075
ข้อ	-8.10079
▁G	-8.10315
เจ	-8.10523
วันที่	-8.10688
ใต้	-8.10758
ทา	-8.11095
มหา	-8.11109
เท่านั้น	-8.11444
ซ์	-8.11457
ไอ	-8.1149
โรค	-8.11559
ใบ	-8.11577
L	-8.11592
เอง	-8.11623
อิ	-8.1185
I	-8.11875
ประกาศ	-8.12119
กร	-8.12335
อี	-8.12492
น์	-8.12812
ผลิต	-8.12838
สิ่ง	-8.12927
องค์	-8.13015
ตะ	-8.13047
หัว	-8.13069
00	-8.13129
อํานาจ	-8.13305
หนังสือ	-8.13325
b	-8.1352
ใด	-8.13558
O	-8.13607
ชน	-8.13696
มะ	-8.13718
การพัฒนา	-8.1375
เรา	-8.13798
การแข่งขัน	-8.13839
R	-8.14021
ทะเล	-8.14164
คิด	-8.14467
go	-8.14752
ช่วง	-8.14755
โซ	-8.14929
อุตสาหกรรม	-8.14953
หญิง	-8.15158
กรม	-8.15415
เกม	-8.15608
▁H	-8.15622
ปัจจุบัน	-8.15677
ในช่วง	-8.15876
โท	-8.16275
ประเภท	-8.16514
ปัญหา	-8.16811
ปา	-8.16957
ณ	-8.17151
ต่อไป	-8.17358
ปลา	-8.17409
กิน	-8.17554
ญี่ปุ่น	-8.17712
เต	-8.17832
เค	-8.17834
เอก	-8.18082
www	-8.18159
ติด	-8.18291
▁17	-8.18382
▁สําหรับ	-8.1872
ตี	-8.18906
หลวง	-8.19005
เส้น	-8.19226
ศรี	-8.19283
▁11	-8.19337
สัน	-8.19361
อําเภอ	-8.19516
'	-8.19533
▁L	-8.19537
อายุ	-8.19547
▁14	-8.19548
รักษา	-8.19616
ฉ	-8.19872
ถนน	-8.20269
ยู	-8.20378
เกาะ	-8.20577
จากการ	-8.20702
H	-8.20804
ญ	-8.21026
เฟ	-8.21029
กระทรวง	-8.21144
เหมือน	-8.22003
เชิง	-8.22184
ชุมชน	-8.22189
ch	-8.22978
1	-8.23
▁สิงหาคม	-8.23015
▁F	-8.23061
บุคคล	-8.23249
วาง	-8.23718
เล็ก	-8.2385
2	-8.24104
▁13	-8.24596
F	-8.24759
กุ	-8.24795
จะต้อง	-8.24817
ประเทศไทย	-8.24827
at	-8.25
รูปแบบ	-8.2502
ทําเนียบรัฐบาล	-8.25146
พืช	-8.25749
▁นอกจากนี้	-8.25808
โย	-8.25849
ประกอบ	-8.25876
คณะกรรมการ	-8.26174
รุ่น	-8.26276
▁เป็นต้น	-8.26448
▁ตุลาคม	-8.26574
▁23	-8.2672
ศาสตร์	-8.26738
เท	-8.26793
แสง	-8.26858
วงศ์	-8.27054
G	-8.27163
เคย	-8.27412
เศรษฐกิจ	-8.27548
▁D	-8.2784
ท่าน	-8.27856
▁มีนาคม	-8.2786
ในวันที่	-8.27874
ขนาด	-8.27917
g	-8.27921
มนุษย์	-8.27942
▁the	-8.2795
▁ผู้	-8.28124
นายกรัฐมนตรี	-8.2818
เป็นผู้	-8.28182
ed	-8.2859
ขาย	-8.28696
เป	-8.28716
สมาชิก	-8.28847
อุ	-8.28934
://	-8.29177
N	-8.29348
is	-8.29607
us	-8.29663
ไฟ	-8.29853
▁จน	-8.29907
ทั้งสอง	-8.30113
นอก	-8.30211
ยุค	-8.30274
▁–	-8.30304
ราย	-8.30306
ที่ใช้	-8.30391
h	-8.30441
it	-8.30731
▁เมษายน	-8.30836
▁http	-8.30875
พันธุ์	-8.3097
▁รวมทั้ง	-8.31109
ลู	-8.31536
ตอน	-8.31828
▁E	-8.31913
▁กุมภาพันธ์	-8.31998
ศูนย์	-8.31998
ปาก	-8.32003
ดิน	-8.32055
ส่วนใหญ่	-8.32137
▁อําเภอ	-8.32166
พอ	-8.32245
โบ	-8.32432
แดง	-8.32494
เข้าร่วม	-8.32601
การใช้	-8.3275
ทั่วไป	-8.32799
เฉพาะ	-8.32854
อยู่ที่	-8.32951
▁กันยายน	-8.32959
หน่วยงาน	-8.33301
▁พฤษภาคม	-8.33662
ก็ได้	-8.33858
มัก	-8.33871
▁กรกฎาคม	-8.33987
ดําเนินการ	-8.34025
ฐาน	-8.3408
พี	-8.34126
ไปยัง	-8.34147
ษ	-8.34238
▁เมื่อวันที่	-8.34252
re	-8.34296
เปลี่ยน	-8.34393
เก็บ	-8.34521
กลายเป็น	-8.34538
ตลาด	-8.34547
ข้าง	-8.3469
▁ที่มา	-8.34787
ยก	-8.348
▁ธันวาคม	-8.3499
คอ	-8.35029
ลํา	-8.35083
สิทธิ	-8.35215
อื่นๆ	-8.35266
กลับมา	-8.35444
เห	-8.35611
นคร	-8.3573
อันดับ	-8.35846
ชนิด	-8.35876
นะ	-8.35926
ลด	-8.36011
สุด	-8.36362
กอง	-8.36408
เลือก	-8.36495
พูด	-8.36523
หน่วย	-8.36541
ตัน	-8.36897
สนับสนุน	-8.36934
▁มกราคม	-8.36965
news	-8.37128
ออกจาก	-8.37143
ตน	-8.37365
อีกครั้ง	-8.37457
พร้อม	-8.37475
อัลบั้ม	-8.37484
พรรค	-8.37919
สมเด็จพระ	-8.37927
รอ	-8.3867
ครอบครัว	-8.38873
แม่น้ํา	-8.38901
จี	-8.38925
พวก	-8.38963
สาว	-8.38978
กีฬา	-8.39361
เกิดขึ้น	-8.39562
0	-8.39698
▁แล้ว	-8.39794
เลี้ยง	-8.39977
ยอด	-8.39978
ตาย	-8.40013
เดิน	-8.40244
ราว	-8.40412
่า	-8.40425
รู้	-8.40593
เสียชีวิต	-8.40734
▁แห่ง	-8.40793
อะไร	-8.40828
ทิ	-8.40942
น่า	-8.40945
สูงสุด	-8.41025
สมัย	-8.41091
บท	-8.41248
สี่	-8.4126
ตรง	-8.41355
พระเจ้า	-8.4138
พระราช	-8.41449
อาคาร	-8.41513
สวน	-8.41655
ตก	-8.41686
สภา	-8.41754
▁รัฐบาลไทย	-8.41838
ตรา	-8.41938
ไซ	-8.42085
รู	-8.42231
กรรม	-8.42269
เตอร์	-8.42276
ผม	-8.42344
ข้าว	-8.42475
ถ	-8.42546
▁และมี	-8.42595
เช	-8.42615
พร	-8.42637
▁พฤศจิกายน	-8.42843
▁W	-8.42939
เรียกว่า	-8.43084
ท่า	-8.43144
นักเรียน	-8.43162
อากาศ	-8.43178
ตัด	-8.43219
นโยบาย	-8.43425
thaigo	-8.43559
กองทัพ	-8.43684
ท์	-8.43693
ผลงาน	-8.43873
ของประเทศ	-8.43933
ี	-8.4402
details	-8.44037
contents	-8.44138
–	-8.44176
เนื้อ	-8.44194
อิน	-8.44403
ฝรั่งเศส	-8.44407
จา	-8.44434
ตลอด	-8.44664
จะเป็น	-8.44717
นก	-8.44753
el	-8.44827
▁มิถุนายน	-8.44861
สนาม	-8.44926
เป็นการ	-8.45229
เหล่านี้	-8.45388
แมน	-8.45555
บริการ	-8.45569
ขึ้นมา	-8.45608
เต็ม	-8.45681
อ่อน	-8.45845
แค	-8.45896
เทพ	-8.46193
▁ก็	-8.46214
พ่อ	-8.46395
พัน	-8.46519
สา	-8.46564
เย	-8.46599
ซู	-8.46855
▁จํานวน	-8.46896
ur	-8.4712
คืน	-8.47159
ศักดิ์	-8.47263
▁ทั้งนี้	-8.47297
ห้อง	-8.47389
ปลาย	-8.47401
เดือน	-8.4749
▁มหาวิทยาลัย	-8.4756
เหตุการณ์	-8.47584
วน	-8.47628
้อ	-8.47701
แผน	-8.4772
คง	-8.47816
นี่	-8.47899
ออกอากาศ	-8.47994
ห์	-8.48006
แก้ว	-8.48205
ออกไป	-8.4824
สภาพ	-8.48336
▁เธอ	-8.48699
ใส่	-8.48765
ตํารวจ	-8.48891
▁จะ	-8.49083
เอส	-8.49146
ไร	-8.49289
▁30	-8.4929
บอก	-8.49292
ร่าง	-8.49295
คะแนน	-8.49319
ไท	-8.49436
วิทยา	-8.49493
สกุล	-8.49501
อีกด้วย	-8.49844
ra	-8.50012
สินค้า	-8.50128
หิน	-8.50348
รอง	-8.50358
ต่อมา	-8.50662
เอเชีย	-8.50784
ร้อง	-8.50936
▁ตาม	-8.50958
ic	-8.51238
พระบาทสมเด็จพระ	-8.51286
อะ	-8.51335
เจ้าหน้าที่	-8.51361
สืบ	-8.515
ควบคุม	-8.51659
บุ	-8.51783
ในประเทศไทย	-8.51908
ฉบับ	-8.51923
▁ถึง	-8.51947
▁N	-8.51948
ตร	-8.52042
ฮิ	-8.52156
สถาบัน	-8.52296
แรง	-8.52481
ลีก	-8.52584
อาชีพ	-8.52689
ยังคง	-8.52796
ธุรกิจ	-8.52837
▁21	-8.52908
เฮ	-8.5292
ร่วมกัน	-8.52931
▁25	-8.52973
จู	-8.52974
ภ	-8.53121
ปิด	-8.53168
มากขึ้น	-8.53182
ครั้งแรก	-8.53246
จับ	-8.53272
กล่าว	-8.53418
เทคโนโลยี	-8.53425
ลักษณะ	-8.53463
แต่ละ	-8.53548
ใคร	-8.53671
ดํารงตําแหน่ง	-8.53716
▁หลังจาก	-8.53824
ือ	-8.53839
ไม่สามารถ	-8.53894
เส	-8.54108
ครั้ง	-8.54293
การแสดง	-8.54311
▁T	-8.54521
ดูแล	-8.54527
กรุง	-8.54561
สํานักงาน	-8.54675
โจ	-8.5486
▁ดังนั้น	-8.54976
สโมสร	-8.5501
จิต	-8.55053
ไฟฟ้า	-8.55098
ดนตรี	-8.55286
ีย	-8.55346
พิจารณา	-8.55363
ส่งเสริม	-8.55364
แอ	-8.55392
เจริญ	-8.55431
ฮา	-8.55477
้า	-8.55529
ในพื้นที่	-8.55601
เข้าไป	-8.55725
ลาย	-8.55763
ราคา	-8.56199
ศาล	-8.56263
ขา	-8.56301
ถือ	-8.56321
๋	-8.56376
▁ทั้ง	-8.56545
4	-8.56776
มักจะ	-8.56889
แพทย์	-8.56925
ตะวันตก	-8.56977
ชอบ	-8.56979
▁2561	-8.57337
วิธี	-8.57812
แบ่ง	-8.57862
อักษร	-8.57876
กรณี	-8.58058
มุ	-8.58339
),	-8.58397
อาการ	-8.58435
ราชวงศ์	-8.58646
ท้องถิ่น	-8.58734
เพื่อน	-8.58945
ดําเนิน	-8.59178
ซื้อ	-8.59491
ให้เป็น	-8.59498
บิ	-8.5951
ation	-8.59543
เสนอ	-8.59705
ย่อย	-8.59719
▁K	-8.59811
▁(;	-8.59876
วิทยาศาสตร์	-8.59899
ไม่ใช่	-8.6007
▁พระ	-8.60079
et	-8.60322
เนื่องจาก	-8.60364
วัย	-8.60415
▁22	-8.60447
รางวัล	-8.60495
ฮ	-8.606
ขนาดใหญ่	-8.60845
ตําบล	-8.60896
ดํา	-8.609
ประกอบด้วย	-8.6095
ปิ	-8.61147
พิธี	-8.61258
สํานัก	-8.61445
▁เมตร	-8.61457
แต่ง	-8.61518
▁หาก	-8.61525
▁และเป็น	-8.61527
พลังงาน	-8.61533
หอ	-8.61946
ri	-8.62056
ช่อง	-8.62184
▁๑	-8.62279
es	-8.62347
มอบ	-8.62465
▁ถ้า	-8.62697
วัฒนธรรม	-8.62855
มอง	-8.62856
มาร์	-8.62877
การค้า	-8.62996
๊	-8.63124
▁เวลา	-8.63215
เหตุ	-8.6335
ยึด	-8.63569
ร่วมกับ	-8.63713
อาจจะ	-8.63788
ละคร	-8.63844
แซ	-8.63848
มากที่สุด	-8.63941
am	-8.63969
ที่สําคัญ	-8.64111
จบ	-8.64182
องค์กร	-8.64283
นับ	-8.64344
ก่อตั้ง	-8.64454
ขยาย	-8.64497
ลอ	-8.64675
ประโยชน์	-8.64849
ให้แก่	-8.65052
il	-8.65303
โรงพยาบาล	-8.65385
20	-8.65589
เลือด	-8.65662
นาม	-8.65705
นัด	-8.6575
การประชุม	-8.65753
ฉัน	-8.66006
สมาคม	-8.66068
ฟุตบอล	-8.66149
สุดท้าย	-8.66228
พิมพ์	-8.66441
สถาน	-8.66454
พลัง	-8.66466
▁จากนั้น	-8.66551
ผ	-8.66602
▁รวมถึง	-8.66645
ในปัจจุบัน	-8.66781
ราชการ	-8.66784
W	-8.66884
นาน	-8.66913
ดัง	-8.66941
ุ	-8.67037
▁ตําบล	-8.67074
▁๒	-8.67164
▁โรงเรียน	-8.67295
st	-8.67377
เก่า	-8.6745
50	-8.6763
วิชา	-8.67696
กระบวนการ	-8.67703
นักแสดง	-8.67727
บู	-8.6795
ฟา	-8.67962
เพ	-8.67969
กว้าง	-8.6799
ul	-8.68097
เวอร์	-8.68245
▁พร้อม	-8.68248
วร	-8.68274
")	-8.68307
คดี	-8.68501
ขาด	-8.68516
ว่าเป็น	-8.68547
โฮ	-8.68643
คุ	-8.68685
ol	-8.68742
เตรียม	-8.68842
ภา	-8.68897
สถานที่	-8.68945
พบว่า	-8.68961
กิจกรรม	-8.68979
▁วัน	-8.69052
ัล	-8.69109
ยะ	-8.69134
การเลือกตั้ง	-8.69192
แม	-8.69254
บุตร	-8.69507
การผลิต	-8.69519
มาตรฐาน	-8.69623
ตระกูล	-8.69718
▁อ	-8.69784
เข้าสู่	-8.69918
กี	-8.70031
ภูมิ	-8.70145
เส้นทาง	-8.70277
ร้อยละ	-8.70488
ตะวันออก	-8.70583
ัส	-8.70695
ด์	-8.70904
วิทยาลัย	-8.71101
▁ล้านบาท	-8.71422
อินเดีย	-8.71443
ฟิ	-8.71522
โพ	-8.71605
▁ครั้งที่	-8.71632
%	-8.71866
10	-8.72342
ธรรมชาติ	-8.72364
แผ่นดิน	-8.72565
โบราณ	-8.72597
คลอง	-8.72698
แบ	-8.72726
z	-8.72728
ในประเทศ	-8.72968
ปล่อย	-8.73132
พัก	-8.73159
;	-8.73267
หมด	-8.73289
ฺ	-8.7356
ความร่วมมือ	-8.73724
เซอร์	-8.73765
▁R	-8.73776
ล่า	-8.73858
ท้อง	-8.73994
นักร้อง	-8.73997
คําว่า	-8.74173
สหรัฐอเมริกา	-8.74235
พยายาม	-8.74413
เซลล์	-8.74594
ที่เกิดขึ้นใน	-8.74601
ทุกคน	-8.74897
V	-8.74969
จํา	-8.75047
▁วันที่	-8.75062
▁I	-8.75113
ต่ํา	-8.75278
กอ	-8.75288
บุญ	-8.75301
ต่างประเทศ	-8.75523
▁สามารถ	-8.75553
ศิลปะ	-8.75613
และการ	-8.75624
ขาว	-8.7568
▁โดยเฉพาะ	-8.75903
แ	-8.75912
ยิง	-8.76024
ฟ้า	-8.76036
ตัวเอง	-8.76116
ช่วยเหลือ	-8.76138
ศาสนา	-8.76171
คัน	-8.76182
หมายถึง	-8.76257
บริหาร	-8.76401
จักรพรรดิ	-8.7658
สาขา	-8.76812
วิน	-8.76822
วัง	-8.7685
ธนาคาร	-8.76867
3	-8.77089
ทางด้าน	-8.77126
ผ้า	-8.77213
ป้องกัน	-8.77231
ฮอ	-8.77262
หลักสูตร	-8.77271
ปกติ	-8.77363
กาย	-8.77368
ก์	-8.77511
ของเธอ	-8.7768
เอ็ม	-8.77807
กู	-8.77927
U	-8.78023
ยังไม่	-8.78096
ro	-8.78097
ก็คือ	-8.78141
สอน	-8.78145
ควร	-8.78155
ถ้า	-8.78164
ad	-8.78211
ัว	-8.78223
่น	-8.7845
▁เหตุการณ์	-8.78458
คนที่	-8.78642
สัญญา	-8.78801
นอน	-8.78868
ก็จะ	-8.78881
ชู	-8.78915
ไว	-8.79051
ศิลปิน	-8.79115
รอย	-8.79153
รัสเซีย	-8.79171
อาร์	-8.79184
อาศัย	-8.7923
็	-8.79307
ภาวะ	-8.7937
มากมาย	-8.79414
อดีต	-8.79442
▁เอ	-8.79562
คล้าย	-8.79679
เพิ่มขึ้น	-8.79781
ที่ถูก	-8.79932
ิน	-8.79946
บอ	-8.8
สะ	-8.80028
ปรากฏ	-8.80127
ชัน	-8.80151
ซึ่งเป็น	-8.80219
เมื่อปี	-8.80264
อง	-8.80299
as	-8.80305
ร่างกาย	-8.8036
ยิ่ง	-8.80407
รายงาน	-8.80444
K	-8.80506
ชนะ	-8.80765
ถวาย	-8.80881
▁ทรง	-8.81132
การปกครอง	-8.81388
ทําการ	-8.81511
ธง	-8.81628
โอกาส	-8.8185
คอน	-8.81875
ที่ไม่	-8.81891
▁และได้	-8.81962
ทุน	-8.81964
ผิด	-8.81988
ตัวละคร	-8.82102
ล์	-8.82213
ผู้ที่	-8.82233
ของการ	-8.82239
▁and	-8.82312
กุล	-8.82419
▁บริษัท	-8.82787
ดินแดน	-8.83012
บ้าง	-8.83037
▁เริ่ม	-8.83152
▁จ	-8.83171
ยุ	-8.83181
ออ	-8.83206
ความรู้	-8.8335
สิ	-8.83518
ยาก	-8.83558
กิจการ	-8.8367
ได้แก่	-8.83675
▁อย่างไรก็ตาม	-8.83687
ent	-8.83757
▁จํากัด	-8.83771
▁กลุ่ม	-8.83777
แข่งขัน	-8.83894
สุข	-8.83998
▁2559	-8.84043
สื่อ	-8.84064
ลิน	-8.84082
▁O	-8.8409
โป	-8.84111
เป้าหมาย	-8.8413
ระยะ	-8.84201
ดังนี้	-8.8446
บันทึก	-8.85017
ิก	-8.85211
องค์การ	-8.85273
▁กิโลเมตร	-8.85448
แจ้ง	-8.85657
ดอก	-8.85743
▁เมือง	-8.85748
กล	-8.85749
จัดตั้ง	-8.85751
งบประมาณ	-8.85904
พระราชทาน	-8.85916
id	-8.85969
te	-8.86147
เนีย	-8.86149
แหล่ง	-8.86337
▁J	-8.86402
เป็นหนึ่งใน	-8.86407
แนวทาง	-8.86414
ค่าย	-8.8652
สิบ	-8.86573
j	-8.8672
▁อดีต	-8.86817
เริ่มต้น	-8.86862
x	-8.8689
▁V	-8.86904
ac	-8.86981
ได	-8.8699
▁ด้วย	-8.86998
วัตถุ	-8.87077
เบอร์	-8.87222
แพ้	-8.87291
อัล	-8.87319
กําเนิด	-8.87344
คู	-8.87449
แรงงาน	-8.87478
ลม	-8.87565
สุขภาพ	-8.87601
้น	-8.87795
ในเรื่อง	-8.87806
บังคับ	-8.87869
um	-8.87872
แผ่น	-8.87964
โครงสร้าง	-8.88181
เสด็จ	-8.88186
อาณาจักร	-8.88197
ปฏิบัติ	-8.88197
ทอ	-8.88434
จะได้	-8.88568
อเมริกา	-8.88622
ในสมัย	-8.88745
สัปดาห์	-8.88832
เดินทาง	-8.88882
เจ้าอยู่หัว	-8.88902
ต้องการ	-8.89031
ปรับ	-8.89074
ระเบิด	-8.89194
แพ	-8.89228
คะ	-8.89245
ดวง	-8.89311
▁นายกรัฐมนตรี	-8.8946
สถานี	-8.89481
ว์	-8.89559
ที่สอง	-8.8992
นุ	-8.89929
ภาษาอังกฤษ	-8.89967
▁26	-8.89969
สมบูรณ์	-8.90037
พี่	-8.90178
▁เพื่อให้	-8.90273
ความเป็น	-8.90295
la	-8.90344
บิน	-8.90355
คุณภาพ	-8.90388
แล	-8.904
การสร้าง	-8.90469
พุทธ	-8.90523
ประตู	-8.90735
ครอง	-8.90791
เป็นคน	-8.90804
ปกครอง	-8.90924
ter	-8.90925
้ง	-8.90946
ยุโรป	-8.90959
หมู่บ้าน	-8.91084
เท่า	-8.91148
มีลักษณะ	-8.91153
ชี	-8.91176
▁อา	-8.91256
พื้น	-8.914
งค์	-8.91524
สั้น	-8.91527
ติดตาม	-8.91618
หลังจาก	-8.91734
om	-8.91833
ตั้งอยู่	-8.91853
มณฑล	-8.92028
ที่ได้	-8.92164
รถไฟ	-8.92211
คิ	-8.92225
ในระดับ	-8.92306
สนใจ	-8.9235
เย็น	-8.92385
60	-8.92441
▁เขต	-8.92493
อนุ	-8.92522
เพิ่มเติม	-8.92522
กระดูก	-8.926
ศึก	-8.92618
หาก	-8.9264
แอน	-8.92752
▁ในวันที่	-8.92809
ia	-8.9283
▁ซึ่งมี	-8.9285
ผู้หญิง	-8.92897
เล่า	-8.92917
สัญลักษณ์	-8.92926
▁27	-8.92977
▁บาท	-8.92983
กษัตริย์	-8.93026
ยังมี	-8.93097
▁ครั้ง	-8.93278
!	-8.93334
เดอร์	-8.93363
ัต	-8.93364
สหรัฐ	-8.93465
ในเขต	-8.93475
ตุ	-8.93517
▁นัก	-8.93579
ทําให้เกิด	-8.93628
อั	-8.93718
เพศ	-8.93754
ใกล้	-8.93802
▁0	-8.93823
อม	-8.94054
ซอ	-8.94062
หนึ่งใน	-8.94076
ราบ	-8.94085
ครั้งที่	-8.94193
ด้วยกัน	-8.94279
ตนเอง	-8.94396
พม่า	-8.94469
se	-8.94607
นั่ง	-8.94798
▁ความ	-8.94865
คี	-8.94894
15	-8.94943
ในฐานะ	-8.94983
อ่าน	-8.95213
ปริมาณ	-8.95237
ฟัง	-8.95302
ฝั่ง	-8.95332
กฎ	-8.95353
ออกแบบ	-8.95372
ir	-8.95402
โทรทัศน์	-8.95417
เน้น	-8.95425
อุปกรณ์	-8.95625
วิธีการ	-8.95788
อาวุธ	-8.96009
เปิดตัว	-8.96036
แชมป์	-8.96037
โ	-8.96061
อู	-8.96097
25	-8.96237
กล่าวว่า	-8.96249
อาจารย์	-8.9633
จง	-8.96584
ตรวจ	-8.96725
▁เดือน	-8.96782
บัตร	-8.9691
ชิ้น	-8.97071
ช่าง	-8.97162
เกร	-8.9739
ครั้งนี้	-8.9743
ไล	-8.97448
นํามา	-8.97496
▁ล้าน	-8.97602
30	-8.9769
จํากัด	-8.97722
ion	-8.97774
ปลูก	-8.97893
ก่อ	-8.9793
มู	-8.97956
แถบ	-8.97965
วะ	-8.98018
เซีย	-8.98093
ทั่วโลก	-8.98104
▁ดังนี้	-8.98139
คม	-8.98151
ประชุม	-8.98183
นักศึกษา	-8.98192
สภาผู้แทนราษฎร	-8.98266
ความสัมพันธ์	-8.98282
สมอง	-8.98311
ไหล	-8.98427
ขน	-8.9843
_	-8.98456
หัวหน้า	-8.98562
จํานวนมาก	-8.98964
▁The	-8.98975
แก	-8.99022
ผู้เล่น	-8.99099
▁ขณะที่	-8.99196
ิล	-8.99199
เพื่อให้	-8.99205
ู	-8.99219
ทําหน้าที่	-8.99415
ซุ	-8.99844
การทํา	-8.99866
สหราชอาณาจักร	-8.99885
ระทรวงศึกษาธิการ	-9.00139
ยาง	-9.00192
แห่งประเทศไทย	-9.00329
ma	-9.00376
▁รัฐ	-9.00486
ที่ดิน	-9.00512
อิตาลี	-9.00527
ทิ้ง	-9.00593
สถานการณ์	-9.00596
ทําลาย	-9.00651
ภัย	-9.00711
▁หลัง	-9.00734
๕	-9.00735
ร้อย	-9.00761
▁ภาษา	-9.00777
อก	-9.00924
็ง	-9.00927
เกือบ	-9.00933
ร้าย	-9.01012
ได้รับรางวัล	-9.01042
ทฤษฎี	-9.01047
▁28	-9.01082
ในยุค	-9.01148
เดอะ	-9.01175
แตก	-9.01182
9	-9.01317
การเมือง	-9.01513
หมอ	-9.01558
ประชากร	-9.01569
▁เกิดเมื่อวันที่	-9.0159
ไหน	-9.01691
ต่อต้าน	-9.01716
น้ํามัน	-9.01752
▁พระองค์	-9.01802
ชิง	-9.01812
The	-9.01821
เพชร	-9.01854
ม้า	-9.0187
กรุงเทพมหานคร	-9.02014
สึ	-9.02042
อธิบาย	-9.02043
แฟ	-9.0216
ได้มีการ	-9.02246
ผสม	-9.02369
ที่อยู่	-9.02417
สต์	-9.02447
เร็ว	-9.02449
เสมอ	-9.02456
แนวคิด	-9.02463
ระยะเวลา	-9.02514
ประสบความสําเร็จ	-9.02644
▁แต่ก็	-9.02662
นิว	-9.02674
ก็มี	-9.02711
ห้า	-9.02737
กระแส	-9.03016
เหลือ	-9.0307
ิต	-9.03209
หัวใจ	-9.03217
45	-9.03248
คลื่น	-9.03318
ลึก	-9.03366
ไฮ	-9.03453
ภู	-9.03575
ผู้นํา	-9.03591
โฟ	-9.03625
แข็ง	-9.03642
ot	-9.03666
หรือไม่	-9.03775
เชื่อว่า	-9.03788
สาธารณรัฐ	-9.03814
ประวัติศาสตร์	-9.04047
เอฟ	-9.04158
อย่างเป็นทางการ	-9.04244
ครึ่ง	-9.04254
สตรี	-9.04308
ผิว	-9.04523
ตรวจสอบ	-9.0458
การจัด	-9.04614
จะถูก	-9.04621
เรีย	-9.04678
การทํางาน	-9.04694
เครื่องบิน	-9.04724
เอ็น	-9.04758
ผลิตภัณฑ์	-9.04995
จําหน่าย	-9.04996
▁หลังจากนั้น	-9.05162
สิ่งที่	-9.05228
▁100	-9.05232
เผยแพร่	-9.05335
โห	-9.0541
ึ	-9.05546
▁วัด	-9.05547
19	-9.05604
ไต	-9.0571
▁พระเจ้า	-9.05731
ตรี	-9.0583
สยาม	-9.05847
คอมพิวเตอร์	-9.05941
▁29	-9.05997
ข้าม	-9.06
หาง	-9.06135
หู	-9.06139
ท้าย	-9.06152
รัง	-9.06188
ลิง	-9.06197
จนถึง	-9.0624
สเตอร์	-9.06395
▁2550	-9.0647
ด้วยการ	-9.06478
สมัคร	-9.06507
รัฐธรรมนูญ	-9.06637
บางส่วน	-9.06672
ลําดับ	-9.0686
แสน	-9.06939
ถ่าย	-9.07006
สังกัด	-9.07068
ทั้งสิ้น	-9.07111
ทู	-9.07145
ขั้น	-9.07158
ขนาดเล็ก	-9.07174
พระยา	-9.07229
พื้นฐาน	-9.07295
un	-9.07373
ปืน	-9.07549
ธาตุ	-9.07588
op	-9.07617
18	-9.07697
90	-9.0772
หนัก	-9.07876
สะพาน	-9.07877
ประธานาธิบดี	-9.0793
▁2554	-9.08118
ของตน	-9.08121
ได้ว่า	-9.08142
ในที่สุด	-9.08201
▁หมายถึง	-9.08236
โรง	-9.0824
เครือข่าย	-9.08302
▁ไม่	-9.08334
ไข่	-9.08358
๖	-9.08367
กล่าวถึง	-9.08434
คอย	-9.08462
12	-9.08468
ชาวไทย	-9.08519
สั่ง	-9.08699
ขุน	-9.08797
เข	-9.0882
งาม	-9.08855
ร้าน	-9.08982
ชม	-9.09063
ช้าง	-9.09177
แก้	-9.09216
ไกล	-9.09226
รายได้	-9.09381
หลักฐาน	-9.09383
หยุด	-9.0963
หนัง	-9.09729
รบ	-9.09887
รัตน์	-9.09898
▁ในขณะที่	-9.0991
ย้าย	-9.10015
สัก	-9.10079
โปร	-9.1012
ฆ่า	-9.1017
ซะ	-9.10224
เชียงใหม่	-9.10328
ยังเป็น	-9.10364
ปรา	-9.10369
นําไป	-9.1042
ทางการเมือง	-9.10516
▁จนกระทั่ง	-9.10526
▁ชื่อ	-9.10547
",	-9.10598
▁2551	-9.10704
ne	-9.10712
เกียรติ	-9.10832
เกษตร	-9.10861
หลากหลาย	-9.10872
ี้ย	-9.10977
เป็นสมาชิก	-9.11065
▁กล่าว	-9.11085
ฏ	-9.11175
ริน	-9.11259
เมีย	-9.11456
os	-9.11496
ข้าราชการ	-9.11538
๐	-9.11632
mo	-9.11708
แก้ไข	-9.11757
ชั่น	-9.11769
เกอร์	-9.11781
▁ประกอบด้วย	-9.11843
ร้อน	-9.11947
กรรมการ	-9.12387
ผู้ป่วย	-9.12546
เร่ง	-9.12572
ph	-9.12654
ขอให้	-9.1271
5	-9.12742
▁ตั้งแต่	-9.12813
ื่อ	-9.12851
▁อาทิ	-9.12855
ฤดูกาล	-9.12887
สรุป	-9.12937
li	-9.12954
ุ่ม	-9.12997
ฌ	-9.13053
นี้เป็น	-9.13166
11	-9.13196
ปรับปรุง	-9.13261
หวัง	-9.13308
มาเป็น	-9.13351
หล่อน	-9.13363
ไม	-9.13448
▁เพลง	-9.13504
๑	-9.13608
โกะ	-9.13618
▁ในช่วง	-9.13641
๒	-9.1369
โช	-9.1384
๊ก	-9.13865
เห็นว่า	-9.13912
ถือเป็น	-9.13968
ก่อสร้าง	-9.14026
แฟน	-9.14038
ซาน	-9.1407
อย่างไร	-9.14143
35	-9.14288
รส	-9.14553
เวียดนาม	-9.14578
ซิงเกิล	-9.14645
▁พล	-9.14808
เหล่า	-9.14831
เข้าใจ	-9.14916
ut	-9.14941
หมายเลข	-9.14944
▁สมเด็จพระ	-9.14996
เนื่อง	-9.15116
ของโลก	-9.15127
ภาษี	-9.15152
สากล	-9.15251
เลีย	-9.15261
การ์ตูน	-9.15292
ฟี	-9.15448
16	-9.15472
เรียง	-9.15547
ปฏิบัติการ	-9.15566
ภาพยนตร์เรื่อง	-9.15693
จะไม่	-9.15799
ที่ผ่านมา	-9.1586
me	-9.15934
▁คณะ	-9.16005
ระบุ	-9.16018
สโมสรฟุตบอล	-9.16221
จัดขึ้น	-9.16237
ศิริ	-9.16264
ลงไป	-9.16281
ตู	-9.16393
ปราสาท	-9.16414
เช่นกัน	-9.16523
40	-9.16528
สิทธิ์	-9.16537
เยาวชน	-9.16641
▁2549	-9.16661
โนะ	-9.16689
ลาว	-9.16726
สิน	-9.1673
ยืน	-9.16755
แฮ	-9.16774
ทันที	-9.16798
กัมพูชา	-9.16798
▁สาขา	-9.17036
▁ท่าน	-9.17177
คําสั่ง	-9.1722
ราก	-9.17367
ยาน	-9.17523
เกษตรกร	-9.17596
สําเร็จ	-9.17632
ขวา	-9.17672
โดยทั่วไป	-9.17689
ภูมิภาค	-9.17754
และมี	-9.17764
เป็นครั้งแรก	-9.17781
▁ตั้งอยู่	-9.17828
17	-9.17978
นั่น	-9.17997
ที่เมือง	-9.18056
ที่ดี	-9.18122
▁2553	-9.18157
ของพระองค์	-9.18177
พงษ์	-9.18182
]]	-9.18282
โอลิมปิกฤดูร้อน	-9.18402
ทาน	-9.18507
ตั้งแต่ปี	-9.18564
วาด	-9.1865
เดี่ยว	-9.1868
ความคิด	-9.18766
๔	-9.18788
▁in	-9.1883
เสริม	-9.1887
ประชาธิปไตย	-9.18882
รู้จัก	-9.18887
เสา	-9.18954
หนอง	-9.1897
แน	-9.19081
หมู่	-9.19193
จึงได้	-9.19229
ประเด็น	-9.19252
สอบ	-9.19306
ve	-9.19332
เหตุผล	-9.19378
ปริ	-9.194
การดําเนินงาน	-9.19471
▁b	-9.19477
พวกเขา	-9.19482
.5	-9.19505
im	-9.19516
เกิน	-9.19521
ราชอาณาจักร	-9.19603
▁c	-9.19623
ine	-9.1978
โทษ	-9.19789
หนุ่ม	-9.1979
ชี้	-9.19838
วิจัย	-9.1987
สีขาว	-9.19926
ลําตัว	-9.19928
กรุงเทพฯ	-9.19936
ate	-9.20026
ตอบ	-9.2008
คนแรก	-9.20092
ทราบ	-9.20326
อัตรา	-9.20376
ชื่อว่า	-9.20384
▁กล่าวว่า	-9.20436
สเปน	-9.20524
▁เรื่อง	-9.2053
ฟัน	-9.20549
เหรียญ	-9.2061
ขับเคลื่อน	-9.20674
แกน	-9.2068
พระมหากษัตริย์	-9.20738
็อก	-9.20755
มงคล	-9.20849
ด้วยความ	-9.20891
นู	-9.20922
ได้อย่าง	-9.20936
รอน	-9.2095
ได้ถูก	-9.20981
แค่	-9.20997
มีผลงาน	-9.21006
่อ	-9.21012
▁กรม	-9.21039
ภายใต้	-9.21043
เจอร์	-9.21163
คริสต์ศตวรรษที่	-9.2121
ลล์	-9.21249
ในเมือง	-9.21432
ห้าม	-9.21667
ธา	-9.21687
อิสระ	-9.21791
รร	-9.21808
ทีวี	-9.21809
ทัน	-9.21907
ยอ	-9.21918
ฮี	-9.21932
แปลง	-9.22108
หน้าที่	-9.22178
▁มีการ	-9.22185
มุม	-9.22228
จอม	-9.22229
๒๕	-9.22301
อุป	-9.22412
พิษ	-9.2245
เยอรมนี	-9.22477
คณะรัฐมนตรี	-9.22492
ภายหลัง	-9.22582
พระนาง	-9.22618
▁ด้าน	-9.22696
ชาวบ้าน	-9.22859
ของรัฐ	-9.2296
เชีย	-9.2297
นานาชาติ	-9.22973
ื้อ	-9.23016
ทัพ	-9.23046
ไร้	-9.23124
ยอมรับ	-9.23185
สิ้น	-9.23195
ก็ยัง	-9.23252
ในงาน	-9.23327
ซ้าย	-9.23332
แว	-9.23362
เลข	-9.2341
บางครั้ง	-9.23465
ทรัพย์	-9.23536
พระราชวัง	-9.23562
บิดา	-9.23567
ัก	-9.23625
ถิ่น	-9.23664
สเต	-9.23676
ในเวลา	-9.23678
แรกของ	-9.2368
ไม่เคย	-9.23717
▁ทีม	-9.23729
ประการ	-9.23733
ชิน	-9.23758
น้ําหนัก	-9.24074
ระหว่างประเทศ	-9.241
▁Ch	-9.24158
คนหนึ่ง	-9.24217
ออกเป็น	-9.2423
▁ราย	-9.24312
▁2555	-9.24323
ทั่ว	-9.24354
มวล	-9.24383
ตัวอย่าง	-9.244
ที่มีความ	-9.24436
ง่าย	-9.24473
ไชย	-9.24485
จิน	-9.24528
lo	-9.2453
24	-9.24587
▁และการ	-9.24588
ทางการ	-9.24616
ประธาน	-9.24634
เจอ	-9.24675
มาน	-9.24747
ชะ	-9.24834
กซ์	-9.24872
ly	-9.24903
จันทร์	-9.24923
▁31	-9.24934
มีผู้	-9.24943
รม	-9.25083
ทูต	-9.25087
ดํารง	-9.25089
น้อง	-9.25179
ยอดเยี่ยม	-9.25186
เยอรมัน	-9.25241
ริม	-9.2525
โตะ	-9.25285
จ่าย	-9.25317
▁to	-9.25323
ชัดเจน	-9.25343
ราม	-9.25395
ความรู้สึก	-9.25664
ฉาก	-9.25681
วิ่ง	-9.25802
ยุติธรรม	-9.25812
ไ	-9.25834
เลน	-9.25857
สาเหตุ	-9.25865
ยุทธ	-9.25967
รัชกาลที่	-9.25978
รัฐมนตรี	-9.2602
หาย	-9.26108
เล่ม	-9.26133
▁ปลา	-9.26442
ทีมชาติ	-9.26499
อุดม	-9.2651
ที่สามารถ	-9.26673
พระนาม	-9.26701
ทุ	-9.26732
บอล	-9.26742
ที่เกี่ยวข้อง	-9.26902
▁St	-9.26951
▁ดร	-9.26966
เกาหลี	-9.27018
ประสาท	-9.27023
ทั่วประเทศ	-9.27132
▁2557	-9.27223
เรน	-9.27237
เมอร์	-9.2724
ให้มี	-9.27294
จอ	-9.27306
กิจ	-9.27339
เซน	-9.27393
มอน	-9.27448
ลดลง	-9.27482
14	-9.27486
▁โอ	-9.27487
ถูกต้อง	-9.27627
ขวัญ	-9.27652
แคว้น	-9.27673
ตีพิมพ์	-9.27682
ผู้บริหาร	-9.2769
พร้อมกับ	-9.27722
ถาม	-9.27778
โดยการ	-9.27849
ขับ	-9.27941
ทะ	-9.27972
ใช้เป็น	-9.28134
ลบ	-9.28267
▁รอง	-9.28272
ความหมาย	-9.28347
ตัดสินใจ	-9.28355
ัญ	-9.28409
▁จัด	-9.28438
คนไทย	-9.28501
32	-9.28535
ปู	-9.28547
เหล็ก	-9.28577
รัตน	-9.28593
นิตยสาร	-9.28614
▁Re	-9.2864
็ก	-9.28649
กลับไป	-9.2871
ตัดสิน	-9.28766
เทศ	-9.28803
อารมณ์	-9.28915
ดุ	-9.28929
ธิ	-9.28943
มารดา	-9.28979
รัส	-9.29078
เวที	-9.29095
X	-9.29129
ให้บริการ	-9.2916
ฤ	-9.29202
เบา	-9.29215
▁อิ	-9.29284
โปรแกรม	-9.29325
บัณฑิต	-9.2941
ดอน	-9.29429
จักร	-9.29453
ประพันธ์	-9.29477
น้ําตาล	-9.29499
▁อัน	-9.29574
ศพ	-9.29578
หมาย	-9.29622
48	-9.29656
ในรูปแบบ	-9.29709
รู้สึก	-9.29816
ity	-9.29829
ที่เรียกว่า	-9.29846
แปล	-9.29911
รับรอง	-9.29922
ลักษณ์	-9.30148
สถาปนา	-9.30172
เจ้าของ	-9.30251
นด์	-9.30257
▁In	-9.3026
เรื่องนี้	-9.30349
แลนด์	-9.30385
ค่อนข้าง	-9.3039
จะใช้	-9.30397
art	-9.30429
▁2552	-9.30516
แต	-9.30574
แอล	-9.30622
เรื่องราว	-9.30626
ay	-9.30628
ลาน	-9.30637
จักรวรรดิ	-9.30735
-1	-9.30782
ของผู้	-9.30783
ในด้าน	-9.30807
คุ้มครอง	-9.30899
ขณะ	-9.30908
ha	-9.30912
▁2558	-9.30999
ซ้ํา	-9.3107
สัญญาณ	-9.31074
แท้	-9.31109
เสื้อ	-9.31296
อด	-9.31353
ปฐม	-9.31401
ย่อ	-9.31433
บทบาท	-9.31533
ก้าว	-9.31634
รัน	-9.31728
ท่าอากาศยาน	-9.31785
เชื้อ	-9.31822
อยาก	-9.31876
สถาปัตยกรรม	-9.31888
ag	-9.31904
ไว้ใน	-9.31956
ที่เกิดขึ้น	-9.31957
มูลค่า	-9.31959
อย่างมาก	-9.32001
เป็นส่วนหนึ่งของ	-9.32009
ไหม	-9.32066
▁ตลอดจน	-9.32136
บุก	-9.32181
ลับ	-9.32242
สระ	-9.32401
ฉาย	-9.32413
no	-9.32425
13	-9.32504
๓	-9.326
แท	-9.32605
การเกษตร	-9.32619
แต่งตั้ง	-9.3263
61	-9.3264
โดยเฉพาะ	-9.32694
▁รัฐมนตรีว่าการ	-9.32792
เป็นเวลา	-9.32839
การเปลี่ยนแปลง	-9.32886
แห่งนี้	-9.32949
กระทรวงมหาดไทย	-9.32961
▁เกิด	-9.3302
ล้าน	-9.33107
จะทําให้	-9.33243
กลิ่น	-9.33251
59	-9.33271
การรักษา	-9.33303
▁ผล	-9.33315
หนี้	-9.3334
ัช	-9.33367
ระเบียบ	-9.33386
ซิน	-9.33468
08	-9.3347
อุณหภูมิ	-9.33476
ในส่วน	-9.33484
▁จึงได้	-9.33497
J	-9.335
เชื่อม	-9.3355
ไปแล้ว	-9.33576
ry	-9.3365
ความเร็ว	-9.33733
ฮั	-9.3374
อน	-9.3379
all	-9.33858
เสร็จ	-9.33901
▁2012	-9.3395
บรรจุ	-9.3395
พี่น้อง	-9.33962
คอม	-9.34086
ความสามารถ	-9.34089
พุ	-9.34095
▁2556	-9.34218
บัว	-9.34223
มิติ	-9.34237
ในอดีต	-9.34263
เนอร์	-9.34281
พัง	-9.34304
ล่าง	-9.34359
▁ยัง	-9.344
ว่าจะ	-9.34486
ก็ไม่	-9.34535
di	-9.34565
▁"<	-9.34591
ในแต่ละ	-9.34599
▁ใช้	-9.34643
๙	-9.34747
และความ	-9.34752
ยาย	-9.34798
ปอ	-9.34931
28	-9.35009
ของรัฐบาล	-9.35164
เป็นที่รู้จัก	-9.35177
▁มิ	-9.35261
พนักงาน	-9.35277
ต่อเนื่อง	-9.35314
โว	-9.35496
co	-9.35537
อย่างต่อเนื่อง	-9.35573
ร้องเพลง	-9.35674
มาแล้ว	-9.35689
6	-9.35769
เปลี่ยนแปลง	-9.35837
ment	-9.35854
ยื่น	-9.35895
กระทํา	-9.35897
รถยนต์	-9.35965
จุ	-9.35969
ภาคใต้	-9.35977
เลขาธิการ	-9.36014
คาร์	-9.36024
็น	-9.3605
กลม	-9.3609
ฐ	-9.36098
ยง	-9.36105
ประกัน	-9.36212
ตาราง	-9.3622
สาธารณะ	-9.36233
36	-9.36439
ความมั่นคง	-9.36582
สติ	-9.36596
ตกลง	-9.36601
ฟู	-9.36606
รวมทั้ง	-9.36606
มาตรการ	-9.36641
to	-9.3667
สิ่งแวดล้อม	-9.36712
สีแดง	-9.36786
ซิล	-9.36789
โจมตี	-9.36793
หนู	-9.36794
เทคนิค	-9.368
ลาก	-9.36835
ศาสตราจารย์	-9.36917
▁เซนติเมตร	-9.36963
▁และยัง	-9.36967
ช้า	-9.37032
ยศ	-9.37045
หนา	-9.37141
▁60	-9.37142
มาตรา	-9.37204
ซัน	-9.37278
น้อยกว่า	-9.37453
ก็ตาม	-9.37461
ell	-9.37463
สด	-9.37477
รวบรวม	-9.3748
โทร	-9.37516
ฝึก	-9.37528
▁2010	-9.37545
นิติ	-9.37574
พันธมิตร	-9.37625
ธิดา	-9.37704
ค์	-9.37777
ไม่เกิน	-9.37786
▁("	-9.37839
▁f	-9.37865
สร้างขึ้น	-9.38002
ไก่	-9.38023
นส์	-9.38058
ที่ได้รับ	-9.38074
อเมริกัน	-9.38078
80	-9.38224
and	-9.38271
ที่มีชื่อเสียง	-9.38296
หลง	-9.38298
เป็นนัก	-9.38337
ภารกิจ	-9.3835
น่าจะ	-9.38448
ใช้เวลา	-9.38469
ทร	-9.38538
ผู้ประกอบการ	-9.38561
ard	-9.38582
▁ชั้น	-9.38629
แช	-9.38633
วย	-9.38648
เคมี	-9.38649
หารือ	-9.38674
รอด	-9.38715
๘	-9.38729
▁วันนี้	-9.38769
สําคัญของ	-9.38812
ขึ้นไป	-9.38851
เทอร์	-9.38866
สังเกต	-9.38919
ศิลป	-9.38948
▁2548	-9.38966
สูตร	-9.39044
กาล	-9.39155
ประชา	-9.39161
ครบ	-9.39217
แหลม	-9.39268
นี้มี	-9.39385
▁2017	-9.39464
ประสูติ	-9.39493
กํากับ	-9.39512
เป็นตัว	-9.39538
ัย	-9.39664
ไม่ให้	-9.39685
ภรรยา	-9.39708
ในการแข่งขัน	-9.39712
55	-9.39716
▁มัน	-9.39754
คอร์	-9.39767
ไบ	-9.39794
ส่วนตัว	-9.39805
กระจาย	-9.39834
ผี	-9.39952
ไน	-9.39961
นําเสนอ	-9.39989
รายละเอียด	-9.40035
เล็กน้อย	-9.40077
จัดการ	-9.40119
ตํานาน	-9.40123
ap	-9.40186
44	-9.40188
▁เรา	-9.40345
▁1.	-9.40358
กรอบ	-9.40406
ในวัน	-9.40449
เฉลี่ย	-9.40455
ในทาง	-9.40463
▁m	-9.40492
สวยงาม	-9.40538
33	-9.40544
ชีพ	-9.40545
▁รัฐบาล	-9.4057
ผู้แทน	-9.40603
ชนิดหนึ่ง	-9.40641
อย	-9.40647
65	-9.40657
ประวัติ	-9.40837
ติดต่อ	-9.40844
com	-9.40889
ยังได้	-9.41001
ของไทย	-9.4101
▁พลเอก	-9.41025
โดยใช้	-9.41035
เท่ากับ	-9.41062
วิทยุ	-9.41114
เป็นที่	-9.41127
▁เม	-9.41164
85	-9.413
ลุ	-9.41308
est	-9.41339
ึง	-9.41449
?	-9.41455
สู้	-9.41467
แห	-9.41491
▁2547	-9.41496
ร่า	-9.41545
ย่า	-9.41609
นิกาย	-9.41653
หนี	-9.41668
ประเพณี	-9.41671
▁อี	-9.41676
่ว	-9.41704
ประทับ	-9.41711
ตรงกับ	-9.41753
อยู่กับ	-9.41773
รวมถึง	-9.4179
ครีบ	-9.41831
อันดับที่	-9.41836
▁2008	-9.4186
ซีรีส์	-9.41867
สิริ	-9.41887
วอ	-9.41903
ตั้งแต่วันที่	-9.41906
เต้น	-9.4196
เดินทางไป	-9.42016
โปรด	-9.4205
เท้า	-9.42086
ill	-9.42091
ัท	-9.4214
ang	-9.42197
▁นาง	-9.42227
><	-9.4231
ล้ม	-9.42532
ลอย	-9.42535
ect	-9.42539
เนื้อหา	-9.42694
▁แม้ว่า	-9.42822
บั	-9.4288
บาท	-9.42887
ปุ	-9.42892
up	-9.42913
ปัญญา	-9.4292
มีผล	-9.42934
ของชาว	-9.42951
โฆษณา	-9.42976
อินโดนีเซีย	-9.42977
เจ้าชาย	-9.43018
▁ได้รับ	-9.43044
ต้นไม้	-9.43056
▁formula	-9.43126
เดียวกับ	-9.43149
เรือน	-9.43152
นท์	-9.43213
ครอบคลุม	-9.43299
ออสเตรเลีย	-9.43326
▁50	-9.43431
คร	-9.43515
ได้เป็น	-9.43637
โปรดเกล้าฯ	-9.43652
▁รวม	-9.43658
ล้อ	-9.43719
+	-9.43721
ที่เขา	-9.43724
สถานะ	-9.43774
41	-9.43831
ราง	-9.43832
▁2016	-9.43894
ขณะนี้	-9.44014
47	-9.44034
ตามลําดับ	-9.4415
เอกสาร	-9.4416
em	-9.44189
ce	-9.44387
75	-9.44387
ฤทธิ์	-9.44423
▁แม้	-9.44494
▁'	-9.44535
สุร	-9.44541
ผา	-9.44674
ตี้	-9.44751
ริก	-9.44785
เอกชน	-9.44862
แขวง	-9.44879
กลัว	-9.44887
มิได้	-9.4492
▁เจ	-9.44948
บทความ	-9.45026
ฝัน	-9.45084
71	-9.45158
ดอ	-9.45159
ab	-9.4516
สัม	-9.45262
สถิติ	-9.45295
เคน	-9.45369
ล้าง	-9.45376
บุรี	-9.45389
ครับ	-9.45422
▁นอกจาก	-9.45444
สวย	-9.45449
ขอบ	-9.45462
รํา	-9.45467
ai	-9.45487
ub	-9.455
สตาร์	-9.45506
ภาคตะวันออก	-9.45541
ขัด	-9.45584
เว็บไซต์	-9.45589
สวม	-9.45595
็ด	-9.45737
เฉ	-9.45743
ti	-9.45776
▁เดอะ	-9.458
รหัส	-9.45999
ig	-9.46027
57	-9.46081
เหมือนกัน	-9.46089
ฮาร์	-9.46111
นี้จะ	-9.46159
เชื่อมโยง	-9.46176
ที่ทํา	-9.46224
คิดว่า	-9.46244
▁พุทธศักราช	-9.46374
การต่อสู้	-9.46374
▁ชนิด	-9.46491
เลิก	-9.46519
อ้าง	-9.46557
ที่ตั้ง	-9.46566
๗	-9.46612
ของตนเอง	-9.46648
มหาชน	-9.46708
▁หลังจากที่	-9.46824
สัง	-9.46832
ระหว่างวันที่	-9.4684
39	-9.46862
22	-9.46866
ist	-9.46867
เป็นเรื่อง	-9.46871
▁พระองค์เจ้า	-9.46908
พันธ	-9.46925
หนึ่งของ	-9.46931
ลาด	-9.4695
ชาร์ต	-9.46981
ความรัก	-9.47005
เติบโต	-9.47031
การ์	-9.4707
ลงมา	-9.47082
sh	-9.47336
ไปสู่	-9.47367
เปิดเผย	-9.47387
ชก	-9.4741
ผัก	-9.47441
รัฐมนตรีว่าการ	-9.47472
หวาน	-9.47484
มิน	-9.47484
37	-9.4752
นม	-9.47557
ดร	-9.47614
ปัจจัย	-9.4762
ฐานะ	-9.47637
นัย	-9.47654
oc	-9.47678
อันตราย	-9.4775
อาศัยอยู่	-9.47832
โดยตรง	-9.4785
เลื่อน	-9.47862
▁2014	-9.48027
ทักษิณ	-9.48036
ในระบบ	-9.48072
79	-9.48089
ภาษาไทย	-9.48159
hi	-9.4816
38	-9.48163
ภายนอก	-9.48167
▁สังกัด	-9.4821
เพาะ	-9.48233
เผย	-9.48234
หญิงสาว	-9.48262
ไพ	-9.48289
ge	-9.48318
▁ระหว่างวันที่	-9.48332
สงบ	-9.48385
49	-9.48443
เอล	-9.48455
กําแพง	-9.48457
โรงแรม	-9.48485
เชิญ	-9.48525
ie	-9.48541
การลงทุน	-9.48589
▁สุ	-9.48605
▁2.	-9.48623
▁เข้าร่วมแข่งขัน	-9.48668
ผู้อํานวยการ	-9.48735
ขึ้นเป็น	-9.48744
เมล็ด	-9.48904
ต่อจาก	-9.48925
หนังสือพิมพ์	-9.48941
อพยพ	-9.49111
42	-9.49176
od	-9.49176
มุ่ง	-9.49219
▁U	-9.49259
ฆ	-9.49262
ฝาก	-9.49307
วิส	-9.49316
▁ตอน	-9.49337
มอ	-9.49359
ผู้คน	-9.49394
56	-9.4944
per	-9.49446
ชาวอเมริกัน	-9.49468
43	-9.49487
โส	-9.49568
อาเซียน	-9.49779
นอร์	-9.49796
บาร์	-9.4987
▁p	-9.49885
สุวรรณ	-9.49885
0%	-9.49903
ศิลป์	-9.49985
ภูเขา	-9.49994
กองทุน	-9.49997
เชื่อมต่อ	-9.50057
ปฏิเสธ	-9.50118
▁รายชื่อ	-9.5014
บัง	-9.50145
สร	-9.50151
ติก	-9.50157
เครื่องมือ	-9.50194
ในขณะนั้น	-9.50208
ในจังหวัด	-9.50213
ยกเว้น	-9.50237
มีชื่อเสียง	-9.50277
ฝัง	-9.50278
็อง	-9.50312
เหมือนกับ	-9.50336
นิก	-9.50359
มติ	-9.5045
ยอม	-9.5046
เปลือก	-9.50491
นักกีฬา	-9.5056
เวน	-9.50704
ไปด้วย	-9.50715
เสรี	-9.50729
ิ้ง	-9.50769
พรหม	-9.50847
ความจริง	-9.50863
ฎ	-9.50877
มีอายุ	-9.50878
สาขาวิชา	-9.50919
โรงงาน	-9.5097
งานวิจัย	-9.51034
การบริหาร	-9.51057
จัดทํา	-9.51078
เสือ	-9.51149
พระราชบัญญัติ	-9.51223
รักษ์	-9.51232
ความเข้าใจ	-9.51253
▁ภายใต้	-9.51253
สําเร็จการศึกษา	-9.51254
ทรัพยากร	-9.5128
สูงกว่า	-9.51283
หน	-9.51285
▁=	-9.51328
สร้างความ	-9.51364
อยู่บน	-9.51405
ของประชาชน	-9.51413
เช้า	-9.51421
ปฏิ	-9.51429
โดยไม่	-9.51527
นักบุญ	-9.51531
34	-9.51556
การประกวด	-9.51578
▁เ	-9.51618
หก	-9.51634
ถือว่า	-9.51669
ลอง	-9.51672
95	-9.51686
he	-9.51854
นต์	-9.51906
เชื่อ	-9.51961
ที่อยู่ใน	-9.51998
ลด์	-9.52014
กีฬาโอลิมปิกฤดู	-9.52018
ออฟ	-9.52094
ตอ	-9.52098
วู	-9.5213
ประเทศจีน	-9.52142
ปะ	-9.52176
อย่า	-9.52255
-2	-9.52378
.30	-9.52441
ค้นพบ	-9.52447
ระยะทาง	-9.52449
ฮัน	-9.52467
▁๓	-9.52492
วิชาการ	-9.52504
วาน	-9.52519
78	-9.52562
ทุ่ง	-9.52562
พฤติกรรม	-9.52674
▁เมื่อปี	-9.52681
ั่ง	-9.52701
▁สํานักงาน	-9.52704
▁สาย	-9.52714
่อน	-9.52778
77	-9.52823
ความเชื่อ	-9.52899
7	-9.52899
ย้ายไป	-9.52914
ทราย	-9.52981
ความเสียหาย	-9.52999
87	-9.53036
มาถึง	-9.53045
บริ	-9.5307
Y	-9.53119
ver	-9.53174
▁โค	-9.532
86	-9.5323
67	-9.53267
เบล	-9.53274
็ค	-9.53367
ในสังกัด	-9.53368
▁ขณะ	-9.53405
ออน	-9.53428
สํารวจ	-9.53442
na	-9.53471
วางแผน	-9.53479
รองรับ	-9.53492
สาน	-9.53632
ที่ประชุม	-9.53644
▁ไร่	-9.53658
ธี	-9.53661
58	-9.53698
มีประสิทธิภาพ	-9.53751
tion	-9.53782
พันธ์	-9.53802
เด่น	-9.53851
con	-9.53864
ในกลุ่ม	-9.5389
ดะ	-9.53895
▁40	-9.53958
52	-9.5398
เดช	-9.5399
ผู้มี	-9.54125
เทศกาล	-9.54205
▁โดยใช้	-9.54205
ท่อ	-9.5423
ญาติ	-9.54242
เซนต์	-9.54271
เอช	-9.5429
บอกว่า	-9.54439
ยุทธศาสตร์	-9.54609
54	-9.5465
ทั้งคู่	-9.54684
เจ้าหญิง	-9.54729
46	-9.54748
วอลเลย์บอล	-9.54805
วรรณ	-9.54869
ant	-9.54929
ต่อสู้	-9.54988
▁ชาว	-9.55023
เวท	-9.55033
กับการ	-9.55042
มิตร	-9.55063
อวกาศ	-9.55085
ขึ้นอยู่กับ	-9.55087
สามัญ	-9.55108
21	-9.55122
มีประชากร	-9.55135
สะสม	-9.55136
ที่ปรึกษา	-9.5515
อิทธิพล	-9.55189
เขาก็	-9.55243
เชื้อสาย	-9.55253
การจัดการ	-9.55289
ศัพท์	-9.5535
จุฬาลงกรณ์	-9.55391
ในชื่อ	-9.55408
▁ภายหลัง	-9.5541
ซูเปอร์	-9.55442
▁2015	-9.55485
tic	-9.55555
จ้าง	-9.55598
เบีย	-9.55601
53	-9.55607
เผา	-9.55613
ปรัชญา	-9.55647
ทับ	-9.55752
ow	-9.55768
ด้านการ	-9.55773
เจน	-9.558
ราชา	-9.55827
แห้ง	-9.55831
รวมกัน	-9.55856
▁นอกจากนั้น	-9.55881
คอนเสิร์ต	-9.559
กรุงเทพ	-9.56073
▁เขาได้	-9.56081
ฝน	-9.56097
ที่เคย	-9.56113
▁เจ้า	-9.56165
านนท์	-9.56176
พระราชโอรส	-9.56194
อร	-9.56194
ผู้ช่วย	-9.56269
มีขนาด	-9.56321
มูลนิธิ	-9.56381
เกล้าเจ้าอยู่หัว	-9.56435
▁ระหว่าง	-9.56447
▁ในการ	-9.56469
▁บริเวณ	-9.5659
ศักยภาพ	-9.56608
ซึ่งมี	-9.56641
ประสาน	-9.56647
ในบริเวณ	-9.56675
เดีย	-9.56697
ํา	-9.56796
โฆษก	-9.56806
อยุธยา	-9.56864
เหลือง	-9.56867
บัญชี	-9.56873
สํา	-9.5689
▁จนถึง	-9.56917
▁ซึ่งจะ	-9.56926
ฝีมือ	-9.5693
62	-9.56966
▁ได้มีการ	-9.56989
99	-9.57021
ผู้ใหญ่	-9.57117
เช่นนี้	-9.57125
ใช้งาน	-9.57151
ถอน	-9.57175
จําเป็น	-9.57186
ขบวน	-9.57233
แดน	-9.57237
▁ก่อน	-9.57243
กู้	-9.57365
ได้รับความนิยม	-9.57382
ลัทธิ	-9.57436
เป็นภาษา	-9.5745
เทียน	-9.57459
▁เป็นผู้	-9.57477
บุคลากร	-9.57493
ผู้ใช้	-9.57595
98	-9.57622
ลงนาม	-9.57631
ประดิษฐ์	-9.57636
รับประทาน	-9.57639
63	-9.57648
สีเขียว	-9.57664
66	-9.57668
ก็เป็น	-9.57695
ประสบการณ์	-9.57725
ออร์	-9.57792
ที่มา	-9.57866
แร่	-9.5796
กําหนดให้	-9.58012
81	-9.58046
หญ้า	-9.58068
การเรียนการสอน	-9.58083
▁สร้าง	-9.58128
อาทิตย์	-9.58173
▁ฯลฯ	-9.58241
ติดกับ	-9.58244
ศัตรู	-9.5827
ของประเทศไทย	-9.58273
▁ถนน	-9.58326
คุม	-9.58543
ปก	-9.58597
เปอร์	-9.58638
เจ้าฟ้า	-9.58654
ลุก	-9.58729
70	-9.58763
สีดํา	-9.58806
ปลัด	-9.5882
82	-9.58897
ดับ	-9.5891
ip	-9.58914
ินทร์	-9.58923
ผู้ชาย	-9.58951
สัมพันธ์	-9.58959
ภาครัฐ	-9.59026
สําหรับการ	-9.59036
ยิ้ม	-9.59053
บวก	-9.59078
ค่ะ	-9.59084
หลายคน	-9.59125
อิง	-9.5913
มีจํานวน	-9.59265
เซล	-9.59356
เฉียงเหนือ	-9.59405
พยาบาล	-9.59421
ติน	-9.59441
พรรณ	-9.59448
สว่าง	-9.59503
แปลก	-9.59504
83	-9.59611
บรรยาย	-9.59666
ธรรมดา	-9.59672
ร็อก	-9.59695
อภิ	-9.59724
23	-9.59726
ความสนใจ	-9.59837
ข้อความ	-9.60011
ของจังหวัด	-9.60021
โดน	-9.6006
69	-9.60087
ปีก	-9.60164
แรกที่	-9.60213
▁ต้อง	-9.60234
ลําดับที่	-9.60293
▁ประจําปี	-9.60338
ยุติ	-9.60378
ยกเลิก	-9.60429
วางจําหน่าย	-9.60536
มาก่อน	-9.6068
สัมผัส	-9.60697
▁สมัย	-9.60722
8	-9.60735
สูญเสีย	-9.60759
ดารา	-9.60768
73	-9.60774
แพร่	-9.60791
ไม่นาน	-9.60791
เขียว	-9.60817
ต่ํากว่า	-9.60845
ไตร	-9.6087
ัม	-9.60883
แนะนํา	-9.60885
หลักของ	-9.60933
อริ	-9.61058
ive	-9.61138
51	-9.61141
นครราชสีมา	-9.61142
ทัศน์	-9.61154
แบ่งออกเป็น	-9.61205
สิ้นสุด	-9.61268
แมลง	-9.61315
▁de	-9.6132
ทํานอง	-9.61351
นาค	-9.61358
ta	-9.61394
ex	-9.61427
เพล	-9.6152
▁2013	-9.61576
ภูมิพลอดุลยเดช	-9.61589
แปร	-9.61601
พาณิชย์	-9.61623
เตือน	-9.61679
ม่า	-9.61749
รับผิดชอบ	-9.61839
ก็ต้อง	-9.61849
แสดงความ	-9.61963
นวัตกรรม	-9.61977
▁สาธารณรัฐ	-9.62021
ยั่งยืน	-9.62023
เดอ	-9.62043
ล่าสุด	-9.62064
ปร	-9.62084
คนอื่น	-9.62088
แบ่งเป็น	-9.62119
วิล	-9.62154
่ํา	-9.62155
งา	-9.62185
คราว	-9.62204
พงศ์	-9.62249
สตา	-9.62277
▁อาร์	-9.6236
ในอนาคต	-9.62364
หลาน	-9.62365
โชว์	-9.62391
สังหาร	-9.6242
,2	-9.62444
มิส	-9.62471
ยุบ	-9.62477
ชิงแชมป์	-9.62501
คริส	-9.62543
64	-9.62683
05	-9.62705
กระตุ้น	-9.6273
ย่อม	-9.62746
กํา	-9.62766
เกณฑ์	-9.62858
ภพ	-9.62915
เอาไว้	-9.62923
ไค	-9.62927
อย่างรวดเร็ว	-9.6293
อียิปต์	-9.63063
ทรา	-9.63155
▁2006	-9.63191
ปฏิกิริยา	-9.63277
น้ําท่วม	-9.63293
01	-9.63308
89	-9.63387
สิ้นพระชนม์	-9.634
▁งาน	-9.63441
การท่องเที่ยว	-9.63445
แอร์	-9.63453
นี้ได้	-9.63454
เวียน	-9.63467
▁ระบบ	-9.63538
กรด	-9.63538
.1	-9.6362
pe	-9.63624
ผลกระทบ	-9.63654
หาร	-9.63661
▁[[	-9.63825
ยาม	-9.63843
ดี้	-9.63888
ฝา	-9.63891
กล้า	-9.63903
ัค	-9.63922
เป็นจํานวนมาก	-9.63923
เบน	-9.64069
กลไก	-9.64074
กองกําลัง	-9.6415
รุนแรง	-9.64219
โอะ	-9.64225
27	-9.64249
สิงห์	-9.64277
ผู้โดยสาร	-9.6432
รัฐสภา	-9.64323
ความปลอดภัย	-9.64348
หลักการ	-9.64373
วัสดุ	-9.64375
การก่อสร้าง	-9.6439
ที่ทําให้	-9.64411
กระทรวงยุติธรรม	-9.64456
ดอกไม้	-9.64535
เครื่องยนต์	-9.64559
26	-9.64576
ฟื้นฟู	-9.64626
74	-9.6464
▁2011	-9.64648
▁เค	-9.64667
รู้ว่า	-9.64675
ไม่เป็น	-9.64715
▁2009	-9.64756
ศาลา	-9.64765
ตั้งชื่อ	-9.64794
เจ้าพระยา	-9.64795
ers	-9.64811
มีค่า	-9.64854
กิ่ง	-9.64882
ความร้อน	-9.64907
▁ไม่มี	-9.64915
งู	-9.64962
เอาชนะ	-9.64971
ของตัวเอง	-9.64972
ขั้นตอน	-9.64977
เป็นปลา	-9.64992
=	-9.65015
จนกระทั่ง	-9.65035
ลัก	-9.6508
หอม	-9.65138
สิ่งมีชีวิต	-9.65144
เหมาะสม	-9.65191
๊อ	-9.65219
ไปถึง	-9.65222
ปรากฏตัว	-9.65232
เคลื่อนที่	-9.65279
ak	-9.65299
เลียน	-9.65322
รณ	-9.65336
ช์	-9.65342
de	-9.65381
เหล่านั้น	-9.65383
ประสงค์	-9.65522
บาน	-9.65567
po	-9.65609
ของคน	-9.65613
โอน	-9.6562
ตึก	-9.65729
่อง	-9.65759
ดั้งเดิม	-9.65766
ซึ	-9.65808
เป็นอันดับ	-9.65809
กาญจน	-9.6586
ไร่	-9.65911
กระทรวงสาธารณสุข	-9.66043
07	-9.66093
มอร์	-9.66115
▁ร่วมกับ	-9.66121
ยืนยัน	-9.66157
ทวีป	-9.66215
ความยาว	-9.66275
บะ	-9.66305
ในวงศ์	-9.66399
.2	-9.66413
คัพ	-9.66427
ั่น	-9.66498
สินเชื่อ	-9.66529
ใช้ชื่อ	-9.66551
ปั้น	-9.66554
แขน	-9.6657
โลหะ	-9.66572
ซิส	-9.66574
ภาคเหนือ	-9.66615
สมบัติ	-9.6665
บัน	-9.66677
02	-9.6669
สะท้อน	-9.66705
ผู้เป็น	-9.66757
ไล่	-9.66846
ส่วนหนึ่ง	-9.66846
สิงคโปร์	-9.66862
เมืองหลวง	-9.66865
ฟุ	-9.66883
▁อัล	-9.66894
ของกลุ่ม	-9.66898
one	-9.669
ซ้อน	-9.6693
เกี่ยวกับการ	-9.67022
ช่วยให้	-9.67063
ขัน	-9.67096
วงดนตรี	-9.67154
อนุมัติ	-9.6718
รี่	-9.67221
ที่ต้อง	-9.67335
ลงทุน	-9.67577
นับถือ	-9.67611
ให้เกิด	-9.67657
88	-9.67741
ขุด	-9.67779
รัม	-9.67797
▁พระบาทสมเด็จพระ	-9.67818
]	-9.6783
มีอํานาจ	-9.67941
เข้ม	-9.67966
คณิตศาสตร์	-9.67976
ในตําแหน่ง	-9.67984
ได้นํา	-9.68011
ดิจิทัล	-9.68039
เรียบร้อย	-9.68051
อัง	-9.68191
ยกระดับ	-9.68259
สุนทร	-9.68348
เมน	-9.68349
▁2007	-9.68394
ho	-9.6846
▁คา	-9.68468
-25	-9.6853
▁เคย	-9.68562
ทางหลวง	-9.68582
ครั้งแรกใน	-9.68594
านุ	-9.68612
้ว	-9.68629
แส	-9.68726
▁รางวัล	-9.68788
ไปตาม	-9.68848
เคยเป็น	-9.68863
สีเหลือง	-9.68866
เบิล	-9.68871
วันนี้	-9.68918
แน่นอน	-9.68919
▁ศูนย์	-9.68932
ประสบ	-9.68993
ประดับ	-9.69015
man	-9.69038
ตามที่	-9.69075
ย่าน	-9.69092
ight	-9.69106
พระราชพิธี	-9.69134
ทางเศรษฐกิจ	-9.69152
หมู่เกาะ	-9.69199
โชค	-9.69269
ประชาสัมพันธ์	-9.69297
เหลี่ยม	-9.69311
กันว่า	-9.69329
การบิน	-9.69362
09	-9.69367
อาณาเขต	-9.69381
000	-9.6941
เป็นรูป	-9.69416
ปวด	-9.69419
▁for	-9.69443
▁ลักษณะ	-9.69454
ติดตั้ง	-9.69513
ในนาม	-9.69609
ดาบ	-9.69638
จุลจอมเกล้า	-9.69642
ทอด	-9.69647
มาเลเซีย	-9.69663
ทศวรรษ	-9.69763
mp	-9.698
▁Y	-9.69829
ตะวันออกเฉียงใต้	-9.69866
ออสเตรีย	-9.69931
ออกฉาย	-9.69974
และพัฒนา	-9.69981
ในรอบ	-9.70001
บัญญัติ	-9.70006
เปล	-9.70252
ทางสังคม	-9.70266
our	-9.70277
ฟรี	-9.70278
นัน	-9.70294
จิตใจ	-9.70302
29	-9.70342
สอดคล้องกับ	-9.70348
96	-9.70413
โทรศัพท์	-9.70536
พิพิธภัณฑ์	-9.70549
ตั้งใจ	-9.70579
ดีขึ้น	-9.70585
เปีย	-9.70596
ทิศทาง	-9.70625
แห่งหนึ่ง	-9.70667
▁2535	-9.70684
ฮะ	-9.70693
▁(20	-9.70905
เทว	-9.70914
▁คําว่า	-9.70923
โคร	-9.70953
แข่ง	-9.71074
เดน	-9.7109
76	-9.71095
ass	-9.71099
กล้ามเนื้อ	-9.71172
▁ภายใน	-9.71183
ดอร์	-9.71214
ถือว่าเป็น	-9.71224
จะมีการ	-9.71245
พบได้	-9.71246
▁อําเภอเมือง	-9.71333
หลายครั้ง	-9.71353
▁จักรพรรดิ	-9.71367
การเล่น	-9.71391
ขนส่ง	-9.71391
หัก	-9.71408
เขาได้	-9.71451
วัฒน์	-9.7146
อัด	-9.71467
เวิร์	-9.71489
สร้างสรรค์	-9.71501
เกาหลีใต้	-9.71552
ล้วน	-9.71571
ance	-9.71644
คุณธรรม	-9.71684
กําจัด	-9.71715
เรียนรู้	-9.71718
องค์ประกอบ	-9.71771
▁2546	-9.7179
ทรัพย์สิน	-9.71807
พระที่นั่ง	-9.71859
สามารถใช้	-9.71922
ระบุว่า	-9.71925
การควบคุม	-9.71962
รังสี	-9.71972
ลูกค้า	-9.71982
ในสหรัฐอเมริกา	-9.72018
ื	-9.72038
▁นําแสดงโดย	-9.72064
ของวง	-9.7207
เกีย	-9.72078
ไม่รู้	-9.72097
มวย	-9.72162
บํารุง	-9.72163
มีบทบาท	-9.72223
97	-9.72244
ลงเล่น	-9.72281
ก้าน	-9.72296
เพลงนี้	-9.72305
92	-9.72446
เข็ม	-9.72462
พระองค์ทรง	-9.72477
มัส	-9.72504
▁ผม	-9.72554
ดังต่อไปนี้	-9.72588
ng	-9.72591
โรมัน	-9.72602
พบกับ	-9.7264
บูชา	-9.72671
ในรายการ	-9.72675
อัส	-9.72728
คล้ายกับ	-9.72795
ชี้แจง	-9.72829
ชุ	-9.72931
der	-9.72964
▁อาคาร	-9.72972
ว่าง	-9.72989
ิด	-9.73002
93	-9.73066
▁(19	-9.73204
▁(1	-9.7325
ขุนนาง	-9.73266
ฬ	-9.73302
เข้ากับ	-9.73312
ดัดแปลง	-9.73332
แถว	-9.73332
พระโอรส	-9.73351
คาด	-9.73369
▁ห้อง	-9.73372
มีส่วน	-9.73382
ปรมินทรมหา	-9.73399
การออกแบบ	-9.73453
เกิดการ	-9.73464
ที่น่า	-9.73477
ud	-9.73501
▁ในฐานะ	-9.73596
ซาร์	-9.73605
เกี่ยวข้องกับ	-9.73611
ก่อตั้งขึ้น	-9.73616
ประชารัฐ	-9.73629
▁ยู	-9.73693
สวรรค์	-9.73706
ide	-9.73726
บางคน	-9.73738
84	-9.73741
sp	-9.73771
าธิ	-9.73807
เจ็บ	-9.73861
มีโอกาส	-9.7389
มาตั้งแต่	-9.73914
ชําระ	-9.73929
ong	-9.73992
ทุกอย่าง	-9.73993
72	-9.7403
ลัน	-9.74079
มารี	-9.7409
กระทรวงการคลัง	-9.7413
การนํา	-9.74133
ศูนย์กลาง	-9.74137
วิศวกรรม	-9.74142
▁พร้อมกับ	-9.74192
วิจารณ์	-9.74233
ในโลก	-9.74268
ศิ	-9.7427
บูรณาการ	-9.74277
ทน	-9.74298
แล้วก็	-9.74304
โร่	-9.74347
ni	-9.74357
▁ใบ	-9.74357
ที่ต้องการ	-9.74386
เทศบาล	-9.7441
จนถึงปัจจุบัน	-9.74439
ชื่อเล่น	-9.74477
31	-9.74489
ธน	-9.74609
ของพระเจ้า	-9.74631
การกระทํา	-9.74632
ชายแดน	-9.74682
สอบสวน	-9.74825
รับราชการ	-9.74831
วรรณกรรม	-9.74849
04	-9.74853
▁ก่อนจะ	-9.74921
▁ในประเทศ	-9.7499
สถานีรถไฟ	-9.75036
ต่อการ	-9.75048
สต	-9.7507
ที่โรงเรียน	-9.7509
ผลักดัน	-9.75093
เฉลิม	-9.75093
ให้เห็น	-9.75115
94	-9.75126
เกิดจาก	-9.75232
ด้า	-9.75257
▁2539	-9.75258
สนิท	-9.75283
การดําเนินการ	-9.75288
รถไฟฟ้า	-9.75316
แบน	-9.75325
ซี่	-9.75357
นันท	-9.75396
นิยาม	-9.75402
ก้า	-9.75409
ใกล้เคียง	-9.75432
ทําได้	-9.75512
▁เจ้าหญิง	-9.75571
ก่อให้เกิด	-9.75592
นักเขียน	-9.75639
▁De	-9.75695
นึก	-9.75701
แจ	-9.75705
ส้ม	-9.7571
▁เจ้าชาย	-9.75746
ติดต่อกับ	-9.75749
แต่งงาน	-9.7576
เฟอร์	-9.75766
ตัวแทน	-9.75815
แน่	-9.75898
▁3.	-9.75918
แทนที่	-9.75957
คัดเลือก	-9.75973
ได้ยิน	-9.7601
ที่เหลือ	-9.7604
ci	-9.76055
เวิลด์	-9.76055
▁โครงการ	-9.76093
สุทธิ	-9.76094
เทศบาลตําบล	-9.76108
การเงิน	-9.76143
เลอร์	-9.76223
ไม่ต้อง	-9.76251
วาย	-9.76278
▁เครื่อง	-9.76281
เทน	-9.76301
คริสต์	-9.76331
ทักษะ	-9.76332
จร	-9.76367
วิญญาณ	-9.76435
06	-9.76457
หมู	-9.76509
พญา	-9.76602
▁แอ	-9.76641
เขมร	-9.76706
จะได้รับ	-9.76728
เจีย	-9.76772
เป็นพระ	-9.76838
จะทํา	-9.76882
▁ไอ	-9.76889
มูล	-9.769
สมรสกับ	-9.76911
วุฒิ	-9.76935
เปรียบเทียบ	-9.76935
ค่าใช้จ่าย	-9.76957
ที่มีการ	-9.76961
▁เป็นการ	-9.76978
เลือกตั้ง	-9.77015
ใส	-9.77195
ไม่ค่อย	-9.77202
แทบ	-9.77236
68	-9.77317
แก้ไขปัญหา	-9.77331
,6	-9.7737
ปฏิรูป	-9.77371
เป็นอาหาร	-9.77391
อีกหลาย	-9.77395
นายก	-9.77468
ระหว่างปี	-9.77471
ธุ	-9.77481
▁เป็นนักแสดง	-9.77561
หัน	-9.77568
ขบวนการ	-9.77589
วิถี	-9.77673
โซน	-9.77756
>"	-9.77762
โค้ง	-9.77767
การปฏิรูป	-9.77769
พระพุทธ	-9.77837
ขนาน	-9.77843
▁อะ	-9.77904
▁ซี	-9.7801
โข	-9.78052
เข้าถึง	-9.78058
ฟิลิปปินส์	-9.78115
กี้	-9.78157
พระพุทธศาสนา	-9.78168
ชนะเลิศ	-9.78169
พจน์	-9.78186
▁ชนะ	-9.78189
การเดินทาง	-9.78259
สลับ	-9.78263
การป้องกัน	-9.7827
ตรงข้าม	-9.7827
พื้นเมือง	-9.78315
00,000	-9.7832
มงกุฎ	-9.78324
ในภาษา	-9.78368
ผู้บัญชาการ	-9.78432
ฮ่องกง	-9.78536
เข้าไปใน	-9.78544
นอ	-9.78552
บุตรชาย	-9.78562
น่าน	-9.78572
กด	-9.78611
ลีย์	-9.78651
รุก	-9.78679
ค้นหา	-9.78684
ลูกสาว	-9.78694
สาธารณสุข	-9.78721
แม้แต่	-9.78874
▁2544	-9.78921
รายชื่อ	-9.78961
สมเด็จ	-9.78967
เกิดความ	-9.79034
หายไป	-9.79068
วินิจฉัย	-9.79068
▁2004	-9.79086
เป็นต้น	-9.79154
▁2543	-9.79203
เดล	-9.7924
กล้อง	-9.79248
อุบัติเหตุ	-9.79285
เพียงพอ	-9.79308
แผ่	-9.7931
มั	-9.7949
ec	-9.79494
ไพร	-9.79535
บาดเจ็บ	-9.79588
เยี่ยม	-9.79608
จดหมาย	-9.7963
เติม	-9.7971
พิสูจน์	-9.79746
ในครั้งนี้	-9.79804
ขัง	-9.79819
สูงขึ้น	-9.7988
.3	-9.79884
ได้จาก	-9.79932
เบร	-9.79942
ตู้	-9.79951
ess	-9.79966
▁เดิม	-9.80013
เพิ่ง	-9.80069
ที่สาม	-9.80102
ั้น	-9.80201
ความขัดแย้ง	-9.80213
ของมัน	-9.80388
ies	-9.80439
▁Mo	-9.80465
..."	-9.80474
ศร	-9.80494
วิช	-9.805
สหภาพโซเวียต	-9.80504
นิสัย	-9.80509
,8	-9.80537
ens	-9.8055
ค้า	-9.80564
ทะเลสาบ	-9.80575
รีบ	-9.80581
ยักษ์	-9.8061
เจดีย์	-9.80646
เคล	-9.80726
เจ็ด	-9.80769
ประเทศฝรั่งเศส	-9.80779
ที่สร้าง	-9.80781
รับบท	-9.80815
ใช้ในการ	-9.80882
มั่น	-9.80892
ทั้งใน	-9.80892
เกี่ยว	-9.80902
เช่นเดียวกับ	-9.8094
โปรตุเกส	-9.81008
ast	-9.81036
รวมไปถึง	-9.81046
ส่วนมาก	-9.81053
ของบริษัท	-9.81057
เชอร์	-9.81081
▁ช่วง	-9.81091
ปลอดภัย	-9.81173
ที่นั่ง	-9.81205
ปรากฏใน	-9.8126
▁แต่ไม่	-9.81305
bo	-9.81307
เข้ารับ	-9.81316
▁2545	-9.81343
การเขียน	-9.81351
ความต้องการ	-9.81375
ที่กําลัง	-9.81444
หุ้น	-9.81463
อย่างหนึ่ง	-9.81477
ถ่ายทอด	-9.81486
ในหลาย	-9.81528
นิวยอร์ก	-9.81553
แป	-9.81597
บรรดา	-9.81613
โบสถ์	-9.81626
เฟร	-9.8164
ian	-9.81687
ศาสน	-9.81718
ชั่วคราว	-9.81778
.6	-9.81792
ทองคํา	-9.81811
ฉลอง	-9.81877
▁เฮ	-9.81881
แอฟริกา	-9.81882
รัช	-9.81891
ึก	-9.81961
▁2000	-9.81996
นางสาว	-9.82076
?"	-9.8209
มาใช้	-9.82105
ทางช่อง	-9.8211
กึ่ง	-9.8212
เสียหาย	-9.82125
เซ็	-9.82151
ผลไม้	-9.8216
ของมนุษย์	-9.82238
ละลาย	-9.82315
รุ่นที่	-9.82335
▁ต่อมาในปี	-9.82357
เนเธอร์แลนด์	-9.82358
จึงต้อง	-9.82387
ศีล	-9.82398
▁Co	-9.82424
พัด	-9.82438
จําเป็นต้อง	-9.82461
วิหาร	-9.82464
โดยมี	-9.82508
ษา	-9.82535
บ่อย	-9.826
นั้นมี	-9.82626
ถัง	-9.82626
เชล	-9.82688
มีหน้าที่	-9.8273
/1	-9.82738
▁คํา	-9.82841
นั้นเป็น	-9.82854
บ่อ	-9.82883
เอน	-9.82895
เป็นหลัก	-9.82969
ทิศ	-9.82979
ประมง	-9.83063
▁""	-9.83071
ยาวนาน	-9.83076
▁เซ	-9.8309
แบร์	-9.83167
สมัยใหม่	-9.83193
ในฤดูกาล	-9.8321
io	-9.83242
ความถี่	-9.83245
ลูกชาย	-9.83362
จะสามารถ	-9.83366
แย	-9.83462
อ่าว	-9.83469
ชนบท	-9.83484
เพื่อการ	-9.83512
▁Me	-9.83541
uc	-9.83609
มองเห็น	-9.8362
qu	-9.83683
จอห์น	-9.83683
มีความสําคัญ	-9.83724
ดาร์	-9.83769
ความแตกต่าง	-9.83845
▁Sh	-9.83862
ทั้งหลาย	-9.83887
▁อันเป็น	-9.83935
ทดลอง	-9.83944
ในระยะ	-9.83996
ถาวร	-9.84021
ลิส	-9.84023
ยินดี	-9.84176
เจมส์	-9.84179
ความรุนแรง	-9.84197
กบฏ	-9.84223
ชัด	-9.84235
ห้วย	-9.84251
เวช	-9.84279
ศตวรรษที่	-9.84295
นวนิยาย	-9.84296
สนธิสัญญา	-9.84298
ยัน	-9.84436
พม	-9.84475
อินเทอร์เน็ต	-9.84476
คิว	-9.84498
คัมภีร์	-9.84513
ละเอียด	-9.84528
ลัด	-9.84545
age	-9.84551
ที่ใหญ่ที่สุด	-9.84627
แอบ	-9.84627
pro	-9.84642
สุโขทัย	-9.84664
ปูน	-9.84682
รูปร่าง	-9.84692
สวีเดน	-9.84739
-3	-9.84743
▁ประตู	-9.84787
▁2542	-9.84807
’	-9.84814
ก็ถูก	-9.84818
เปรียบ	-9.84838
ถา	-9.84896
ยูไนเต็ด	-9.84925
tra	-9.84999
be	-9.85003
▁กอง	-9.85032
ไวรัส	-9.85067
ว่าด้วย	-9.85117
ชวน	-9.85136
นิส	-9.8521
ธร	-9.8524
หมื่น	-9.85255
คิม	-9.85263
เคารพ	-9.85305
มณี	-9.85318
ร้อนครั้งที่	-9.85341
ear	-9.85389
▁ชั่วโมง	-9.8543
▁ดอก	-9.85464
▁โร	-9.85482
▁นาที	-9.85523
▁พวกเขา	-9.85529
มนตรีช่วยว่าการ	-9.85535
วันพฤหัสบดีที่	-9.85539
▁เป็นประธาน	-9.85575
เล็กๆ	-9.85591
เปิดสอน	-9.856
เดินทางมา	-9.85635
,3	-9.85662
สีน้ําตาล	-9.85667
การวิจัย	-9.85668
ค่ํา	-9.85699
เอะ	-9.85714
ไม่กี่	-9.85723
ชายฝั่ง	-9.8574
บางอย่าง	-9.85756
แด	-9.85762
ขนม	-9.85783
วิชาชีพ	-9.85802
พายุ	-9.85826
สงสัย	-9.85836
โดดเด่น	-9.8584
▁อีกทั้ง	-9.85849
ปรากฏการณ์	-9.85885
ก้อน	-9.85931
▁ซา	-9.85938
▁2540	-9.85993
รุ่ง	-9.86002
ตกแต่ง	-9.8603
อาจมี	-9.86115
▁กรุงเทพมหานคร	-9.86182
ตื่น	-9.86295
ทุกข์	-9.86295
จากโรงเรียน	-9.86342
ที่ไม่มี	-9.86404
▁สหรัฐอเมริกา	-9.86414
พี่ชาย	-9.86421
โอลิมปิก	-9.86554
ดึง	-9.866
ฝ	-9.86656
ปรากฏว่า	-9.86712
,7	-9.86735
เท็	-9.86739
ได้ประกาศ	-9.86855
กระดาษ	-9.8687
ที่พบ	-9.86897
โปแลนด์	-9.86934
ป่วย	-9.86966
ภั	-9.87001
ย้ํา	-9.8701
คัด	-9.87078
▁Th	-9.87168
นัส	-9.87204
ลอนดอน	-9.87242
ศีรษะ	-9.87255
ต่างกัน	-9.87285
ประจําปี	-9.8729
มีความยาว	-9.873
ออส	-9.8733
มีปัญหา	-9.87365
ออกจําหน่าย	-9.8738
ธรรมศาสตร์	-9.87414
ชัก	-9.87423
สห	-9.87428
คนเดียว	-9.87452
วิเคราะห์	-9.8747
ประกอบไปด้วย	-9.87648
ยิ่งใหญ่	-9.87682
ปลัดกระทรวง	-9.87745
ue	-9.87778
สูบ	-9.87828
และเป็น	-9.87885
อย่างยิ่ง	-9.879
▁๔	-9.87903
เยือน	-9.87914
เป็นผล	-9.87925
ไทยแลนด์	-9.87941
ของพระ	-9.87943
การส่งเสริม	-9.87968
▁ยังมี	-9.87971
▁อาจหมายถึง	-9.87977
▁(,	-9.87982
ยืม	-9.87992
ต้า	-9.87996
ริส	-9.88011
ญาณ	-9.88027
เจาะ	-9.88032
แร	-9.88066
บรรยากาศ	-9.88108
มุสลิม	-9.88108
เบื้องต้น	-9.88177
ได้ดี	-9.88181
ต้องมี	-9.88251
.25	-9.88268
ตอนที่	-9.88297
ปราบปราม	-9.88303
เงื่อนไข	-9.88342
ในโอกาส	-9.88342
หลุม	-9.88342
ดีกว่า	-9.8838
จะให้	-9.88383
ุ่น	-9.88385
ไปจนถึง	-9.88393
เดนมาร์ก	-9.88459
ห่างจาก	-9.88468
▁80	-9.8847
มืด	-9.88512
▁ก่อนที่จะ	-9.88553
แตกต่างกัน	-9.88556
ย้อน	-9.8858
วดี	-9.88696
ปกป้อง	-9.88725
บราซิล	-9.8878
▁ประเภท	-9.8878
ทางเพศ	-9.88815
กรา	-9.88842
▁Ar	-9.88852
แขก	-9.88864
เป็นประธาน	-9.88915
▁นก	-9.88923
ฟังก์ชัน	-9.88968
▁ดัง	-9.89
ขี้	-9.89012
จัดงาน	-9.89024
สน	-9.89034
ทําไม	-9.89034
▁Al	-9.89082
บริจาค	-9.89165
▁Ma	-9.89176
▁พร้อมทั้ง	-9.89258
สมเด็จพระเจ้า	-9.89261
ของพวกเขา	-9.89288
สัต	-9.893
หุ	-9.89322
▁โดยเป็น	-9.89322
ช่วงเวลา	-9.89326
ตั้งอยู่ใน	-9.89343
เพื่อสร้าง	-9.89351
หอย	-9.89433
หิ	-9.89445
มีส่วนร่วม	-9.89466
▁X	-9.89521
ญา	-9.89525
ี่ย	-9.89541
▁4.0	-9.89568
ณา	-9.89571
ที่เกี่ยวข้องกับ	-9.89625
ดื่ม	-9.89664
แปด	-9.89704
เป็นตัวแทน	-9.89736
กรีก	-9.89824
เหมาะ	-9.89874
หมุน	-9.89913
ห่าง	-9.89915
ชั่ว	-9.89953
สลาย	-9.89965
เรียบ	-9.89974
ต้นแบบ	-9.90007
พร้อมกัน	-9.90064
ลงพื้นที่	-9.90065
เฝ้า	-9.90071
แพร่หลาย	-9.90106
ในทุก	-9.90118
ออนไลน์	-9.90125
จึงเป็น	-9.90129
พระพุทธรูป	-9.90237
อัคร	-9.90239
▁ประธาน	-9.90242
บก	-9.90259
ในตอน	-9.9026
อบ	-9.90279
กัด	-9.90316
ซ่า	-9.90322
.4	-9.90378
ได้รับเลือก	-9.90489
▁อาจ	-9.90493
▁รุ่น	-9.90539
มหาราช	-9.90568
ดัน	-9.90572
หายใจ	-9.90599
อยู่ภายใต้	-9.90619
▁เป็นภาพยนตร์	-9.90622
อย่างน้อย	-9.90623
เป็นอย่างมาก	-9.90645
▁จากการ	-9.90684
เปลี่ยนชื่อ	-9.90722
พิธีกร	-9.90733
อวัยวะ	-9.90751
เวล	-9.90761
ด่าน	-9.90767
การทํางานของ	-9.9077
กุศล	-9.90854
ซับซ้อน	-9.90874
วาระ	-9.90909
ใดๆ	-9.90923
ฟอร์	-9.90976
เบส	-9.90978
▁นอกจากนี้ยัง	-9.90989
การแพทย์	-9.91002
เกล	-9.91013
เคลื่อนไหว	-9.91027
idae	-9.91041
เมตร	-9.9131
▁ฤดูกาล	-9.91359
เอกลักษณ์	-9.91364
โซล	-9.91391
ได้เข้า	-9.91427
ea	-9.91435
▁2005	-9.9145
ธงชาติ	-9.9146
เชียง	-9.91494
เป็นเมือง	-9.91513
▁จะมี	-9.91541
*	-9.91545
เห็นชอบ	-9.91585
ความสําเร็จ	-9.91593
▁ช่อง	-9.91604
▁วิ	-9.9161
จอด	-9.91611
เวีย	-9.91639
เมา	-9.9167
พู	-9.91759
▁ล้านคน	-9.91823
การดูแล	-9.91871
▁จอห์น	-9.91886
ical	-9.91924
▁re	-9.91976
▁เป็นเมือง	-9.91979
ข้า	-9.91992
คนไข้	-9.91998
เพน	-9.92018
▁Con	-9.92101
▁200	-9.92108
ศิษย์	-9.92126
แผนที่	-9.92183
เครื่องหมาย	-9.92224
กอน	-9.92237
▁เรียกว่า	-9.92243
สบาย	-9.92257
ความเสี่ยง	-9.92275
▁แปลว่า	-9.92312
ฉะนั้น	-9.92323
ไว้ว่า	-9.92334
คติ	-9.92342
บางชนิด	-9.92372
คุณค่า	-9.92389
หนาแน่น	-9.92453
อ้างว่า	-9.92522
ศิลา	-9.92524
กระจก	-9.92547
▁มัก	-9.92552
เป็นแบบ	-9.92612
▁โดยจะ	-9.92615
ะฮ์	-9.92765
เพลิง	-9.92799
,5	-9.92814
มีชื่อว่า	-9.92868
▁เล่ม	-9.92877
สะดวก	-9.92915
▁เช่นเดียวกับ	-9.92975
เหรียญทอง	-9.93015
วั	-9.93044
ี่ยง	-9.93047
▁ตารางกิโลเมตร	-9.93056
ประเมิน	-9.93105
แมว	-9.93181
ลีน	-9.93199
ถ้วย	-9.93261
จับกุม	-9.93271
ผ่านทาง	-9.9332
ลัส	-9.93382
นั่นเอง	-9.93438
เป็นกลุ่ม	-9.9347
การเรียนรู้	-9.93535
ความเห็น	-9.93575
ยอดขาย	-9.93583
เง	-9.93602
เทียม	-9.93663
ัน	-9.93686
end	-9.93706
ล้อม	-9.9371
▁(25	-9.93715
นิ้ว	-9.93717
ออม	-9.93754
▁วันศุกร์ที่	-9.93775
ผู้ชนะ	-9.93782
อิเล็กทรอนิกส์	-9.93795
ระดับปริญญาตรี	-9.93826
iz	-9.93831
▁จันทร์โอชา	-9.93836
จากมหาวิทยาลัย	-9.93931
lu	-9.93948
นิวเคลียร์	-9.94084
บ้านเมือง	-9.94105
จอร์จ	-9.94123
หม่อม	-9.94133
▁นับเป็น	-9.94151
ในลักษณะ	-9.94188
เทร	-9.9422
ต่อปี	-9.94297
▁สถาบัน	-9.94303
ชัยชนะ	-9.94393
แน่น	-9.94437
พรรคการเมือง	-9.9444
ก่อนหน้านี้	-9.94456
แปลว่า	-9.94458
นิยาย	-9.94501
ปีที่	-9.9451
เวย์	-9.94514
วอร์	-9.94517
เดือนตุลาคม	-9.9454
ron	-9.94726
วงจร	-9.94784
ดับเบิลยู	-9.94789
ผู้ปกครอง	-9.94791
if	-9.94796
▁หมู่บ้าน	-9.94853
วาท	-9.94892
สามี	-9.94938
เอื้อ	-9.94952
▁ร่วม	-9.94952
ตาก	-9.9497
เกิดจากการ	-9.94979
▁พรรษา	-9.95008
▁Thailand	-9.95084
อยู่แล้ว	-9.95127
ของท่าน	-9.95151
เอกราช	-9.95173
ฉัตร	-9.9518
▁ผลงาน	-9.95284
▁ธ	-9.9533
าราม	-9.95336
อึ	-9.95449
03	-9.9558
ตัวอักษร	-9.9558
ได้ทําการ	-9.95596
เศษ	-9.95612
ซิม	-9.95614
คือการ	-9.95655
มังกร	-9.95742
การทดลอง	-9.9576
▁โดยการ	-9.95762
วิวัฒนาการ	-9.95793
จารึก	-9.95835
ถอด	-9.95857
การตรวจ	-9.95902
ขึ้นใน	-9.95951
ลักษณะของ	-9.9597
เทือกเขา	-9.96004
▁รองนายกรัฐมนตรี	-9.96057
นามว่า	-9.9606
ถุง	-9.96088
ชื่อของ	-9.96144
หง	-9.96146
ที่บ้าน	-9.96178
การเคลื่อนไหว	-9.9618
นอกจาก	-9.96186
เหล	-9.96196
สายตา	-9.96281
เผ่า	-9.96283
▁คุณ	-9.9629
พระนคร	-9.9631
ซาก	-9.96346
ออกเสียง	-9.96351
วัต	-9.96378
กุ้ง	-9.96386
ในประวัติศาสตร์	-9.96451
วิดีโอ	-9.96478
vi	-9.96499
สองคน	-9.9651
กันดั้ม	-9.9651
ผึ้ง	-9.96553
▁เดลินิวส์	-9.96595
การสื่อสาร	-9.96681
สนามกีฬา	-9.96686
ซุน	-9.96694
form	-9.96709
ปัก	-9.9677
เงา	-9.96798
ซึม	-9.96836
จาง	-9.96838
เลขที่	-9.96882
ขวาง	-9.9689
สื่อสาร	-9.96895
ชั่วโมง	-9.96922
ในบาง	-9.96979
ทัวร์	-9.96983
เลิศ	-9.96992
tor	-9.97007
รายงานว่า	-9.9703
จัง	-9.97035
แก้ปัญหา	-9.97182
สงครามโลกครั้ง	-9.97191
au	-9.97207
ถ่ายทํา	-9.9722
ลี่	-9.97289
มด	-9.97318
ิ้ว	-9.97352
เกล้า	-9.97381
อาศัยอยู่ใน	-9.97487
สถานศึกษา	-9.97536
เพื่อใช้	-9.97593
อุทยานแห่งชาติ	-9.97683
ฉายา	-9.97692
แผนก	-9.97698
ary	-9.97733
หนึ่งที่	-9.97799
ก็สามารถ	-9.97818
ฤษ	-9.97827
ทรี	-9.97851
แอนด์	-9.97876
ระดับสูง	-9.97898
เฉลิมพระเกียรติ	-9.97918
นักวิชาการ	-9.97927
ial	-9.97958
มาร	-9.98
สัญชาติ	-9.98004
มุก	-9.98013
▁เท	-9.98063
พ้น	-9.98123
กัง	-9.9815
นักท่องเที่ยว	-9.98159
ผู้ว่าราชการ	-9.98181
วินัย	-9.98209
ฝูง	-9.98219
สําเนียง	-9.98219
บรม	-9.98219
bi	-9.98225
ดุล	-9.98235
การแข่งขันกีฬา	-9.98243
เฉพาะอย่างยิ่ง	-9.98257
ผูก	-9.98274
เซ็น	-9.98283
ดูเหมือน	-9.98323
ัจ	-9.98347
ชนิดนี้	-9.9838
แม้	-9.98393
ก๊าซ	-9.98434
พรีเมียร์ลีก	-9.98478
▁พรรค	-9.98507
เที่ยว	-9.98579
ดูด	-9.98588
ตามกฎหมาย	-9.98603
▁ชุด	-9.98647
อาณานิคม	-9.9865
▁วันอังคารที่	-9.98691
ตลก	-9.98693
▁ใกล้เคียงกับ	-9.98707
▁รมว	-9.98723
▁โดยที่	-9.98767
หลังจากที่	-9.98773
สู	-9.98785
อ้างอิง	-9.98792
▁[	-9.98799
กลอง	-9.98833
โต๊ะ	-9.98949
พิทักษ์	-9.99041
คู่กับ	-9.99065
อํา	-9.99083
กวน	-9.99089
แคนาดา	-9.99165
ในภาพยนตร์	-9.99186
ca	-9.99203
▁ก็ได้	-9.99228
ปราบ	-9.99283
เป็นผู้นํา	-9.99284
ห่วง	-9.99288
ท่องเที่ยว	-9.99319
mi	-9.99349
ชุมนุม	-9.99423
▁2538	-9.99467
๋อ	-9.99472
ภาคเอกชน	-9.99489
ประเทศญี่ปุ่น	-9.99513
เกิดเหตุ	-9.99521
300	-9.99553
อาจเป็น	-9.99628
▁สี	-9.99637
แสดงว่า	-9.99642
วอล	-9.99702
ป้าย	-9.99725
ด้านล่าง	-9.99771
เลอ	-9.99805
▁a	-9.99808
ตัวเลข	-9.99838
su	-9.99842
ซ่อน	-9.99951
ber	-9.99953
ทําให้เขา	-9.99997
▁แต่เมื่อ	-10
▁Pro	-10.0001
ณี	-10.0006
tal	-10.0009
ราชบัลลังก์	-10.0009
—	-10.0009
เก่ง	-10.0014
▁มีความ	-10.0015
ยุทธการ	-10.0018
▁h	-10.0018
▁ผู้อํานวยการ	-10.0021
ดาวเคราะห์	-10.0023
กั้น	-10.0024
ลิป	-10.0032
นําเข้า	-10.0032
เรือง	-10.0034
ั่ว	-10.0035
ในภาค	-10.0036
เป็นสถานที่	-10.0039
▁พอ	-10.0039
เป็นไปตาม	-10.0042
แข็งแรง	-10.0048
คุณสมบัติ	-10.0057
ตัวผู้	-10.0065
ที่อยู่อาศัย	-10.0073
อะตอม	-10.0075
สอด	-10.0081
บุคคลที่	-10.0082
วัยรุ่น	-10.0083
ราษฎร	-10.0083
son	-10.0085
▁วงศ์	-10.0088
ร่ม	-10.0089
โปรตีน	-10.0093
เพียงแค่	-10.0093
▁ในปัจจุบัน	-10.0095
หล่อ	-10.0099
ack	-10.01
พ่อแม่	-10.01
สารสนเทศ	-10.0102
ของเรา	-10.0114
โต้	-10.0116
หลวงพ่อ	-10.0119
นิ่ง	-10.0124
▁ถือเป็น	-10.0125
อยู่ระหว่าง	-10.0128
ในเวลาต่อมา	-10.0129
ด้านหน้า	-10.013
แกร	-10.0132
▁โดยได้	-10.0133
ไม่ยอม	-10.0134
ให้ประชาชน	-10.0135
ฟิสิกส์	-10.0137
ได้ถึง	-10.0139
▁Z	-10.0139
เกษตรและสหกรณ์	-10.0141
ไปเป็น	-10.0149
ตลอดเวลา	-10.0162
มีอยู่	-10.0164
ซัม	-10.0167
พระมหา	-10.0168
ในสังคม	-10.0171
วันเสาร์	-10.0174
หัวข้อ	-10.0189
ชายหนุ่ม	-10.019
ขั้ว	-10.019
ชื่อดัง	-10.0193
ว่ามี	-10.0194
พบใน	-10.0197
เป็นที่นิยม	-10.0199
นครศรีธรรมราช	-10.02
นายกฯ	-10.0202
ด่วน	-10.0203
เขื่อน	-10.0208
▁นอกจากนี้ยังมี	-10.0216
ใช้ชีวิต	-10.0218
EC	-10.0224
.7	-10.0226
โครง	-10.0227
ความสามารถในการ	-10.0227
๊ะ	-10.0229
เคลื่อน	-10.0235
""	-10.0239
ประธานการประชุม	-10.0241
ไปได้	-10.0242
ชุม	-10.0242
งะ	-10.0255
การพิจารณา	-10.0255
การ์ด	-10.0256
ราชสมบัติ	-10.0257
ของแต่ละ	-10.0262
ยังไม่มี	-10.0264
ฮุ	-10.0267
เช่า	-10.0269
เม็ด	-10.027
บรา	-10.0272
การบริหารจัดการ	-10.0273
สัดส่วน	-10.0276
เป็นแหล่ง	-10.0276
ชื่นชม	-10.0276
คําถาม	-10.0283
กรอง	-10.0286
ที่ว่า	-10.0289
การปฏิวัติ	-10.0291
วาส	-10.0295
▁และต่อมา	-10.0302
ice	-10.0302
โคล	-10.0303
มีอิทธิพล	-10.0309
การใช้งาน	-10.0317
▁ศรี	-10.0322
ฟอร์ด	-10.0327
ke	-10.0328
ลัย	-10.0328
ib	-10.0334
บําบัด	-10.0334
ดยุก	-10.0335
ที่ได้รับการ	-10.0338
ย้ายมา	-10.0338
▁พร้อมด้วย	-10.0349
▁ชา	-10.0349
▁สมาชิก	-10.0356
▁ข้อ	-10.0357
ประเทศอังกฤษ	-10.0359
หลายชนิด	-10.0362
ที่เกิด	-10.0363
ence	-10.037
นั้นจะ	-10.0377
ความจํา	-10.0378
ซอน	-10.038
ฑ	-10.0381
จังหวะ	-10.0384
รัฐประหาร	-10.0384
ru	-10.0387
[[	-10.0389
เนื้อเรื่อง	-10.0392
เหยื่อ	-10.0394
สถานีโทรทัศน์	-10.0394
▁An	-10.0396
เสี่ยง	-10.0396
ผู้ชม	-10.0398
ผู้ผลิต	-10.0398
ไต้หวัน	-10.0403
เดือนมีนาคม	-10.0416
เกมส์	-10.042
▁บุญ	-10.0423
พาร์	-10.0423
ที่ยัง	-10.0428
คว้า	-10.0429
ภักดี	-10.043
หรอก	-10.043
แลกเปลี่ยน	-10.0434
ต้องใช้	-10.0434
นิพนธ์	-10.0439
มาลา	-10.0449
ปริญญา	-10.0456
สุก	-10.0457
อิสราเอล	-10.0458
เป็นเจ้าของ	-10.0459
▁และเมื่อ	-10.046
ou	-10.046
หลายอย่าง	-10.0461
ความคิดเห็น	-10.0462
ถูกใช้	-10.0463
▁ต่อมาได้	-10.0471
ได้ด้วย	-10.0477
วงการ	-10.0481
ผู้จัดการ	-10.0481
เป็นอย่างดี	-10.0495
สตี	-10.0495
อนุญาตให้	-10.0496
แผนการ	-10.0499
ยึดครอง	-10.05
มีลักษณะเป็น	-10.0502
เถ	-10.0507
มัง	-10.0507
อัม	-10.0511
เซต	-10.0517
▁ภาพยนตร์	-10.0518
91	-10.052
เธอร์	-10.0526
ฉุกเฉิน	-10.0527
สายการบิน	-10.0527
ปีก่อน	-10.0527
พัฒนาการ	-10.0529
ase	-10.0531
▁ก็จะ	-10.0533
ขณะนั้น	-10.0539
รอส	-10.0547
ชื้น	-10.055
▁Ro	-10.0551
ace	-10.0551
เคียว	-10.0555
หลังคา	-10.0556
ได้รับพระราชทาน	-10.0557
เป็นศูนย์กลาง	-10.0558
คริสต์ทศวรรษ	-10.056
แค้น	-10.0567
ประโยค	-10.0568
กําลังใจ	-10.0575
▁ตั้งอยู่ที่	-10.0577
▁ประเทศญี่ปุ่น	-10.0581
▁d	-10.0582
เม็กซิโก	-10.0582
ผู้เข้าแข่งขัน	-10.0584
▁วันจันทร์ที่	-10.0586
ของญี่ปุ่น	-10.0589
▁โทร	-10.0593
วินาที	-10.0595
5,000	-10.0598
อาญา	-10.06
ฤดู	-10.06
มายัง	-10.061
ห้องเรียน	-10.0613
นําโดย	-10.0613
ลิขสิทธิ์	-10.0615
ท้าว	-10.0615
สถานีวิทยุ	-10.0616
บุรุษ	-10.0619
ตามมา	-10.0622
▁(<	-10.0628
▁เปิด	-10.0633
▁อุ	-10.0636
ty	-10.0638
ชาวอังกฤษ	-10.0644
มั่นใจ	-10.0645
ทูล	-10.0645
ช่วยกัน	-10.0647
ผู้กํากับ	-10.0647
การจัดตั้ง	-10.0648
▁ฮา	-10.0649
▁Di	-10.0655
ขอบคุณ	-10.066
สนามบิน	-10.0664
ซอง	-10.0669
▁และในปี	-10.068
อิม	-10.068
กบ	-10.0683
พรรคประชาธิปัตย์	-10.0685
พลเรือน	-10.0685
ตอนแรก	-10.069
สายพันธุ์	-10.0694
และเทคโนโลยี	-10.0697
หม่อมเจ้า	-10.0701
ความผิด	-10.0701
ให้ได้	-10.0703
นับตั้งแต่	-10.0703
act	-10.0707
▁2541	-10.0708
ดง	-10.0709
หลอดเลือด	-10.071
วิทย์	-10.0712
โด่งดัง	-10.0718
รัฐวิสาหกิจ	-10.0721
สมรส	-10.0722
ผัน	-10.073
สหประชาชาติ	-10.0735
ไก	-10.0738
ind	-10.074
ข้อตกลง	-10.0741
กรณ์	-10.0744
ขี่	-10.0746
▁ลูก	-10.0748
นักมวย	-10.0749
อนาคต	-10.0751
อัตราการ	-10.0754
อนุภาค	-10.0754
จริงๆ	-10.076
ถึงความ	-10.0761
ฮู	-10.0766
น้ําแข็ง	-10.0767
ของมหาวิทยาลัย	-10.0773
▁ด้วยการ	-10.0778
สื่อมวลชน	-10.0784
port	-10.0789
▁อัลบั้ม	-10.0792
ยากจน	-10.0793
มีอาการ	-10.0793
เดือนมกราคม	-10.0794
เนส	-10.0794
จุล	-10.0795
อิหร่าน	-10.0798
แคน	-10.08
ระบอบ	-10.0802
ความช่วยเหลือ	-10.0802
อิสลาม	-10.0803
คลินิก	-10.0803
ไม่มีการ	-10.0804
แตกต่างจาก	-10.0807
นักฟุตบอล	-10.081
อว์	-10.0813
ชุดนี้	-10.0817
มั่นคง	-10.0819
ขับร้อง	-10.0823
พระบรม	-10.0825
เตีย	-10.0828
แพร	-10.083
ทวี	-10.0832
ผลประโยชน์	-10.0832
หมา	-10.0836
มีรูปร่าง	-10.0839
แมค	-10.0839
เดือนกันยายน	-10.0841
ยีน	-10.0843
▁2002	-10.0843
ฉบับที่	-10.0843
กลีบ	-10.0846
จังหวัดเชียงใหม่	-10.0848
ลุง	-10.0848
ที่เหมาะสม	-10.085
กรุงศรีอยุธยา	-10.086
เสมือน	-10.086
ไม่มีใคร	-10.0861
▁ได้รับการ	-10.0865
สหพันธ์	-10.0866
วันอาทิตย์	-10.0869
ใช้ชื่อว่า	-10.0871
สันติ	-10.0873
ลอก	-10.0874
วิลเลียม	-10.0875
▁บท	-10.0875
▁เบ	-10.0876
pr	-10.0886
รุกราน	-10.0889
ร่อง	-10.0902
คาดว่า	-10.0905
พากย์	-10.0908
ป์	-10.0909
วิทยาเขต	-10.0912
็กซ์	-10.0914
อย่างยั่งยืน	-10.0925
▁2531	-10.0931
ทรัพยากรธรรมชาติ	-10.0935
แย่	-10.0937
คําตอบ	-10.0937
เพื่อที่จะ	-10.0941
ชาวจีน	-10.0945
สุนัข	-10.0947
กัส	-10.0951
ตามแนว	-10.0952
การปฏิบัติ	-10.0953
Br	-10.0964
ท่าเรือ	-10.0969
นิทรรศการ	-10.0971
ซัส	-10.0978
เลส	-10.098
เท่าที่	-10.0981
โมเลกุล	-10.0981
▁บาง	-10.0984
hy	-10.0986
ust	-10.0989
คิง	-10.0991
จําพวก	-10.0992
ศึกษาต่อ	-10.0994
เชื้อเพลิง	-10.0996
ทําร้าย	-10.0999
ต่อสู้กับ	-10.0999
ไมล์	-10.0999
ใกล้ชิด	-10.1006
เปลี่ยนไป	-10.1008
บริสุทธิ์	-10.1015
นี้คือ	-10.1016
▁g	-10.1017
มุข	-10.1024
โซเวียต	-10.1029
ป้า	-10.1029
สัตว์ป่า	-10.1029
ยอง	-10.1032
อาชีวศึกษา	-10.1034
จําแนก	-10.1034
ฟ้อง	-10.1034
กัล	-10.1039
ฤดูร้อน	-10.1041
▁70	-10.1044
é	-10.1049
ปลด	-10.105
บาล	-10.1051
หลังจากนั้น	-10.1053
เราจะ	-10.1062
เน็ต	-10.1063
ซอย	-10.1069
คุณหญิง	-10.107
da	-10.1075
▁โดยให้	-10.1078
▁;	-10.108
▁เด	-10.1084
gen	-10.1085
วีร	-10.1085
สุดท้ายของ	-10.1092
ของโรงเรียน	-10.1096
ราชภัฏ	-10.1097
การขับเคลื่อน	-10.1098
พัฒน์	-10.11
ran	-10.1106
สั่งให้	-10.1106
ระหว่างการ	-10.1107
ได้กล่าว	-10.1116
การให้	-10.1116
▁Com	-10.1116
อะนิเมะ	-10.1122
เช่นเดียวกัน	-10.1123
หลังจากการ	-10.1127
รับเชิญ	-10.1127
ป้อม	-10.1127
ตอนนี้	-10.1129
โรจน์	-10.1132
เว็บ	-10.1137
น้องชาย	-10.1137
ประหลาด	-10.1142
▁1980	-10.1147
ลงใน	-10.1147
are	-10.1154
วอน	-10.1156
บันเทิง	-10.1159
ช่องทาง	-10.116
น้องสาว	-10.1164
หลับ	-10.1165
ละครเรื่อง	-10.1166
ได้ง่าย	-10.117
ควรจะ	-10.1178
ฟาโรห์	-10.1181
ประกวด	-10.1185
ฟื้น	-10.1185
จดทะเบียน	-10.1186
▁จุด	-10.1187
โคน	-10.1189
ยาเสพติด	-10.1191
มากนัก	-10.1192
สํานักพิมพ์	-10.1199
ผลผลิต	-10.1199
อัต	-10.1199
ครุ	-10.1199
ช่อ	-10.12
▁รอบ	-10.1205
พารา	-10.1206
ob	-10.1207
ปาร์	-10.1209
ในรัชสมัย	-10.1216
เกษตรกรรม	-10.1217
เปลี่ยนเป็น	-10.1217
▁ภาค	-10.1219
ตับ	-10.1221
เกลือ	-10.1221
เป็นที่ตั้งของ	-10.1224
ตต์	-10.1225
เกะ	-10.1225
ด้านหลัง	-10.1229
ในเกม	-10.1241
ther	-10.1241
แทรก	-10.1242
▁Tr	-10.1243
มี่	-10.1245
ล้ํา	-10.1246
มะเร็ง	-10.1247
สืบทอด	-10.1248
หะ	-10.1248
มานาน	-10.1249
นิน	-10.1254
ock	-10.1254
ome	-10.1255
ในช่วงเวลา	-10.1257
ได้เข้าร่วม	-10.1259
เครือ	-10.1264
สาระ	-10.1265
▁สถานี	-10.1269
เดือนธันวาคม	-10.1281
ข้อเสนอ	-10.1292
มหาสมุทร	-10.1294
▁2537	-10.1294
ถัดมา	-10.1295
ga	-10.1295
มนตรี	-10.1308
เองก็	-10.132
ครบรอบ	-10.1322
ดวงอาทิตย์	-10.1322
ประสิทธิภาพ	-10.1325
ตัวเมีย	-10.1325
ทางตะวันออก	-10.1329
รับฟัง	-10.1329
้วน	-10.1339
ได้สําเร็จ	-10.134
พึง	-10.134
วงกลม	-10.1344
กิตติ	-10.1344
ราชสํานัก	-10.1345
ที่มีอยู่	-10.1345
ส่วนราชการ	-10.1346
▁องศา	-10.1349
▁แต่ว่า	-10.1351
เดือนเมษายน	-10.1355
ลืม	-10.136
▁ฉัน	-10.1362
▁อายุ	-10.1368
ล็อก	-10.1371
บวร	-10.1372
การเกิด	-10.1373
ใย	-10.1376
ประกันภัย	-10.1378
เหม	-10.138
การคลัง	-10.1381
.8	-10.1382
▁พบ	-10.1384
หลุด	-10.1385
ได้พบกับ	-10.1387
pi	-10.1389
▁Se	-10.1389
แตกต่าง	-10.1391
ขอนแก่น	-10.1393
เพอร์	-10.1394
การเพิ่ม	-10.1395
World	-10.1395
▁วันพุธที่	-10.1401
บ่อยครั้ง	-10.1403
มัธยมศึกษา	-10.1406
ค้าง	-10.1407
คลัง	-10.1411
การตรวจสอบ	-10.1417
อนุรักษ์	-10.1419
ทิพย์	-10.1421
ปรุง	-10.1424
ยี	-10.1426
▁Be	-10.143
▁เดอ	-10.1433
เขียนบท	-10.1434
สภาวะ	-10.1438
เดือนพฤษภาคม	-10.1441
พระสงฆ์	-10.1446
สรรพ	-10.145
ich	-10.1451
ประดิษฐาน	-10.1451
มีการใช้	-10.1453
โฉม	-10.1456
ริโอ	-10.146
Cl	-10.146
กอร์	-10.1462
1,000	-10.1463
ดีเด่น	-10.1463
▁เป็นเพลง	-10.1465
จอมพล	-10.1465
ศักดิ์สิทธิ์	-10.1473
น็อค	-10.1478
▁ตัวอย่าง	-10.1478
▁Le	-10.1481
กล่าวหา	-10.1481
ล่อง	-10.1482
▁ซึ่งได้	-10.1484
มีเพียง	-10.1485
แจก	-10.1486
พิษณุโลก	-10.1487
เปลี่ยนชื่อเป็น	-10.1488
ord	-10.1489
พระพุทธเจ้า	-10.1489
ถ้ํา	-10.1492
ได้ใช้	-10.1495
แนะ	-10.1502
กล้วย	-10.1502
จัน	-10.1503
ปรับตัว	-10.1503
ประถมศึกษา	-10.1504
โพธิ	-10.1507
ก่อนหน้า	-10.1519
ทางหลวงแผ่นดิน	-10.152
สังคมและความ	-10.152
แก๊ส	-10.1527
รับบทเป็น	-10.1528
▁ตัวอย่างเช่น	-10.1531
ได้รับแต่งตั้ง	-10.1535
ที่เกิดจาก	-10.154
นันท์	-10.1544
เสริมสร้าง	-10.1554
ประมุข	-10.1555
อักเสบ	-10.1558
ทราบว่า	-10.1561
มิว	-10.1562
ศรัทธา	-10.1563
ลําต้น	-10.1563
เกินไป	-10.1564
ภาคกลาง	-10.1566
เทียบ	-10.1568
เรียกร้อง	-10.1573
ผู้สูงอายุ	-10.1574
ส่วนประกอบ	-10.1576
นอร์เวย์	-10.1579
โตร	-10.159
▁To	-10.1592
ดิบ	-10.1596
บอย	-10.1596
▁2018	-10.1599
อํานวยความสะดวก	-10.1599
โพธิ์	-10.1604
อธิบดีกรม	-10.1605
▁กิโลกรัม	-10.1609
ยม	-10.161
การคัดเลือก	-10.1612
ชาร์	-10.1612
ลือ	-10.1613
พ่ายแพ้	-10.1615
เก้า	-10.1617
เซ็นสัญญา	-10.1618
ครอบครอง	-10.1627
หันมา	-10.1634
กระทั่ง	-10.1635
เป็นคํา	-10.1638
หลุยส์	-10.1639
si	-10.164
วันจันทร์	-10.1643
ได้สร้าง	-10.1644
les	-10.1644
ฟุตบอลโลก	-10.1645
เทศบาลเมือง	-10.1654
ทางตะวันตก	-10.1656
นีย์	-10.1664
ที่กําหนด	-10.1666
รับทราบ	-10.1666
ซอฟต์แวร์	-10.1671
ล่ะ	-10.1672
ถั่ว	-10.1674
โกล	-10.1676
อันเป็น	-10.1679
IS	-10.168
ี่ยว	-10.168
้ด	-10.1682
ลิม	-10.1684
ภาระ	-10.1684
ม์	-10.1685
ทิศใต้	-10.1686
Ch	-10.1687
ก่อนที่จะ	-10.1689
โล่	-10.1689
โก้	-10.169
▁แม้จะ	-10.169
หลอก	-10.1694
▁เกิดวันที่	-10.1697
โจว	-10.1708
ทางเดิน	-10.1711
การขนส่ง	-10.1711
ธรรมเนียม	-10.1711
นิด	-10.1712
เบื้อง	-10.1714
มั่นคงของมนุษย์	-10.1717
เสื่อม	-10.1723
▁นิ้ว	-10.1731
ล้มเหลว	-10.1734
อัตโนมัติ	-10.1734
Q	-10.1736
สกี	-10.1739
เขาจะ	-10.174
ทั้งสาม	-10.1744
.9	-10.1746
ในหมู่	-10.1746
ทดสอบ	-10.1746
เดินหน้า	-10.1747
คุณภาพชีวิต	-10.1748
ปน	-10.175
เป็นจํานวน	-10.1753
พอล	-10.1753
เสื้อผ้า	-10.1758
เมฆ	-10.176
มีพระ	-10.1763
ผู้เชี่ยวชาญ	-10.1764
รมว	-10.1767
ตอง	-10.1768
ใบหน้า	-10.1769
เป็นหัวหน้า	-10.1769
ผู้อื่น	-10.177
▁1990	-10.1773
การแก้ไขปัญหา	-10.1775
ric	-10.1778
ตอบสนอง	-10.1779
▁&	-10.1781
ปัตตานี	-10.1781
โง	-10.1781
เอ็กซ์	-10.1784
▁2003	-10.1787
โตเกียว	-10.1789
สามเหลี่ยม	-10.1792
ออกมาจาก	-10.1793
ราชินีนาถ	-10.1795
็อน	-10.1803
เรื่องการ	-10.181
็อต	-10.1811
▁และสามารถ	-10.1821
นักวิทยาศาสตร์	-10.1823
ร่วมงาน	-10.1824
เรย์	-10.1828
ดัก	-10.1829
ที่แตกต่างกัน	-10.183
สวัสดิ์	-10.183
▁จึงทําให้	-10.1831
▁จบการศึกษา	-10.1834
เป็นเพียง	-10.1834
หัวเราะ	-10.1839
แอม	-10.1839
▁ส่งผลให้	-10.184
เกิล	-10.184
กัก	-10.1844
ทางใต้	-10.1851
do	-10.1852
ยิ่งขึ้น	-10.1855
นาฬิกา	-10.186
sa	-10.187
เออร์	-10.187
ได้เริ่ม	-10.1877
ชอ	-10.1879
▁เปิดเผยว่า	-10.188
กูล	-10.1882
ฒ	-10.1884
ในการพัฒนา	-10.1887
อาหรับ	-10.1887
ดิส	-10.1887
ah	-10.1888
รวดเร็ว	-10.1889
ชีว	-10.189
เงียบ	-10.1891
ของระบบ	-10.1894
ในยุโรป	-10.1899
ark	-10.1903
เป็นเจ้าภาพ	-10.1904
เป็นไปได้	-10.1906
ผนัง	-10.1909
แป้ง	-10.1915
ระบาด	-10.1918
ที่เธอ	-10.1921
มหาวิหาร	-10.1923
นวล	-10.1927
การจัดอันดับ	-10.1928
นั้นก็	-10.1928
เพื่อป้องกัน	-10.1931
อุบลราชธานี	-10.1934
เว้น	-10.1939
ใช้ประโยชน์	-10.1941
ยังสามารถ	-10.1942
ในกรณี	-10.1944
ik	-10.1948
เครียด	-10.195
รัชกาล	-10.1955
ไมเคิล	-10.1956
แล้วเสร็จ	-10.1956
ชาร์ล	-10.1957
กองทัพบก	-10.1958
สมเด็จพระราชินี	-10.1959
จอง	-10.1959
จะช่วย	-10.196
เมืองไทย	-10.1961
จาน	-10.1967
เนิน	-10.197
พระราชธิดา	-10.1971
โจร	-10.1973
ในอัลบั้ม	-10.1978
ภิ	-10.1979
ละครโทรทัศน์	-10.1981
ริง	-10.1996
เสด็จพระราช	-10.1997
ven	-10.1998
ทัย	-10.2001
ไม่ดี	-10.2001
หมายความว่า	-10.2003
ree	-10.2007
▁2534	-10.2007
และสิ่งแวดล้อม	-10.2013
ณรงค์	-10.2014
ภาควิชา	-10.2014
ทิน	-10.2017
จําลอง	-10.2018
iv	-10.2023
คํานวณ	-10.2024
ในรัฐ	-10.2029
ี่ยน	-10.2035
▁และได้รับ	-10.2035
สนุก	-10.2036
แคล	-10.2038
มอบหมายให้	-10.2039
ทัศน	-10.204
▁อย่างไรก็ดี	-10.2041
เป็นสิ่งที่	-10.2045
ism	-10.2045
ไข้	-10.2047
ขยายตัว	-10.2049
ชาวญี่ปุ่น	-10.2053
ปัน	-10.2054
เมื่ออายุ	-10.2057
สหภาพ	-10.2058
เดือนมิถุนายน	-10.2062
ไอร์แลนด์	-10.2062
ภาษาจีน	-10.207
ดาราศาสตร์	-10.2073
ที่นี่	-10.2077
คุย	-10.2078
รู้จักกัน	-10.2078
ts	-10.2078
เรียบเรียง	-10.208
ส่งออก	-10.2081
St	-10.2086
ไทร	-10.2088
ชายแดนภาคใต้	-10.2091
อิส	-10.2092
หลอด	-10.2099
mer	-10.2109
ame	-10.2109
นราธิวาส	-10.2111
lic	-10.2113
gra	-10.2113
หลายแห่ง	-10.2119
ปฏิบัติหน้าที่	-10.2123
ส่วนใหญ่เป็น	-10.2123
ดวงตา	-10.2124
!"	-10.2125
สวัสดิการ	-10.2131
▁โรค	-10.2131
นําไปใช้	-10.2131
นํามาใช้	-10.2135
เจ้าเมือง	-10.2136
รินทร์	-10.2137
ริเริ่ม	-10.2145
▁ซึ่งทําให้	-10.2147
ในห้อง	-10.2147
ลัม	-10.215
มีข้อ	-10.2151
▁Bo	-10.2155
วาร์	-10.2158
าภรณ์	-10.2158
งดงาม	-10.2163
ในการสร้าง	-10.2164
ฤดูหนาว	-10.2164
มีความสามารถ	-10.2167
ถอย	-10.217
ไหม้	-10.2172
บรรลุ	-10.2176
ติดต่อกัน	-10.2178
เธอก็	-10.2184
ได้ออก	-10.2186
gi	-10.2188
มาร่วม	-10.2194
สัมพันธ์กับ	-10.2202
บลู	-10.2202
ous	-10.2205
แหล่งน้ํา	-10.2218
ไซด์	-10.2219
เรียว	-10.222
ทิว	-10.2221
การรับ	-10.2222
mb	-10.2224
อบรม	-10.2225
นาซี	-10.2226
ประสานงาน	-10.2229
รัด	-10.2235
การกําหนด	-10.2237
อย่างกว้างขวาง	-10.2241
เพียงแต่	-10.2242
อินทรีย์	-10.225
สวรรคต	-10.2252
WWE	-10.2253
การปรับปรุง	-10.2253
ลวดลาย	-10.2254
AT	-10.2258
แถลง	-10.2259
▁You	-10.2259
อาย	-10.2266
คลุม	-10.2269
เคร	-10.2271
ใต้ดิน	-10.2275
รุ่งเรือง	-10.2276
มิล	-10.2276
ในภูมิภาค	-10.2279
eg	-10.2282
หน่อย	-10.2283
ทริ	-10.2285
บูรณะ	-10.2286
มรดก	-10.2297
ตุรกี	-10.2297
พอใจ	-10.2297
เดือนพฤศจิกายน	-10.2297
ach	-10.2303
ว้า	-10.2304
อาสนวิหาร	-10.2308
หมวดหมู่	-10.2309
ปะทะ	-10.2315
ิ่น	-10.2315
แบบนี้	-10.2315
สุรินทร์	-10.2316
ไอ้	-10.2322
มัธยม	-10.2324
เข้าแข่งขัน	-10.2327
ัวร์	-10.2328
พื้นผิว	-10.2329
สังเคราะห์	-10.2336
อํานวย	-10.2337
ลอบ	-10.2338
สมการ	-10.2341
▁ประยุทธ์	-10.2347
สั่งการ	-10.2359
การสํารวจ	-10.2359
ทีมชาติไทย	-10.2363
นักการเมือง	-10.2369
สะอาด	-10.2374
ไผ่	-10.2374
ใกล้กับ	-10.2375
ต้ม	-10.2379
ความสูง	-10.2393
บาย	-10.2394
▁รูป	-10.2395
ลอน	-10.2397
เบิร์ก	-10.2397
ทันสมัย	-10.2398
ซัล	-10.2398
ประเทศเยอรมนี	-10.2406
นําไปสู่	-10.2407
การเปลี่ยน	-10.2409
ั้ง	-10.241
ดรา	-10.2412
ในแนว	-10.2414
สหรัฐฯ	-10.2415
งอก	-10.2419
▁Mar	-10.2422
“	-10.2427
เป็นสัตว์	-10.2427
พลเอก	-10.2429
เปล่า	-10.2435
ซิตี	-10.2435
าภิเษก	-10.2436
▁SMEs	-10.2437
คนละ	-10.2438
ture	-10.2439
▁ไม่ว่าจะเป็น	-10.244
ลงโทษ	-10.2441
แกรนด์	-10.2442
เอกอัครราชทูต	-10.2447
เดือนกุมภาพันธ์	-10.2447
เทอ	-10.2449
เซา	-10.2449
วิจิตร	-10.2449
กีตาร์	-10.2453
----------------	-10.2453
พุ่ม	-10.2453
แผ่นดินไหว	-10.2454
วัฒนา	-10.2458
สหกรณ์	-10.2459
การปรับ	-10.2459
ata	-10.2459
มัล	-10.2464
สปีชีส์	-10.2464
ยูโร	-10.2464
ปีต่อมา	-10.2467
▁เกิดเมื่อ	-10.2468
ปลายปี	-10.2473
จบการศึกษา	-10.2474
จัดแสดง	-10.2477
บึง	-10.2482
ina	-10.2484
ัติ	-10.2486
▁2536	-10.2491
มุมมอง	-10.2492
กองทัพเรือ	-10.2495
ชิงแชมป์โลก	-10.2502
การสนับสนุน	-10.2505
▁2560)	-10.2512
ner	-10.2512
ม่วง	-10.2515
ต้องการให้	-10.2517
องค์กรปกครองส่วน	-10.252
เกษม	-10.252
ตํารา	-10.2521
ิ้ล	-10.2521
ผู้บริโภค	-10.2525
นักดนตรี	-10.2526
เบลเยียม	-10.2531
og	-10.2532
ธาร	-10.2533
เดือนสิงหาคม	-10.2537
สรร	-10.2539
KO	-10.254
สัมมนา	-10.2543
เต่า	-10.2543
สมุทร	-10.2544
ite	-10.2547
กําชับ	-10.2548
ไม่ว่าจะ	-10.2549
เศรษฐศาสตร์	-10.255
▁500	-10.2554
หลายๆ	-10.2557
วัว	-10.2557
▁Te	-10.2561
ชวา	-10.2565
เกราะ	-10.2565
แชมป์โลก	-10.2569
ทารก	-10.2583
ทรงพระกรุณา	-10.2589
ด้านบน	-10.2593
ish	-10.2593
ประท้วง	-10.2594
ถ่ายภาพ	-10.2596
ณิช	-10.2601
ที่มหาวิทยาลัย	-10.2603
▁Ex	-10.2605
การรับรู้	-10.2609
▁โม	-10.2611
แกรมมี่	-10.2616
จมูก	-10.2617
ต่อไปนี้	-10.2618
จัดสรร	-10.2618
รักษาการ	-10.262
คําร้อง	-10.2629
หมวด	-10.2632
/2560	-10.2634
พลเมือง	-10.2634
การปกครองของ	-10.2634
ในสาขา	-10.2636
-4	-10.2637
ประเสริฐ	-10.2639
ทางเลือก	-10.2641
การทดสอบ	-10.2643
คอล	-10.2643
▁1992	-10.265
ฮัม	-10.2653
สุดยอด	-10.2655
tri	-10.2656
พ้นจาก	-10.266
ดาวฤกษ์	-10.266
บิล	-10.266
ในสงคราม	-10.2662
เป็นโรค	-10.2673
▁1996	-10.2673
สํารอง	-10.2679
แดด	-10.268
แล้ง	-10.2681
การแบ่ง	-10.2681
สุริย	-10.2682
กลางคืน	-10.2688
หากิน	-10.2689
แรงบันดาลใจ	-10.2691
มีความหมาย	-10.2691
ภัทร	-10.2696
ฐิ	-10.2699
เดือนกรกฎาคม	-10.2702
เค้า	-10.2705
ผิวหนัง	-10.2706
ว่ายน้ํา	-10.271
ภาคี	-10.2712
▁2533	-10.2713
พื้นดิน	-10.2717
ณฑ	-10.2721
แม็ก	-10.2722
มป์	-10.2725
สวิตเซอร์แลนด์	-10.2725
บรรทุก	-10.2725
แต่เดิม	-10.2735
ส่งผลให้	-10.2737
เท่ากัน	-10.2737
กลายมาเป็น	-10.2741
ton	-10.2741
เบญจ	-10.2744
ได้ทรง	-10.2744
การโจมตี	-10.2744
วันศุกร์	-10.2745
เรื่อย	-10.2747
ในการทํา	-10.2747
เวอร์ชัน	-10.275
ขับรถ	-10.2752
จักรพรรดินี	-10.2757
ทดแทน	-10.2765
มลายู	-10.2766
แผล	-10.2771
การตลาด	-10.2771
กลาย	-10.2777
็ต	-10.2778
ทางการศึกษา	-10.2783
อาจจะเป็น	-10.2786
บรู	-10.2801
รับใช้	-10.2805
lan	-10.2806
ลําปาง	-10.2808
เป็นซิงเกิล	-10.2813
ตติ	-10.2816
ค้าขาย	-10.2817
รับรู้	-10.2819
pp	-10.2821
การเดิน	-10.2823
ราษฎร์	-10.2824
ยกย่อง	-10.2827
บิ๊ก	-10.283
นิต	-10.283
min	-10.283
ond	-10.2833
-5	-10.2834
หลบหนี	-10.2836
สําคัญในการ	-10.2838
เป็นส่วน	-10.284
เทวี	-10.2841
ใช่	-10.2842
อินเตอร์	-10.2844
อัยการ	-10.2853
งานเขียน	-10.2853
เสรีภาพ	-10.2854
นัง	-10.2855
fer	-10.2855
บี้	-10.286
การณ์	-10.2861
ปีศาจ	-10.2865
แพง	-10.287
จัดเก็บ	-10.2871
เลขานุการ	-10.2882
ood	-10.2884
พระธรรม	-10.2886
สามัคคี	-10.2894
ปรี	-10.2895
ค่อย	-10.2904
land	-10.2907
เวียง	-10.2908
เอ็ด	-10.2908
น้อม	-10.2909
ยืนยันว่า	-10.291
เก่าแก่	-10.2911
มองว่า	-10.2911
ป่าไม้	-10.2911
ข้างเคียง	-10.2913
บวช	-10.2913
กวี	-10.2916
มีทั้ง	-10.2918
ดอย	-10.2921
อภัย	-10.2921
มีขนาดเล็ก	-10.2923
ดีที่สุด	-10.2925
กระทรวงการพัฒนา	-10.2925
ฟฟ์	-10.293
ครองราชย์	-10.2932
ค้น	-10.2933
นักวิจัย	-10.2933
สงขลา	-10.2935
นําไปสู่การ	-10.2936
พระเยซู	-10.2941
นายสุ	-10.2944
รูปทรง	-10.2948
ปรับเปลี่ยน	-10.2948
ไหว	-10.2949
มินิ	-10.2956
ปีเดียวกัน	-10.2962
จะเห็น	-10.2962
ชนชั้น	-10.2963
หนาว	-10.2965
จิตรกร	-10.2966
สอบถาม	-10.2968
อู่	-10.2968
มวยไทย	-10.297
คูณ	-10.2971
-0	-10.2974
ขีด	-10.2977
สูญ	-10.2981
รณรงค์	-10.2988
ana	-10.2991
มีมติ	-10.2993
ได้รับเลือกตั้ง	-10.2996
มิวสิก	-10.3005
สนธิ	-10.3006
เรื่อยๆ	-10.3007
สตัน	-10.3019
ความพยายาม	-10.302
ฉีด	-10.3023
เปา	-10.3024
iss	-10.3025
ความสุข	-10.3031
คุ้ม	-10.3031
ka	-10.3034
▁ฝ่าย	-10.3034
เกรง	-10.3035
ตอบรับ	-10.3035
กระสุน	-10.3035
เป็นระบบ	-10.3036
ร่วมมือกับ	-10.3037
ส่อง	-10.3043
เภสัช	-10.3047
ดุสิต	-10.3047
โศก	-10.3049
เคอร์	-10.3051
▁กม	-10.3052
เส้นเมริเดียนที่	-10.3053
รพ	-10.3061
เกต	-10.3069
อิรัก	-10.307
อยด์	-10.3071
แรม	-10.3071
เรื่องราวของ	-10.3072
▁แม่	-10.3075
จัก	-10.3075
ครั้งแรกเมื่อ	-10.3079
ที่แท้จริง	-10.3083
จันทร	-10.3085
นับเป็น	-10.309
แต่อย่างใด	-10.3095
IC	-10.3095
▁ถึงแม้ว่า	-10.3099
ตอนกลาง	-10.31
ทําหน้าที่เป็น	-10.3104
อาสา	-10.3108
CO	-10.3112
ชล	-10.3116
ทําอะไร	-10.3117
เล็	-10.3117
ปอด	-10.3119
โดยรวม	-10.3125
สีน้ําเงิน	-10.3131
สํานึก	-10.3132
แม้ว่า	-10.3133
แต่งงานกับ	-10.3136
คลอด	-10.3136
เกี่ยวข้อง	-10.3138
we	-10.3143
▁กล่าวคือ	-10.3144
บ้า	-10.3144
สิงห	-10.3144
ถูกส่ง	-10.3147
ทุกวัน	-10.3148
ในเครือ	-10.3148
ถูกจับ	-10.3149
ign	-10.3155
แหละ	-10.3155
จัดตั้งขึ้น	-10.3158
▁เป็นชื่อ	-10.3163
yl	-10.3164
ที่ดีที่สุด	-10.3168
az	-10.3168
ตกเป็น	-10.317
ไข	-10.3172
ลูกทุ่ง	-10.3173
ขับไล่	-10.3181
มีคน	-10.3182
บันได	-10.3188
ขณะที่	-10.32
ได้รับบาดเจ็บ	-10.32
▁(3	-10.3203
เที่ยง	-10.3208
lay	-10.3212
นาที	-10.3213
ออกอัลบั้ม	-10.3216
ัฟ	-10.3218
เป้า	-10.3219
สมดุล	-10.322
เวส	-10.3221
เที่ยวบิน	-10.3223
เขตการปกครอง	-10.3224
อุปสรรค	-10.3225
อีสาน	-10.3226
ฟิล์ม	-10.3233
mon	-10.3234
▁ฟุต	-10.3238
บรรเลง	-10.3239
ฮังการี	-10.3239
วัล	-10.3245
เทป	-10.3247
ริช	-10.3249
เครื่องจักร	-10.3249
เมล	-10.3251
จัดการแข่งขัน	-10.3252
ขอบเขต	-10.3258
ress	-10.3268
แลน	-10.3269
สงฆ์	-10.327
ft	-10.3273
,500	-10.328
ST	-10.3281
ที่สุดในโลก	-10.3281
▁2519	-10.3283
พึ่ง	-10.3288
ที่ใช้ในการ	-10.3291
-20	-10.3292
คมนาคม	-10.3292
อาคารเรียน	-10.3293
เชน	-10.3296
อัลบั้มนี้	-10.3296
อุทยาน	-10.3296
ยกฐานะ	-10.3299
จัดอยู่ใน	-10.3299
ชั้นสูง	-10.3312
ศึกษาธิการ	-10.3312
ข้างต้น	-10.3316
เลย์	-10.3317
ทางการเงิน	-10.3318
ผิดพลาด	-10.3319
ือง	-10.3321
ยูนิ	-10.3322
▁2527	-10.3323
ทหารบก	-10.3323
โดยสาร	-10.3323
สํานักงานคณะกรรม	-10.3323
ost	-10.3324
คนร้าย	-10.333
วงษ์	-10.3331
Z	-10.3334
หลักเกณฑ์	-10.3341
ผู้สื่อข่าว	-10.3343
▁Ra	-10.3346
ินทร	-10.3355
นายทหาร	-10.3363
ัณฑ	-10.3365
มัด	-10.3367
กกต	-10.3368
ัณ	-10.3384
▁2001	-10.3385
ผ่านไป	-10.3386
ในภายหลัง	-10.3389
หมัด	-10.3396
5%	-10.3399
ล่วง	-10.3401
อําเภอเมือง	-10.3402
เสด็จสวรรคต	-10.3406
สมทบ	-10.3411
ผ่า	-10.3411
ผู้รับ	-10.3412
บุรีรัมย์	-10.3417
ร้านค้า	-10.3417
ปารีส	-10.3421
ตั้งอยู่บน	-10.3422
เพีย	-10.3424
นารี	-10.3425
นายพล	-10.3426
ปัจจุบันคือ	-10.343
ซิง	-10.3441
ป็อป	-10.3441
การประเมิน	-10.3442
สืบสวน	-10.3443
น้า	-10.3444
ประกอบอาชีพ	-10.3445
บัญชา	-10.3446
ตระหนัก	-10.3448
พระชนมายุ	-10.3448
แวน	-10.3449
เพชรบุรี	-10.3451
สภาพแวดล้อม	-10.3461
▁1998	-10.3462
ความต้องการของ	-10.3462
ครั้งนั้น	-10.3462
ละเมิด	-10.3466
ศุภ	-10.3467
ปลดปล่อย	-10.3468
ดาวเทียม	-10.3471
นอกเหนือจาก	-10.3473
ขึ้นครองราชย์	-10.3473
นิล	-10.3475
เป็นจุด	-10.3481
แฮม	-10.3482
จิตวิทยา	-10.3484
กทม	-10.3489
ต่างจาก	-10.3491
แอส	-10.3492
ก้าวหน้า	-10.3496
รวย	-10.3497
็อบ	-10.35
tu	-10.3501
ki	-10.3503
เป็นภาพ	-10.3506
โระ	-10.3508
รอก	-10.351
คอง	-10.3515
ure	-10.3532
พื้นบ้าน	-10.3532
ข้อเท็จจริง	-10.3535
หม้อ	-10.3537
ซื้อขาย	-10.3543
๊ด	-10.3543
▁โดยเริ่ม	-10.3547
อนุญาต	-10.355
ยัก	-10.3553
ครั้งแรกในปี	-10.3556
▁ชินวัตร	-10.356
-19	-10.3561
สงเคราะห์	-10.3566
ศักราช	-10.3569
ผู้ก่อตั้ง	-10.3578
▁ผลิตโดย	-10.3579
ปทุม	-10.358
ox	-10.3583
▁ก่อนที่	-10.3587
คว้าแชมป์	-10.3587
กําไร	-10.3589
▁ครั้น	-10.3591
แกนนํา	-10.3591
▁กํากับโดย	-10.3595
ทางวิชาการ	-10.3596
น่ะ	-10.36
ฝนตก	-10.3604
ฮั่น	-10.3605
แลก	-10.3605
แด่	-10.3624
บุคลิก	-10.3629
คารา	-10.3631
ท็อป	-10.3631
ore	-10.3633
เป็นชาว	-10.3633
เทียบเท่า	-10.3638
ดวงจันทร์	-10.3639
การปลูก	-10.3644
ไฟล์	-10.3647
2,000	-10.3657
ป้องกันและ	-10.3659
วิก	-10.366
สมุนไพร	-10.366
ดัม	-10.366
ในปีพ	-10.3662
▁แต่ถ้า	-10.3662
เดย์	-10.367
การให้บริการ	-10.3677
กาแฟ	-10.3679
คุก	-10.3683
ไส้	-10.369
เอกซ์	-10.3693
จราจร	-10.3698
สันติภาพ	-10.37
บันทึกเสียง	-10.37
พระภิกษุ	-10.3702
▁มีบุตร	-10.3703
บังคับให้	-10.3704
ในขณะที่	-10.3704
หุ่นยนต์	-10.3705
กองทัพอากาศ	-10.3707
ในวงการ	-10.3709
จินดา	-10.3709
ทอม	-10.371
ต้อนรับ	-10.3711
วุ	-10.3721
รื้อ	-10.3722
aceae	-10.3724
อยู่ใกล้	-10.3726
การลด	-10.3729
ถูกทําลาย	-10.3733
พูดภาษา	-10.3736
แสดงถึง	-10.374
พบปะ	-10.3742
ส่วนกลาง	-10.3744
โดยบริษัท	-10.3746
กระโดด	-10.3749
รัศมี	-10.3749
คลับ	-10.3753
รัชทายาท	-10.3762
เศรษฐกิจและสังคม	-10.3768
แท่น	-10.3773
อุทิศ	-10.3773
ชิด	-10.3773
ความคืบหน้า	-10.3775
ซัง	-10.3775
สิ่งก่อสร้าง	-10.3778
ของสหรัฐอเมริกา	-10.3782
โกรธ	-10.3788
ืด	-10.3788
นามสกุล	-10.3788
วัฒน	-10.3792
ความดัน	-10.3794
คอมมิวนิสต์	-10.3797
แปรรูป	-10.3797
ธนบุรี	-10.3806
ชีวภาพ	-10.3807
วรรค	-10.3808
ไกร	-10.3812
บูร์ก	-10.3814
ภูเก็ต	-10.3814
ไห	-10.3816
▁อีกทั้งยัง	-10.382
ชรา	-10.3821
เครื่องดื่ม	-10.3822
ไช	-10.3822
▁For	-10.3823
าลัย	-10.3824
สิ้นสุดลง	-10.3826
จุดเริ่มต้น	-10.3827
▁ห้องประชุม	-10.3829
ทุกวันนี้	-10.3834
แม่เหล็ก	-10.3836
อภิเษกสมรส	-10.3837
▁2523	-10.3837
วัคซีน	-10.3839
แข็งแกร่ง	-10.3839
มีเนื้อที่	-10.3846
รีย์	-10.3847
เจรจา	-10.3847
เฮนรี	-10.3851
ระดับชั้น	-10.3854
ัตถ	-10.3855
สังคมนิยม	-10.3863
ทางตอนเหนือ	-10.3865
unt	-10.3866
นั้นๆ	-10.3869
bu	-10.387
พริม	-10.3873
AN	-10.3874
ium	-10.3875
แวร์	-10.3876
พรรคไทยรักไทย	-10.3878
ba	-10.388
ตรัส	-10.3882
ในประเทศญี่ปุ่น	-10.3889
รณ์	-10.389
สถาปนิก	-10.3891
เสนา	-10.3893
แห่งแรก	-10.3894
AC	-10.3901
ผบ	-10.3903
คาบสมุทร	-10.391
กระบี่	-10.391
นิสิต	-10.3912
กระบวน	-10.3915
ทางศาสนา	-10.3916
ความผิดปกติ	-10.3922
ทาส	-10.3923
ในบรรดา	-10.3926
ฟอร์ม	-10.3926
ผัง	-10.3929
กระทบ	-10.3933
สกัด	-10.3934
โธ	-10.3935
ประกาศว่า	-10.3941
นาถ	-10.3947
บรรพบุรุษ	-10.3956
หยิบ	-10.3962
International	-10.3962
เฟีย	-10.3966
ล้านดอลลาร์สหรัฐ	-10.3969
หน้าตา	-10.3969
เยี่ยมชม	-10.397
▁เป็นต้นมา	-10.397
มีการเปลี่ยนแปลง	-10.3974
ในสมัยนั้น	-10.398
มอเตอร์	-10.3981
ซัก	-10.3983
อับ	-10.3984
มิใช่	-10.3985
อิเล็กตรอน	-10.3988
เปร	-10.3992
อย่างหนัก	-10.3992
เคยมี	-10.3999
ฝึกอบรม	-10.4002
การทุจริต	-10.4004
หลีกเลี่ยง	-10.4014
จริยธรรม	-10.4014
เวสต์	-10.4019
บัส	-10.402
ให้ความช่วยเหลือ	-10.402
ริค	-10.402
ทางอากาศ	-10.4023
บทประพันธ์	-10.4023
พระราม	-10.4024
พิการ	-10.4025
พระมเหสี	-10.4027
ระยะยาว	-10.4029
เจ้านาย	-10.4033
บริหารส่วนตําบล	-10.4035
แผง	-10.4035
คิน	-10.4041
ใช้สําหรับ	-10.4041
ประเทศเกาหลีใต้	-10.4046
กังวล	-10.4047
สาธิต	-10.4047
การจัดงาน	-10.4048
ผืน	-10.4054
พระนครศรีอยุธยา	-10.4054
ลัง	-10.4054
cr	-10.4055
สเป	-10.4056
สุภาพ	-10.4057
รวมกับ	-10.4066
พันธุกรรม	-10.4073
ปีเตอร์	-10.4077
อุดรธานี	-10.408
ปาง	-10.4089
พระธิดา	-10.4091
รัต	-10.4093
คลอ	-10.4098
เก็ต	-10.4104
▁ซึ่งต่อมา	-10.4105
ฝรั่ง	-10.4106
ระเบียง	-10.4106
อยู่เสมอ	-10.4107
▁1960	-10.4115
บิต	-10.4119
มิวสิกวิดีโอ	-10.412
รังสิต	-10.4126
ใกล้เคียงกับ	-10.4129
จะไม่มี	-10.4131
▁และยังมี	-10.4134
ari	-10.4136
ลาออก	-10.4138
รุ่นใหม่	-10.4142
พวกเธอ	-10.4142
หมาก	-10.4145
นิวซีแลนด์	-10.4146
อํานวยการ	-10.4148
จตุ	-10.415
สงวน	-10.4153
ความไม่	-10.4155
พรรษา	-10.4158
นิช	-10.4158
แขวน	-10.4159
str	-10.4161
ug	-10.4166
มีหลาย	-10.4166
เยาว์	-10.4168
พุทธศาสนา	-10.4168
ปฏิวัติ	-10.417
เพื่อหา	-10.4172
▁1999	-10.4175
พี่สาว	-10.4176
าจารย์	-10.4179
นิเวศ	-10.418
บอร์	-10.4182
เกษตรศาสตร์	-10.4182
มอญ	-10.4187
พูดถึง	-10.4191
ฟอง	-10.4192
ผู้ฝึกสอน	-10.4193
ิร์น	-10.4193
ในช่วงปี	-10.4199
๐๐	-10.4202
ไม่พอใจ	-10.4209
▁Award	-10.4219
ไขมัน	-10.4221
Or	-10.4222
อ่าง	-10.4226
AR	-10.4227
ปกคลุม	-10.4227
ระดม	-10.4227
ท่อน	-10.423
▁รองปลัดกระทรวง	-10.4234
จัดหา	-10.424
มีการจัด	-10.424
▁2530	-10.4242
ย็อง	-10.4243
หุ้ม	-10.4245
ผสมผสาน	-10.4246
ซีดี	-10.425
▁2532	-10.4252
คริสตจักร	-10.4253
แม่ทัพ	-10.4256
ส่วนใหญ่จะ	-10.4257
ออกซิเจน	-10.426
▁2518	-10.4261
เหนียว	-10.4273
วิเศษ	-10.4275
เป็นไม้	-10.4279
รวมตัวกัน	-10.428
พระครู	-10.4289
ภัณฑ์	-10.429
จัดจําหน่าย	-10.4291
เทล	-10.4293
ชมรม	-10.4293
ตอบแทน	-10.4297
เช่นนั้น	-10.4298
แถลงข่าว	-10.4299
ทุกภาคส่วน	-10.43
ซึมเศร้า	-10.43
พวกมัน	-10.4305
ในแง่	-10.4305
ปลอม	-10.4307
เต็มไปด้วย	-10.4307
ไมโคร	-10.4309
ขั้นตอนวิธี	-10.4315
มีความสัมพันธ์	-10.4316
นับแต่	-10.432
ปริญญาตรี	-10.4324
▁2529	-10.4325
สตูดิโอ	-10.4325
เอ็ดเวิร์ด	-10.4327
ลพบุรี	-10.4327
สาธารณรัฐประชาชน	-10.433
วิชัย	-10.4331
ทางการแพทย์	-10.4338
กระทรวงพาณิชย์	-10.4339
ธีร	-10.434
ระงับ	-10.434
pa	-10.4342
ลุ่ม	-10.4342
เมื่อเทียบกับ	-10.4351
100	-10.4357
ลิ้น	-10.4358
วงเงิน	-10.4358
ติดอันดับ	-10.436
แบคทีเรีย	-10.4361
แคบ	-10.4362
อยากจะ	-10.4363
8%	-10.4369
▁2515	-10.437
อุตรดิตถ์	-10.4374
จัดขึ้นที่	-10.4375
ทางวิทยาศาสตร์	-10.4389
ทางทิศตะวันออก	-10.4391
ลาร์	-10.4391
oll	-10.4395
ไม่ทราบ	-10.4395
พิพากษา	-10.4398
การแข่งขันฟุตบอล	-10.44
ไม่อาจ	-10.4402
มีสมาชิก	-10.4406
เป็นลูก	-10.4407
ปรารถนา	-10.4408
ทวีปยุโรป	-10.4411
นิคม	-10.4412
ผง	-10.4412
ข้างหน้า	-10.4415
ตามนโยบาย	-10.442
เข้มข้น	-10.4422
เข้าเรียน	-10.4425
พนม	-10.4428
par	-10.4429
โน้ม	-10.4429
ไถ	-10.4429
มนต์	-10.4438
ล้านนา	-10.4439
บูล	-10.4443
ให้สัมภาษณ์	-10.4445
ยุ่ง	-10.4447
ปริศนา	-10.445
นักบิน	-10.4451
ราชินี	-10.4452
รองนายกรัฐมนตรี	-10.4457
ชนิดอื่น	-10.4463
พับ	-10.4465
นางแบบ	-10.4469
จักรวาล	-10.447
มีขน	-10.447
ไม่ได้รับ	-10.4471
ก้น	-10.4471
ชั้นนํา	-10.4472
เกาหลีเหนือ	-10.4473
๋ง	-10.4475
คริสเตียน	-10.4477
ท่ามกลาง	-10.4477
เหมือง	-10.4484
EK	-10.4485
▁นั่นคือ	-10.4489
คัดค้าน	-10.449
ตุ๊กตา	-10.4491
................	-10.4497
ดัชนี	-10.4498
เปอร์เซีย	-10.4502
วัตร	-10.4506
การสอน	-10.4506
ยังไง	-10.4509
ประพฤติ	-10.451
ได้กลายเป็น	-10.4514
ต่างชาติ	-10.4514
อย่างชัดเจน	-10.4517
พวง	-10.4517
แปซิฟิก	-10.4518
จัดกิจกรรม	-10.4518
ปุ่ม	-10.4519
เนื้อเยื่อ	-10.4519
▁2522	-10.4524
ได้รับผลกระทบ	-10.4539
คาร์บอน	-10.4539
กล่อง	-10.4539
เรียล	-10.4539
ยะลา	-10.4549
In	-10.4553
ประธานกรรมการ	-10.4554
เมนต์	-10.4554
เป็นละครโทรทัศน์	-10.4555
ผู้สนับสนุน	-10.4555
บอร์ด	-10.4556
เลิฟ	-10.456
น้อยลง	-10.4564
บัล	-10.4565
สั่น	-10.4566
เดวิด	-10.4567
ตํา	-10.4567
ธนา	-10.4568
ครัว	-10.4569
amp	-10.4572
บริโภค	-10.4577
สมุด	-10.4578
ซีเรีย	-10.4578
ขุ	-10.4578
มีคุณสมบัติ	-10.458
▁1988	-10.458
ของเหลว	-10.458
มิด	-10.4583
โชติ	-10.4585
วัตถุประสงค์	-10.4589
สับสน	-10.459
โยะ	-10.4592
ขนาดกลาง	-10.4594
เท่าเทียม	-10.4596
ปฏิบัติตาม	-10.46
▁1984	-10.4607
-6	-10.4609
วิท	-10.4615
เซียน	-10.4615
ไม่ชอบ	-10.4619
สมควร	-10.462
รัล	-10.4622
ความก้าวหน้า	-10.4625
ิษฐ	-10.4626
พรี	-10.4626
บัลลังก์	-10.4629
ทางทิศตะวันตก	-10.463
ชลบุรี	-10.4633
own	-10.4636
net	-10.4643
▁1970	-10.4645
ครั้งสุดท้าย	-10.4647
รองชนะเลิศ	-10.465
ฝุ่น	-10.4651
พูดคุย	-10.4653
ได้ย้าย	-10.4653
อากาศยาน	-10.4656
วี่	-10.4658
กราฟ	-10.4661
ชิ้นส่วน	-10.4669
จํานวนหนึ่ง	-10.4675
▁WWW	-10.4678
การค้นพบ	-10.4679
ต้าน	-10.4681
ต้นทุน	-10.4688
ปฏิบัติงาน	-10.469
วีระ	-10.469
เผชิญ	-10.4692
เดี๋ยว	-10.4692
สแตน	-10.4692
ตัก	-10.4693
รายการโทรทัศน์	-10.4694
▁หมู่ที่	-10.4695
รอบคัดเลือก	-10.4696
ทะเบียน	-10.4703
น้อยที่สุด	-10.4706
กดดัน	-10.4707
und	-10.471
ใ	-10.4711
ถามว่า	-10.4712
หลบ	-10.4714
ได้รับการยอมรับ	-10.4718
▁สํานักโฆษก	-10.472
ชุน	-10.4725
นิยมใช้	-10.4733
นาร์	-10.4735
ทางเหนือ	-10.4737
สารประกอบ	-10.4739
พยัญชนะ	-10.4741
เกียรติยศ	-10.4745
โอลิมปิกฤดูหนาว	-10.4746
ผู้เขียน	-10.4749
การฝึก	-10.4749
ุ้ง	-10.4749
เงินทุน	-10.4753
การต่างประเทศ	-10.4758
เทิร์น	-10.4758
คําแนะนํา	-10.4761
ผอ	-10.477
เกา	-10.477
สันนิษฐานว่า	-10.4774
สังฆ	-10.4775
นี้เอง	-10.4776
°	-10.4776
พระทัย	-10.4779
มีชื่อเรียก	-10.4779
รัฐศาสตร์	-10.4781
พระราชดําริ	-10.4783
ปู่	-10.4786
เชื่อกันว่า	-10.4788
▁2528	-10.479
นเรศวร	-10.4798
เกล็ด	-10.4799
ดําเนินงาน	-10.4802
ความรับผิดชอบ	-10.4802
กระทรวงกลาโหม	-10.4807
TV	-10.481
เสร็จสิ้น	-10.4811
สุราษฎร์ธานี	-10.4812
สไตล์	-10.4812
รัชสมัย	-10.4818
ในกรณีที่	-10.4823
ออล	-10.4826
แต่ละคน	-10.4833
จะเกิด	-10.4834
▁เขายัง	-10.4838
ลุย	-10.4838
ตุลาการ	-10.484
จึงไม่	-10.4842
เตียง	-10.4844
พุ่ง	-10.4851
เตา	-10.4854
มวยสากล	-10.4855
ครม	-10.4862
อยากให้	-10.4866
ได้รับตําแหน่ง	-10.4872
ก็เริ่ม	-10.4875
ควบคู่	-10.4875
ตั้งถิ่นฐาน	-10.4876
ก่อนหน้านั้น	-10.488
สิทธิมนุษยชน	-10.4883
ick	-10.4886
ผสมพันธุ์	-10.4886
▁ซม	-10.4887
บ้านพัก	-10.4887
การวิเคราะห์	-10.4891
สวด	-10.4894
กระบอก	-10.49
ญญา	-10.4909
DLU	-10.4911
MCHA	-10.4926
ขยะ	-10.493
มาเรีย	-10.4932
ประเทศอินเดีย	-10.4936
เปิดให้บริการ	-10.4939
พี่น้องประชาชน	-10.4939
ด้อย	-10.494
ภูมิศาสตร์	-10.4941
โลกครั้งที่สอง	-10.4942
สาวๆ	-10.4945
ศาสตรบัณฑิต	-10.4948
บรรณ	-10.4949
เข้มแข็ง	-10.4952
สุสาน	-10.4954
สงกรานต์	-10.4955
ณัฐ	-10.4955
ครั้งใหญ่	-10.4958
ผิดปกติ	-10.4959
ปริญญาโท	-10.4959
ound	-10.4964
พยาน	-10.4966
แต่งตั้งให้	-10.4968
ลูกหลาน	-10.4973
ชํานาญ	-10.4976
ปาล์ม	-10.4977
เมะ	-10.4977
หันไป	-10.498
แรงดัน	-10.498
ัญญา	-10.4981
ประจุ	-10.4982
หม่อมราชวงศ์	-10.4987
ศรีสะเกษ	-10.4991
ตรวจเยี่ยม	-10.4991
ทุกๆ	-10.4992
ถนนสาย	-10.4997
ไหล่	-10.5004
เข้าด้วยกัน	-10.5005
ข้อหา	-10.5006
นัล	-10.5006
อ้วน	-10.5015
อ้อม	-10.5018
สกอตแลนด์	-10.502
tro	-10.5022
หุ่น	-10.5028
อยู่ห่างจาก	-10.503
ชิต	-10.5031
โดยปกติ	-10.5033
ราชาธิบดี	-10.5034
บังคับบัญชา	-10.5043
รากฐาน	-10.5043
เนล	-10.5046
ขึ้นทะเบียน	-10.5047
แก่ประชาชน	-10.505
เดือด	-10.5056
อนุบาล	-10.5058
ลงทะเบียน	-10.5061
เทีย	-10.5061
ชาวนา	-10.5062
การช่วยเหลือ	-10.5064
ชื่นชอบ	-10.5065
ดจ์	-10.5068
พระธาตุ	-10.5072
ตรัง	-10.5073
เทพเจ้า	-10.5074
สะกด	-10.5074
ตะวันตกเฉียงใต้	-10.5078
สมุทรปราการ	-10.5078
มอล	-10.508
ันต์	-10.508
ภูมิอากาศ	-10.5084
คํานึงถึง	-10.5085
อธิการบดี	-10.5085
ร็อค	-10.5092
ในปีเดียวกัน	-10.5093
ปักกิ่ง	-10.5101
ire	-10.5101
แกะ	-10.5104
ความจําเป็น	-10.5105
คณะสงฆ์	-10.5106
เกียร์	-10.5107
มากยิ่งขึ้น	-10.5107
ชาวเยอรมัน	-10.5112
ชื่อเดิม	-10.5117
สีสัน	-10.5119
หลายปี	-10.5121
gu	-10.5123
คิดค้น	-10.5128
มีความสุข	-10.5128
กรุงลอนดอน	-10.5132
tory	-10.5135
เวลส์	-10.5136
อาวุโส	-10.5136
ครัวเรือน	-10.5137
เสน	-10.5139
จุดประสงค์	-10.5139
เครื่องดนตรี	-10.5142
บางกอก	-10.5144
มีรายได้	-10.5145
ึ่ง	-10.5148
ประเทศออสเตรเลีย	-10.515
ฉลาด	-10.5151
log	-10.5157
กลุ่มนี้	-10.5158
เลี้ยงดู	-10.5167
เซอ	-10.5167
เข้าศึกษา	-10.5168
นักธุรกิจ	-10.5171
คาร์ล	-10.5178
ประหยัด	-10.518
เนียม	-10.5183
col	-10.5185
วารสาร	-10.5187
ทิเบต	-10.5189
เบื้องหลัง	-10.5194
อย่างรุนแรง	-10.5199
คนสุดท้าย	-10.52
เรียกกันว่า	-10.5202
โปรดิวเซอร์	-10.5202
ใบอนุญาต	-10.5204
พระบรมราช	-10.5209
เด็กหญิง	-10.521
อยู่ในเขต	-10.5212
ทําให้เธอ	-10.5217
อีกมากมาย	-10.5219
มุ่งเน้น	-10.5221
กํากับการแสดงโดย	-10.5224
ฤกษ์	-10.5229
มัย	-10.5235
และวัฒนธรรม	-10.5238
พริก	-10.5238
บีบ	-10.5238
ด้านข้าง	-10.5241
บนเกาะ	-10.5244
ภายในประเทศ	-10.5248
พลอย	-10.5258
lin	-10.5267
ทางทหาร	-10.5268
ต้นฉบับ	-10.5268
ิกส์	-10.5275
แพน	-10.5277
ular	-10.5284
ฉิ	-10.5288
ทางราชการ	-10.5295
คลาสสิก	-10.5299
ประหารชีวิต	-10.5306
ครั้งหนึ่ง	-10.5307
สูงที่สุด	-10.531
ฝ่า	-10.531
บล็อก	-10.5312
นครสวรรค์	-10.5313
เชี่ยวชาญ	-10.5315
ชาญ	-10.5317
สารเคมี	-10.5321
สกลนคร	-10.5321
คําพูด	-10.5322
พิธีเปิด	-10.5327
โมเดล	-10.5332
dia	-10.5334
กัปตัน	-10.5336
ก็ยังคง	-10.5336
กระทรวงคมนาคม	-10.5343
รื่น	-10.5344
สถิต	-10.5348
แหวน	-10.5348
แฟชั่น	-10.5348
พบเห็น	-10.535
พํานัก	-10.5351
old	-10.5355
กระเป๋า	-10.5358
dy	-10.5372
เดร	-10.5372
เพื่อพัฒนา	-10.5372
pan	-10.5374
บุตรสาว	-10.5378
จะเริ่ม	-10.538
อธิบดี	-10.5388
ตัง	-10.5389
เชื่อถือ	-10.5398
▁1997	-10.5403
ปนัดดา	-10.5404
แห่งราชวงศ์	-10.5404
นักมวยปล้ํา	-10.5415
ax	-10.5426
มีหลักฐาน	-10.5427
การรบ	-10.5438
แม้จะ	-10.544
นุช	-10.5441
ตั้งแต่สมัย	-10.5442
บ้านเรือน	-10.5444
▁2525	-10.5444
ชาวยิว	-10.5448
ต้นกําเนิด	-10.5456
หัวหน้าพรรค	-10.5456
แกง	-10.5457
สุพรรณบุรี	-10.5457
ประกาศใช้	-10.5461
มีเนื้อหา	-10.5468
เคีย	-10.547
อนามัย	-10.5471
อดีตสมาชิก	-10.5472
ประกาศนียบัตร	-10.5479
ริชาร์ด	-10.5479
ผิดกฎหมาย	-10.5486
รางวัลออสการ์	-10.5487
ทางวัฒนธรรม	-10.5487
มนุษย	-10.5489
อินทร	-10.5508
บรรเทา	-10.551
ะห์	-10.5514
ณ์	-10.5515
โอรส	-10.5519
ode	-10.5524
น้ําตก	-10.5527
มีความรู้	-10.5529
รู้สึกว่า	-10.5532
ster	-10.5534
ฟัก	-10.554
มุ่งมั่น	-10.5542
องค์ชาย	-10.5542
ปราศจาก	-10.5543
กรุ๊ป	-10.5548
แช่	-10.5548
ตามธรรมชาติ	-10.5551
ล้อมรอบ	-10.5553
อุทกภัย	-10.5555
นารายณ์	-10.5555
ิ่ม	-10.5561
หน้าต่าง	-10.5562
ไม่ควร	-10.5568
มกุฎราชกุมาร	-10.557
เนียน	-10.5573
ความเป็นจริง	-10.5576
เฉียงเหนือของ	-10.5578
▁ทว่า	-10.5578
ที่พบใน	-10.5579
พรรคคอมมิวนิสต์	-10.5582
ผลงานเพลง	-10.5583
จักรยาน	-10.5587
ตอนใต้	-10.5595
ร้าง	-10.5602
เด็กและเยาวชน	-10.5603
ทางประวัติศาสตร์	-10.5607
วันพุธ	-10.561
หนุน	-10.5618
กิโลเมตร	-10.5621
ท่าทาง	-10.5626
▁No	-10.5626
ทุกครั้ง	-10.5628
ลิเวอร์พูล	-10.5632
เบอร์ลิน	-10.5632
ทั้งสองฝ่าย	-10.5636
พระตําหนัก	-10.5637
หงส์	-10.5639
ทรู	-10.5642
ซื่อ	-10.5645
รองจาก	-10.5646
ไลท์	-10.565
▁กลุ่มประชาสัม	-10.5655
มั่งคั่ง	-10.5655
โชกุน	-10.5655
หย่า	-10.5663
คนพิการ	-10.5663
มีลักษณะคล้าย	-10.5666
วันหนึ่ง	-10.5668
ตรงกลาง	-10.567
จิตรกรรม	-10.5675
การกระจาย	-10.5681
row	-10.5681
เยื่อ	-10.5692
อาชญากรรม	-10.5694
แขนง	-10.5696
แบบจําลอง	-10.57
▁อนึ่ง	-10.5702
เฮอร์	-10.5702
เศร้า	-10.5709
กุหลาบ	-10.5709
พระราชบิดา	-10.571
นัม	-10.571
ข่าย	-10.5714
ื่	-10.572
ชื่น	-10.5722
โซ่	-10.5722
โดยมาก	-10.5725
วิกฤต	-10.5726
ชาวฝรั่งเศส	-10.5728
ตามปกติ	-10.573
คัส	-10.573
สนอง	-10.5733
พันธ์และเผยแพร่	-10.5734
การขยาย	-10.5735
Al	-10.5737
แสวงหา	-10.574
อี้	-10.5742
ซ่อม	-10.5747
ระดับโลก	-10.5747
ภูมิประเทศ	-10.5752
อนุสรณ์	-10.5755
▁๑๐	-10.5756
แซม	-10.5756
เล็บ	-10.5762
อัญเชิญ	-10.5764
ขโมย	-10.5764
เหล้า	-10.5769
ภูเขาไฟ	-10.5771
ซิงเกิ้ล	-10.5772
โลหิต	-10.5772
การจัดทํา	-10.5774
รามคําแหง	-10.5779
สุ่ม	-10.5781
เหลืออยู่	-10.5782
อุ่น	-10.5783
▁1994	-10.5786
วัชร	-10.5786
ลูกจ้าง	-10.5786
ซับ	-10.5787
เจ้าบรมวงศ์เธอ	-10.5798
เรียกร้องให้	-10.5802
ราชบุรี	-10.5803
โรมาเนีย	-10.5803
ภาพยนตร์ไทย	-10.5804
แยกตัว	-10.5805
ภาพถ่าย	-10.5807
กํากับดูแล	-10.5809
หมุนเวียน	-10.5812
ชุดแรก	-10.5813
อัป	-10.5816
สุลต่าน	-10.5818
บรรพ	-10.5819
คนสําคัญ	-10.5824
จําคุก	-10.5828
อัศวิน	-10.5834
▁2524	-10.5834
ตอนปลาย	-10.5837
กรีซ	-10.5841
ทางโทรทัศน์	-10.5843
car	-10.5844
ไปทั่ว	-10.5844
เดินทางกลับ	-10.5849
ยับยั้ง	-10.585
เข้าชม	-10.5854
พลิก	-10.5857
อรี่	-10.586
เชษฐ	-10.5861
พ่อค้า	-10.5863
เป็นอาจารย์	-10.5865
ภาษาญี่ปุ่น	-10.5865
ปทุมธานี	-10.5866
เชียงราย	-10.5867
คนโต	-10.5871
มีผลต่อ	-10.5871
รอม	-10.5876
ครั้งที่สอง	-10.5878
ยืด	-10.588
ที่มีขนาดใหญ่	-10.588
ด้านการศึกษา	-10.5881
ER	-10.5888
IT	-10.5899
รุ่นแรก	-10.5902
ร้าว	-10.5902
าสน์	-10.5902
▁2526	-10.5903
ยี่	-10.5903
บางแห่ง	-10.5906
สร้อย	-10.5909
ติดเชื้อ	-10.591
พอดี	-10.5913
ทายาท	-10.5913
50,000	-10.5913
ภาพเขียน	-10.5917
ร้านอาหาร	-10.5917
เพื่อลด	-10.592
กลืน	-10.5921
▁2516	-10.5922
การส่งออก	-10.5929
แร็	-10.5929
ประทับใจ	-10.5934
เสถียร	-10.5939
เคราะห์	-10.5943
จุฬา	-10.5944
เนื้อร้อง	-10.5945
เสียใจ	-10.5947
เมื่อครั้ง	-10.5948
อบอุ่น	-10.5955
ไม่อยาก	-10.5955
ประยุกต์	-10.5962
อาร์เจนตินา	-10.5977
อ้อย	-10.5977
เขตร้อน	-10.5979
มีดังนี้	-10.5981
เบี้ย	-10.5982
เคลือบ	-10.5985
แกม	-10.5992
ปัสสาวะ	-10.5993
สันตะปาปา	-10.5993
หัวเมือง	-10.5997
วอลเลย์บอลหญิง	-10.6001
คุณพ่อ	-10.6003
ฟอน	-10.6004
ระดับมัธยมศึกษา	-10.6008
บาป	-10.601
ลาออกจาก	-10.6012
ล่มสลาย	-10.6017
ประเทศแคนาดา	-10.6018
อรรถ	-10.6021
line	-10.6023
โรงภาพยนตร์	-10.603
คงจะ	-10.6036
ทางสถานีโทรทัศน์	-10.604
ถูกสร้างขึ้น	-10.6042
วงการบันเทิง	-10.6045
พฤหัสบดี	-10.6047
เป็นประโยชน์	-10.605
สํานักงานใหญ่	-10.6052
ในช่วงแรก	-10.6053
อลล์	-10.6059
ล่วงหน้า	-10.6059
ไม่เห็น	-10.6059
โดยไม่มี	-10.6062
กลั่น	-10.6068
นําเอา	-10.6072
OEM	-10.6073
▁University	-10.6073
วิศวกร	-10.608
พัฒนาระบบ	-10.608
คู่แข่ง	-10.6086
SA	-10.6088
ปากีสถาน	-10.6089
Qu	-10.6094
ชลประทาน	-10.6097
จํานวนประชากร	-10.6099
อรุณ	-10.61
มวยปล้ํา	-10.6102
นักแต่งเพลง	-10.6105
ต้านทาน	-10.6106
อีกครั้งหนึ่ง	-10.6117
กลางวัน	-10.6117
ศึกษาขั้นพื้นฐาน	-10.6119
อุปถัมภ์	-10.6121
@	-10.6121
ประเทศชาติ	-10.6122
มิสแกรนด์	-10.6122
สัมภาษณ์	-10.6134
ผูกพัน	-10.6135
สยามบรมราชกุมารี	-10.6145
พระบิดา	-10.6146
กุมาร	-10.6156
ปริญญาเอก	-10.6167
รถถัง	-10.6176
โรเบิร์ต	-10.6186
เบียร์	-10.619
ซีเกมส์	-10.6191
แบ่งแยก	-10.6194
บริหารจัดการ	-10.6203
ส่วนภูมิภาค	-10.6205
อย่างเต็มที่	-10.6207
พิชิต	-10.6207
สถาบันอุดมศึกษา	-10.6211
ตั้งขึ้น	-10.6211
ทวีปเอเชีย	-10.6216
ถล่ม	-10.6219
เต้	-10.6219
ฝึกฝน	-10.6219
กรีน	-10.6224
ผู้สมัคร	-10.623
โบราณสถาน	-10.623
แลง	-10.6233
ระยอง	-10.6234
ปลุก	-10.6255
เพาะปลูก	-10.6255
แทนที่จะ	-10.6256
เขียนภาพ	-10.6257
ห้าง	-10.6261
พักผ่อน	-10.6261
เริ่มขึ้น	-10.6263
มหาสารคาม	-10.6268
ا	-10.6268
การจราจร	-10.6269
ใช้บริการ	-10.6275
อิจิ	-10.6275
โดยไม่ต้อง	-10.6283
จะเกิดขึ้น	-10.6289
CD	-10.629
แนวร่วม	-10.6294
เทค	-10.6294
คัม	-10.6295
เตะ	-10.6296
▁2517	-10.6301
ชํา	-10.6304
ธ์	-10.6312
ฟินแลนด์	-10.6317
หนวด	-10.6317
มีการสร้าง	-10.6318
ort	-10.6318
เงินรางวัล	-10.6322
ศุลกากร	-10.6325
พลาสติก	-10.6325
เพื่อนร่วม	-10.6326
จําเลย	-10.6328
แอฟริกาใต้	-10.6339
ดาราจักร	-10.6341
ประสบปัญหา	-10.6349
การเข้าถึง	-10.635
‘	-10.635
▁2511	-10.6351
ว่าด้วยการ	-10.6352
สั้นๆ	-10.6354
มีชีวิตอยู่	-10.6356
▁2520	-10.6357
ปีที่ผ่านมา	-10.6358
ร่วง	-10.6359
หลี่	-10.6366
สามก๊ก	-10.6367
ung	-10.6372
เชียร์	-10.6373
นักเตะ	-10.6376
เรียกชื่อ	-10.6377
การปฏิบัติงาน	-10.6378
ให้ความสําคัญกับ	-10.6381
ลําพูน	-10.6384
แถม	-10.6392
ฝึกหัด	-10.6396
ake	-10.6398
ตรงกันข้าม	-10.64
▁with	-10.64
สม่ําเสมอ	-10.6408
โบราณคดี	-10.6412
ที่ระลึก	-10.6413
เน็	-10.6415
ดึงดูด	-10.6419
ative	-10.642
คาดว่าจะ	-10.6421
ความเข้มแข็ง	-10.6425
ave	-10.6425
การตัดสินใจ	-10.6434
สารนิเทศ	-10.6442
ความตาย	-10.6447
สนทนา	-10.645
ประเทศลาว	-10.6456
oss	-10.6456
ได้มีโอกาส	-10.6456
ปรีชา	-10.6456
สุรา	-10.6458
ลี้ภัย	-10.6458
เจ้าจอมมารดา	-10.6458
บิด	-10.646
รักษาโรค	-10.6462
เป็นรูปธรรม	-10.6463
สีฟ้า	-10.6463
ไลฟ์	-10.6467
น้อยมาก	-10.6472
บรรดาศักดิ์	-10.6475
แฝด	-10.6475
Cr	-10.6477
ฮิว	-10.6487
ต้นปี	-10.649
อย่างแท้จริง	-10.6492
อาราม	-10.6497
ประติมากรรม	-10.65
พราหมณ์	-10.65
สีเทา	-10.6501
ขัดแย้ง	-10.6509
ขาดแคลน	-10.6509
ผจญภัย	-10.6509
MO	-10.651
พระศพ	-10.6513
ผู้ใด	-10.6515
:00	-10.6516
บําเพ็ญ	-10.6525
การชุมนุม	-10.6527
▁Car	-10.6533
หมวก	-10.6534
สักการะ	-10.6534
uk	-10.6534
โพรง	-10.6536
โรคมะเร็ง	-10.6539
RI	-10.654
บทเพลง	-10.6542
พูน	-10.6543
จังหวัดชลบุรี	-10.6547
งานศึกษา	-10.655
ความเดือดร้อน	-10.6568
พระราชินี	-10.6576
เริ่มใช้	-10.6583
พิกัด	-10.6585
แจ๊	-10.6592
▁ภายหลังจาก	-10.6598
ทําประตู	-10.6601
พระสันตะปาปา	-10.6601
วอชิงตัน	-10.6602
สรรค์	-10.6609
จันทบุรี	-10.6611
รักษาความปลอดภัย	-10.6613
ตะวัน	-10.6614
เต้า	-10.6615
SME	-10.6618
ุ้ย	-10.6624
โรงเรียนมัธยม	-10.6624
เนะ	-10.6635
ระบาย	-10.6635
ระวัง	-10.6637
เจ้าคณะ	-10.6638
การแก้ปัญหา	-10.6642
แมนเชสเตอร์	-10.6644
เชิญชวน	-10.6654
ใช้วิธี	-10.6655
ห่อ	-10.6657
เทวดา	-10.6659
มะพร้าว	-10.6661
พรมแดน	-10.6661
เสนาบดี	-10.6661
อย่างใกล้ชิด	-10.6666
แม่น้ําเจ้าพระยา	-10.6667
กลยุทธ์	-10.667
ไหลผ่าน	-10.6677
ภาษาฝรั่งเศส	-10.6678
กางเขน	-10.6678
หมึก	-10.6678
ฟิลิป	-10.668
เพื่อเพิ่ม	-10.6688
ให้ความสําคัญ	-10.6691
เฉลิมฉลอง	-10.6697
เป็นที่รู้จักกัน	-10.6697
ทะลุ	-10.6699
สูญพันธุ์	-10.6699
เป็นเวลานาน	-10.6703
ถูกเรียกว่า	-10.6704
เสกสมรส	-10.6707
รองเท้า	-10.6708
ประถม	-10.6709
สลัก	-10.6709
บ่าย	-10.6712
ราชอิสริยาภรณ์	-10.6714
ระดับนานาชาติ	-10.6716
ความลับ	-10.6721
ประสิทธิ์	-10.6721
บุหรี่	-10.6721
able	-10.6734
รอยด์	-10.6737
ในช่วงปลาย	-10.6737
ประเทศพม่า	-10.6737
สุวรรณภูมิ	-10.6739
ก็ยังมี	-10.6741
แฝง	-10.6747
BC	-10.6753
ราชวิทยาลัย	-10.6754
ศาสนาพุทธ	-10.6758
โพร	-10.6763
เอเชียนเกมส์	-10.6764
โยะชิ	-10.6765
มีความหมายว่า	-10.6767
▁School	-10.6773
เพลงชาติ	-10.6773
vis	-10.6779
วุ่นวาย	-10.679
ตลอดทั้ง	-10.679
ล้านบาท	-10.6791
ฆาต	-10.6793
ขยับ	-10.6794
ไง	-10.6796
ook	-10.6797
เอียง	-10.6799
ฐานข้อมูล	-10.68
จับมือ	-10.6806
ปฏิทิน	-10.6807
ดิจิตอล	-10.6807
สตูดิโออัลบั้ม	-10.6819
เพิ่มมากขึ้น	-10.6826
ade	-10.683
พันปี	-10.6832
กลับบ้าน	-10.6839
ความเหมาะสม	-10.684
▁1991	-10.6843
อาสาสมัคร	-10.6844
AP	-10.6855
นักบวช	-10.6861
ทํารายได้	-10.6867
ระเจ้าบรมวงศ์เธอ	-10.6873
สรรเสริญ	-10.6877
สภานิติบัญญัติ	-10.6877
ปิ่น	-10.6879
ศตวรรษ	-10.6879
แรน	-10.6886
แทร	-10.6888
▁2503	-10.689
การบริโภค	-10.6891
0.00	-10.6892
จุดเด่น	-10.6893
cho	-10.6894
ร้ายแรง	-10.6896
tern	-10.6901
ชักชวน	-10.6904
หนีไป	-10.691
รสชาติ	-10.6912
ลอสแอนเจลิส	-10.6912
คุกคาม	-10.6912
ในช่วงต้น	-10.6918
จูเนียร์	-10.6929
ไฮโดรเจน	-10.693
นักรบ	-10.6932
ได้รับการยกย่อง	-10.6933
ร่วมสมัย	-10.6935
มอบรางวัล	-10.6935
บิลบอร์ด	-10.6939
บางครั้งก็	-10.6947
โจโฉ	-10.6947
mm	-10.6948
ท้องฟ้า	-10.6949
AM	-10.6953
ดําเนินคดี	-10.6961
ก็คง	-10.6967
ท่วม	-10.6968
แท่ง	-10.697
เก็บไว้	-10.6973
เอ่ย	-10.6974
พุทธศตวรรษที่	-10.6976
พะเยา	-10.698
โดยอาศัย	-10.6981
เป็นเหตุให้	-10.6982
3,000	-10.6985
เนตร	-10.6986
จันท	-10.6988
▁1972	-10.6989
ica	-10.699
การเจรจา	-10.6991
บรรณาธิการ	-10.6991
ปืนใหญ่	-10.6995
•	-10.7
ฮินดู	-10.7
มีวัตถุประสงค์	-10.7001
▁1995	-10.7013
ประภา	-10.7019
แม่น้ําโขง	-10.7019
ปรึกษา	-10.7023
ส่งสัญญาณ	-10.7024
ปานกลาง	-10.7026
ให้การสนับสนุน	-10.7029
เจียง	-10.7029
กลุ่มดาว	-10.7029
สังคมไทย	-10.703
ลเลอร์	-10.703
เกินกว่า	-10.7031
กมล	-10.7031
เร็	-10.7035
เด็ดขาด	-10.7035
ไปรษณีย์	-10.7035
ํ	-10.7041
กลอน	-10.7042
แพท	-10.7043
วิพากษ์วิจารณ์	-10.7044
-8	-10.7045
เนปาล	-10.7048
โครงสร้างพื้นฐาน	-10.7051
ผลลัพธ์	-10.7053
เป็นที่ยอมรับ	-10.7058
ขยายพันธุ์	-10.706
ด้วยเช่นกัน	-10.7065
สมาธิ	-10.7071
มีเดีย	-10.7075
กอบ	-10.7076
ผู้จัดการทีม	-10.7077
ค่ายเพลง	-10.708
ไหว้	-10.7082
ธิราช	-10.7084
นรก	-10.7094
ส่วนผสม	-10.7095
ต่างหาก	-10.7095
▁2475	-10.71
แก๊ง	-10.71
▁กรมพระ	-10.7103
ัฏ	-10.7105
เห็นได้ชัด	-10.7109
ฟอส	-10.7115
เป็นบุตรของ	-10.7118
ร่วมแสดง	-10.7118
***********	-10.7118
เทียบกับ	-10.712
พระอิสริยยศ	-10.7121
แมรี	-10.7122
เปรม	-10.7123
คล้ายคลึงกับ	-10.7124
คําสอน	-10.7132
ระบายน้ํา	-10.7136
ตัวแปร	-10.7137
ลลี่	-10.714
พระราชกฤษฎีกา	-10.7142
ประชาคม	-10.7147
ประเทศสเปน	-10.7153
น้ําจืด	-10.7156
การแลกเปลี่ยน	-10.7158
ัญญ	-10.7162
▁แม้ว่าจะ	-10.7163
ชีววิทยา	-10.7163
สิงโต	-10.7169
มหาสมุทรแปซิฟิก	-10.7169
▁2521	-10.7176
ยกทัพ	-10.718
พอสมควร	-10.7181
ไลน์	-10.7192
ไม่ปรากฏ	-10.7192
use	-10.7193
ได้รับคํา	-10.7194
▁1993	-10.7195
โคลน	-10.72
เรื่อยมา	-10.7205
บูรพา	-10.7206
ไม่จําเป็นต้อง	-10.721
ext	-10.721
วิตามิน	-10.7223
มีการนํา	-10.7227
ความเชื่อมั่น	-10.7227
เจ้าอาวาสวัด	-10.7229
เทิล	-10.7229
ฮิตเลอร์	-10.7232
เมตตา	-10.7232
ภาษากรีก	-10.7237
National	-10.7241
▁สํานักงานปลัด	-10.7242
oph	-10.725
พ้อง	-10.7251
ความเป็นอยู่	-10.7255
ตั้งครรภ์	-10.7256
ดิโอ	-10.7256
เคิล	-10.7257
มหาวิทยาลัยมหิดล	-10.7267
วิกิพีเดีย	-10.7268
เอนไซม์	-10.7268
เป็ด	-10.7268
กัม	-10.7269
ix	-10.7269
รับจ้าง	-10.7272
เจ้าอาวาส	-10.7272
พราน	-10.7272
▁ทั้งยัง	-10.7272
แฮร์รี่	-10.7277
มิวสิค	-10.7277
ชุมพร	-10.7278
มีผู้เสียชีวิต	-10.7281
โหวต	-10.7287
ความหวัง	-10.7287
ash	-10.7288
รอบชิงชนะเลิศ	-10.7289
รบกวน	-10.7294
มหานคร	-10.7294
กอล์ฟ	-10.7295
เหย้า	-10.7295
อันดับหนึ่ง	-10.7299
cre	-10.7312
แอนิเมชัน	-10.7314
มีแนวโน้ม	-10.7314
ทบทวน	-10.7323
สํานักงานเขต	-10.7325
ดิฉัน	-10.733
นวม	-10.733
เด็กชาย	-10.7332
การอบรม	-10.7341
อย่างจริงจัง	-10.735
จีเอ็มเอ็ม	-10.7359
เตรียมความพร้อม	-10.7359
จักรวรรดิโรมัน	-10.7362
ลําบาก	-10.7367
ความทรงจํา	-10.7369
อ็อง	-10.7369
ถี	-10.7371
▁10,000	-10.7375
****************	-10.7375
เชิด	-10.7378
เทพรัตนราชสุดาฯ	-10.7378
การคํานวณ	-10.7379
การจัดการศึกษา	-10.7383
กุญแจ	-10.7387
ไมตรี	-10.7388
ดอลลาร์	-10.74
บริหารธุรกิจ	-10.7403
วางไข่	-10.7404
จบลง	-10.7405
ถึงแก่กรรม	-10.7406
ประเทศมาเลเซีย	-10.7408
ไคร	-10.741
▁2500	-10.7413
ทางทิศเหนือ	-10.7415
เทนนิส	-10.7416
pre	-10.7417
หนังสือการ์ตูน	-10.742
อิฐ	-10.742
-7	-10.7426
ดอกเบี้ย	-10.7426
เบรีย	-10.7431
กว้างขวาง	-10.7438
พระอนุชา	-10.7442
ธนาคารออมสิน	-10.7442
▁มิลลิเมตร	-10.7442
ธนู	-10.7445
เลือกตั้งสมาชิก	-10.7446
วันหยุด	-10.7446
พระมารดา	-10.745
ค้นคว้า	-10.7453
อารยธรรม	-10.7468
เผด็จการ	-10.747
มากเกินไป	-10.7471
ภิกษุ	-10.7473
บกพร่อง	-10.7479
ก่อการร้าย	-10.7479
▁ปีก่อนคริสตกาล	-10.7479
แตกต่างกันไป	-10.7482
รถโดยสาร	-10.7483
ประมวลผล	-10.7483
สีชมพู	-10.7485
มีความสูง	-10.7486
เชือก	-10.7498
เพ็ญ	-10.7499
กติกา	-10.7499
ถ้าหาก	-10.7502
▁Man	-10.7502
ุ่ย	-10.7503
มหาศาล	-10.7505
ปั่น	-10.7508
ดําเนินโครงการ	-10.7515
ถูกนํามา	-10.7518
ุ้ม	-10.7524
กระจุก	-10.7526
▁Center	-10.7526
คาถา	-10.7526
จัดให้มี	-10.7528
บางที	-10.7533
John	-10.7535
วินโดวส์	-10.7535
พานิช	-10.7541
ระบบประสาท	-10.7543
▁2513	-10.7543
พยากรณ์	-10.7544
วันอังคาร	-10.7546
บารมี	-10.7555
สิบสอง	-10.7555
สัตว์เลี้ยง	-10.7556
ซ่อมแซม	-10.7563
ตามพระราชบัญญัติ	-10.7567
เถอะ	-10.7567
อ่อนแอ	-10.7569
คณะอนุกรรมการ	-10.7572
เกลียด	-10.7572
▁Ph	-10.7576
ห้องสมุด	-10.7581
หมิง	-10.7587
พฤกษ์	-10.7588
สถาบันการศึกษา	-10.7589
รถไฟใต้ดิน	-10.7594
สามเณร	-10.76
แต่งเพลง	-10.7601
ทวาร	-10.7605
พยายามที่จะ	-10.7606
หีบ	-10.761
เค็ม	-10.761
สมาพันธ์	-10.761
ณิ	-10.7617
เป็นฝ่ายชนะ	-10.7624
อนันต์	-10.763
ดิวิชัน	-10.7638
ลูกเสือ	-10.7646
อเล็กซานเดอร์	-10.7647
อวอร์ด	-10.7648
วุฒิสภา	-10.7648
mic	-10.7652
สุจริต	-10.7657
▁ประกอบกับ	-10.7659
ร่วมงานกับ	-10.7667
ภาษาละติน	-10.7677
เหลือเพียง	-10.768
พระบรมราชโองการ	-10.7694
ละครเวที	-10.7698
พระมหากรุณาธิคุณ	-10.7713
อนุสาวรีย์	-10.7713
แคระ	-10.7716
เข้าฉาย	-10.7721
ชมพู	-10.7723
แพทยศาสตร์	-10.7724
ยูเครน	-10.7732
9.00	-10.7736
ไอออน	-10.7737
ยอดเขา	-10.7739
เลี้ยงลูกด้วยนม	-10.7742
low	-10.7743
ห่างไกล	-10.7745
วิดีโอเกม	-10.7749
reat	-10.7749
ประทาน	-10.775
ประชุมคณะกรรมการ	-10.7756
สีม่วง	-10.7761
แสดงให้เห็นว่า	-10.7761
เพรส	-10.7765
การสนับสนุนจาก	-10.7767
การติดเชื้อ	-10.7777
พุทธศักราช	-10.7778
ต่างด้าว	-10.778
สุพรรณ	-10.7785
หรือเปล่า	-10.7791
เข้าร่วมประชุม	-10.7801
ร่วมมือกัน	-10.7802
ทิศตะวันออก	-10.7809
มีพฤติกรรม	-10.7812
ชัง	-10.7816
ไม่ทัน	-10.7821
คณะผู้บริหาร	-10.7826
ระบอบประชาธิปไตย	-10.783
จ่ายเงิน	-10.7831
ุ้น	-10.7835
ภูมิภาคเอเชีย	-10.7845
ปุ๋ย	-10.7847
เปิดโอกาสให้	-10.7848
มาโดยตลอด	-10.7851
ประกอบธุรกิจ	-10.7853
ภูมิปัญญา	-10.7853
พระชายา	-10.7857
เพื่อรองรับ	-10.7859
การแข่ง	-10.786
▁2507	-10.7873
ปล้ํา	-10.7873
เสถียรภาพ	-10.7883
IN	-10.7883
ชิมะ	-10.7884
วิลล์	-10.7888
สินค้าเกษตร	-10.7889
จังหวัดขอนแก่น	-10.7891
duct	-10.7895
ถัดไป	-10.7895
▁จากนั้นจึง	-10.7895
เคียง	-10.7896
ild	-10.7897
ไทยทีวีสีช่อง	-10.7905
เก้าอี้	-10.7905
เร่งด่วน	-10.7907
ราชกิจจานุเบกษา	-10.7914
เซ็นทรัล	-10.7915
เซ็นเตอร์	-10.7919
หนองคาย	-10.7924
การขยายตัว	-10.7926
เศรษฐี	-10.7926
รวมทั้งสิ้น	-10.7929
พรรคเพื่อไทย	-10.7929
▁Star	-10.7933
▁นรม	-10.7938
รายจ่าย	-10.7941
ยะมะ	-10.7943
เศรษฐกิจพอเพียง	-10.7944
วิสาหกิจ	-10.7947
eng	-10.7958
คณะทํางาน	-10.7962
กํากับภาพยนตร์	-10.7965
ชนเผ่า	-10.7966
กรุงปารีส	-10.7966
ภาพลักษณ์	-10.7971
เมทัล	-10.7973
เอ็ก	-10.7975
UN	-10.7976
การอนุรักษ์	-10.7981
สปอร์ต	-10.7982
ที่รู้จักกันดี	-10.7987
การผ่าตัด	-10.7992
ศาสนาคริสต์	-10.7992
ภาชนะ	-10.7995
เกียรติคุณ	-10.8008
rop	-10.8012
ปะการัง	-10.8012
พระเชษฐา	-10.8018
เช็ก	-10.8022
over	-10.8025
มุ่งหน้า	-10.8027
▁1976	-10.803
บาร์เซโลนา	-10.8031
ทวีปแอฟริกา	-10.8045
Ind	-10.8045
เพื่อนสนิท	-10.8047
จนถึงปี	-10.8047
เฉย	-10.8051
ความเปลี่ยนแปลง	-10.8056
ความยุติธรรม	-10.806
▁2512	-10.8063
กีฬาโอลิมปิก	-10.8065
เบ็	-10.8068
ประยุกต์ใช้	-10.8069
▁2499	-10.807
จังหวัดสงขลา	-10.807
ดัชเชส	-10.8071
โปร่งใส	-10.8071
แจ่ม	-10.8071
สระบุรี	-10.8074
ช่วยลด	-10.8079
นิวเคลียส	-10.808
▁ปอนด์	-10.8081
ทางตอนใต้ของ	-10.8083
วาดภาพ	-10.8086
นนทบุรี	-10.8089
▁ยกตัวอย่างเช่น	-10.81
ผุ	-10.8101
สุริยะ	-10.8104
ภายใต้ชื่อ	-10.811
ฆ่าตัวตาย	-10.811
องค์ความรู้	-10.8112
ควาย	-10.8119
ได้รับอิทธิพลจาก	-10.812
??	-10.8136
วรรณคดี	-10.8136
ลูกศิษย์	-10.8138
ผู้สําเร็จราชการ	-10.814
เดรีย	-10.8142
ละติน	-10.8142
คัง	-10.8143
▁Music	-10.815
แม่นยํา	-10.8159
หลั่ง	-10.8159
▁1989	-10.816
ขึ้นชก	-10.8164
รับการแต่งตั้ง	-10.8168
app	-10.8171
อุดมการณ์	-10.8181
เริง	-10.8184
การถ่ายภาพ	-10.8184
บัลแกเรีย	-10.8199
บริวาร	-10.8209
ทิศเหนือ	-10.8218
หลวงปู่	-10.8223
บริบท	-10.8227
แบ่งเขตการปกครอง	-10.8235
ness	-10.8237
ผู้ต้องหา	-10.824
นายจ้าง	-10.8244
เวทมนตร์	-10.8249
&	-10.8249
นักโทษ	-10.8251
วรวิหาร	-10.8256
ซ็อง	-10.8258
จรวด	-10.8258
เจตนา	-10.826
วิถีชีวิต	-10.826
หลิว	-10.828
แน่ชัด	-10.8281
ร้อยเอ็ด	-10.8281
ฟอก	-10.8284
แก้ความกํากวม	-10.8289
ซิตี้	-10.8291
มีส่วนร่วมในการ	-10.8291
นักลงทุน	-10.8294
กิริยา	-10.8309
out	-10.8311
ไทม์	-10.8313
แอ็	-10.8314
ลึกลับ	-10.8315
น่ารัก	-10.8316
เทคโนโลยีราชมงคล	-10.8319
หนาวครั้งที่	-10.832
ดัตช์	-10.8329
ลึง	-10.8332
แม้กระทั่ง	-10.8337
ทิศตะวันตก	-10.8343
ปีที่แล้ว	-10.8343
อิ่ม	-10.8343
เพื่อให้เกิด	-10.8344
แต้ม	-10.8345
โป่ง	-10.8345
แพร่กระจาย	-10.8347
สงครามกลางเมือง	-10.835
ภาษาอาหรับ	-10.8359
แอลกอฮอล์	-10.836
กาฬสินธุ์	-10.836
เข้าชิง	-10.836
พัฒน	-10.8361
air	-10.8363
ผู้พิพากษา	-10.8365
หาดใหญ่	-10.8366
เอลิซาเบธ	-10.837
วัตถุดิบ	-10.8373
ไพ่	-10.8373
ชาวต่างชาติ	-10.8379
ทาวน์	-10.838
ผู้ว่าการ	-10.8381
วงแหวน	-10.8382
โหมด	-10.8383
ศาลรัฐธรรมนูญ	-10.8391
บัญชีรายชื่อ	-10.8392
เทศบาลนคร	-10.84
▁ดิศกุล	-10.84
que	-10.8407
ผลัด	-10.8415
ปัด	-10.8421
อุ้ม	-10.8422
นักวิจารณ์	-10.8423
นักประวัติศาสตร์	-10.8425
▁1968	-10.8428
ท้าทาย	-10.8431
คณะกรรมาธิการ	-10.8431
คับ	-10.8433
เป็นฝ่ายแพ้	-10.8442
การเจริญเติบโต	-10.8443
▁Bank	-10.8451
หยวน	-10.8451
way	-10.8455
ธรณี	-10.8461
มหาดไทย	-10.8461
ฟุตบอลทีมชาติ	-10.8463
ยิม	-10.8473
,000,000	-10.8473
ความสะดวก	-10.8476
ผลึก	-10.8481
ปกครองตนเอง	-10.8487
กระจายพันธุ์	-10.8488
วงโคจร	-10.8492
▁ท้องที่อําเภอ	-10.8492
พัทยา	-10.8492
นอล	-10.8495
เฟิร์	-10.8499
เยียวยา	-10.8502
โค้ช	-10.8503
ถกเถียง	-10.8513
พงศาวดาร	-10.8513
ปล้น	-10.8513
วชิร	-10.8514
เคลื่อนย้าย	-10.8515
เงินกู้	-10.8516
ภาคอีสาน	-10.8518
คณะแพทยศาสตร์	-10.8521
เลี้ยว	-10.8523
โคจร	-10.8528
▁2514	-10.8533
บรรทัด	-10.8533
▁ด้วยเหตุนี้	-10.8533
สาธารณชน	-10.8534
ค่อยๆ	-10.8536
วียน	-10.8543
เพิ่มประสิทธิภาพ	-10.8544
รู้จักกันในชื่อ	-10.8547
ระบบปฏิบัติการ	-10.855
นอกจากจะ	-10.8552
โกลด์	-10.8554
เชื้อชาติ	-10.856
ฟรานซิส	-10.8565
ลุ่มน้ํา	-10.8565
2.5	-10.8568
สมาชิกสภา	-10.8569
ิ้น	-10.8574
ระมัดระวัง	-10.8574
ศรีลังกา	-10.8578
เสน่ห์	-10.8585
ศาสตร์พระราชา	-10.8585
ผนวก	-10.8595
▁Un	-10.8598
เดินทางไปยัง	-10.86
เข้มงวด	-10.8605
เฉิน	-10.8612
จัตุรัส	-10.8616
กระแสไฟฟ้า	-10.8618
ON	-10.862
Ju	-10.8621
นโปเลียน	-10.8637
▁ตารางวา	-10.8638
สารคดี	-10.8639
เร่งรัด	-10.8639
ชกมวย	-10.8639
สหภาพยุโรป	-10.8639
บาทหลวง	-10.8642
ขีดความสามารถ	-10.8645
ตลอดกาล	-10.8646
การบริหารงาน	-10.8647
รอบสุดท้าย	-10.8649
ศูนย์การค้า	-10.8655
ถนัด	-10.8657
เปียโน	-10.8661
เข้าเยี่ยมคารวะ	-10.8678
โปเกมอน	-10.8678
ō	-10.8678
ี๊ย	-10.868
แจ็ค	-10.868
แห่งสหประชาชาติ	-10.8683
พลาง	-10.8688
จี้	-10.8694
ตะกอน	-10.8697
แบรนด์	-10.8699
ออกกําลังกาย	-10.8699
นครพนม	-10.8703
แว่น	-10.8707
พระชนม์	-10.8709
ดราม่า	-10.8711
สังคมศาสตร์	-10.8713
รองประธาน	-10.8714
ยี่สิบ	-10.8716
ลวด	-10.8717
มาร์ติน	-10.8718
บริเตน	-10.872
ตอบสนองต่อ	-10.8726
▁พระบรมราชินีนาถ	-10.8731
บันทึกไว้	-10.8733
กรุณา	-10.8742
อินทรี	-10.8744
ลําไส้	-10.8745
ง่ายๆ	-10.8752
สดใส	-10.8752
▁1964	-10.8753
อภิปราย	-10.8754
เขตแดน	-10.8756
แจ็ก	-10.8764
อัฟกานิสถาน	-10.8773
เพดาน	-10.8773
เศรษฐ	-10.8777
ภี	-10.8783
อภิสิทธิ์	-10.8787
เถระ	-10.8792
ขัดขวาง	-10.8796
เครื่องประดับ	-10.8802
ช่องว่าง	-10.8804
กรมศิลปากร	-10.8807
โทรคมนาคม	-10.8808
โรงละคร	-10.881
เจริญเติบโต	-10.8811
ิอุส	-10.8812
พินิจ	-10.8826
ดีเอ็นเอ	-10.8826
ควีน	-10.8834
เรือนจํา	-10.8848
เน้นย้ํา	-10.885
พัชร	-10.8859
พิทยา	-10.8869
ความจุ	-10.8872
▁2491	-10.8877
ฮอร์โมน	-10.8879
หุบเขา	-10.8879
กระทรวงแรงงาน	-10.8879
เปรี้ยว	-10.8889
ตะกั่ว	-10.8889
ประมวล	-10.8901
อุปสมบท	-10.8911
มลพิษ	-10.8911
แนวความคิด	-10.8912
ความเป็นธรรม	-10.8922
เงินสด	-10.8932
กระทรวงเกษตรฯ	-10.8942
เคร่งครัด	-10.8943
ครรภ์	-10.8947
ไม่เห็นด้วย	-10.8955
โรมันคาทอลิก	-10.8957
ซื่อสัตย์	-10.8964
มิตรภาพ	-10.8965
ยุคกลาง	-10.8967
ซุ้ม	-10.897
บรรจบ	-10.8975
หม่อมหลวง	-10.8982
นินจา	-10.8986
รับหน้าที่	-10.8987
เป็นนักฟุตบอลชาว	-10.8988
ดีวีดี	-10.8992
มังงะ	-10.8998
เพียงคนเดียว	-10.8998
พระบรมศพ	-10.8999
พวกเรา	-10.9
หุ้นส่วน	-10.9018
ั๊ก	-10.9022
เยอร์	-10.9029
ถูกนํามาใช้	-10.9033
โถ	-10.9034
จับคู่	-10.9036
พิจิตร	-10.9041
มีบทบาทสําคัญใน	-10.9044
จดจํา	-10.9051
ถนอม	-10.9051
ภูมิคุ้มกัน	-10.9062
ผู้ทรงคุณวุฒิ	-10.9062
เฝ้าระวัง	-10.9062
๓๐	-10.9072
ประมูล	-10.908
á	-10.9083
ประเทศเวียดนาม	-10.9091
ل	-10.9094
คิดเป็นร้อยละ	-10.9116
สังเกตการณ์	-10.9117
ดาวน์โหลด	-10.9127
หลอม	-10.9127
มหกรรม	-10.9149
ยิงประตู	-10.9149
อัตราส่วน	-10.9156
ระดับปริญญาโท	-10.916
ection	-10.9171
ยูเนสโก	-10.9182
พระสนม	-10.9183
แมตช์	-10.9193
ชายหาด	-10.9197
ไตรมาส	-10.9204
ให้การต้อนรับ	-10.9226
วัลย์	-10.9227
ยุทธศาสตร์ชาติ	-10.9229
▁เอฟซี	-10.9229
เจได	-10.9233
อับดุล	-10.9237
จิ้น	-10.9239
ผนึก	-10.9253
กรุงโตเกียว	-10.9263
หน้ากาก	-10.9271
ฝัก	-10.9273
ลังกา	-10.9276
▁2505	-10.9278
หิมะ	-10.9278
สมัยก่อน	-10.9285
บริติช	-10.9292
นิติบุคคล	-10.9295
ตอนล่าง	-10.9307
ควบ	-10.9312
ศาสนาอิสลาม	-10.9313
▁องศาเซลเซียส	-10.9314
ทะเลทราย	-10.9315
ละออง	-10.9325
ชดเชย	-10.9325
ซีซั่น	-10.9325
เซิน	-10.9327
ฟาร์ม	-10.9332
เลื่อนชั้น	-10.9344
วิกตอเรีย	-10.9359
เข้าสู่วงการ	-10.9359
ความเป็นไปได้	-10.9362
ได้รับอนุญาต	-10.9363
อาร์เซนอล	-10.937
เข้าประกวด	-10.939
สุขาภิบาล	-10.9393
▁พลตํารวจเอก	-10.9393
โน้ต	-10.9393
เวียงจันทน์	-10.9404
ขจร	-10.9405
ฉะเชิงเทรา	-10.9415
ฟุตซอล	-10.9415
ตระเวน	-10.9415
ทั้งปวง	-10.9415
เป็นเมืองหลวงของ	-10.942
โสภณ	-10.942
เบิร์น	-10.9422
จักรี	-10.9424
เจ็บป่วย	-10.9428
สมาชิกวุฒิสภา	-10.9433
ฮาวาย	-10.9434
ศาลฎีกา	-10.9439
แอนน์	-10.9449
พิธีกรรม	-10.9455
ขวด	-10.9459
างกูร	-10.946
อัสสัมชัญ	-10.946
แคลิฟอร์เนีย	-10.9461
จังหวัดเชียงราย	-10.948
นะคะ	-10.9486
ประเทศฟิลิปปินส์	-10.9493
ประยูร	-10.9494
โมบิลสูท	-10.9505
มอบหมาย	-10.9507
4,000	-10.9513
พระบรมมหาราชวัง	-10.9517
ตลาดหลักทรัพย์	-10.9517
ก้อง	-10.9518
ยี่ห้อ	-10.9521
กิ่งอําเภอ	-10.9522
ตรวจจับ	-10.9524
พระชนมพรรษา	-10.9528
คณบดี	-10.9528
กรุงโรม	-10.9528
โดเมน	-10.9544
ปราชญ์	-10.9551
อุโมงค์	-10.9551
ภัยพิบัติ	-10.9552
ห้องปฏิบัติการ	-10.9564
สอดคล้อง	-10.9564
ถ่วง	-10.9574
▁หมายเหตุ	-10.9574
กฤษณ	-10.9578
สัญจร	-10.9585
แกล้ง	-10.9585
จินตนาการ	-10.9596
ระยะสั้น	-10.9597
ประเมินผล	-10.9605
เฮาส์	-10.9608
ผ่อน	-10.9614
อาร์เอส	-10.9616
ข้าพเจ้า	-10.9619
▁ในขณะเดียวกัน	-10.9619
คิวบา	-10.962
rand	-10.9623
็อค	-10.9629
เหนี่ยว	-10.9631
กรุงธนบุรี	-10.9634
q	-10.9637
แบ็ก	-10.964
โตเต็มที่	-10.9648
หมั้น	-10.9654
ัตสึ	-10.9661
▁2510	-10.9662
ระดับอุดมศึกษา	-10.9677
ทางหลวงหมายเลข	-10.9681
รอดชีวิต	-10.9696
มัธยมศึกษาตอนต้น	-10.9701
tain	-10.9704
๕๐	-10.9707
มีมติเห็นชอบ	-10.9724
วิกฤติ	-10.9728
หมิ่น	-10.9736
ลงสมัครรับเลือก	-10.9743
องคมนตรี	-10.9746
เซาท์	-10.9751
โรแมนติก	-10.9758
ปล้อง	-10.9758
คาดหวัง	-10.9762
มอสโก	-10.977
โจเซฟ	-10.9771
พิมล	-10.9771
พระอุโบสถ	-10.9773
ขันธ์	-10.9782
ยุคสมัย	-10.9787
20,000	-10.9793
แกะสลัก	-10.9793
เห็ด	-10.9804
สหพันธรัฐ	-10.9805
ศักดิ	-10.9813
กฤต	-10.9814
รวด	-10.9817
ตื้น	-10.9828
แสตมป์	-10.9828
ไนท์	-10.9832
▁comp	-10.9833
โรงไฟฟ้า	-10.9841
เซลล์ประสาท	-10.9849
พระไตรปิฎก	-10.9852
สนุกสนาน	-10.9852
ออกอากาศทางช่อง	-10.9858
▁ถึงแม้	-10.987
กระชับ	-10.9875
เหนื่อย	-10.9875
!!	-10.9877
อันศักดิ์สิทธิ์	-10.9884
อักษรย่อ	-10.9887
หฤทัย	-10.9887
เสี้ยว	-10.9899
เฉพาะกิจ	-10.9899
ยินยอม	-10.9907
ยูฟ่า	-10.9911
▁2508	-10.9921
บุกเบิก	-10.9922
จิ๋ว	-10.9922
โครงข่าย	-10.9923
สโตน	-10.9928
พอร์ต	-10.993
คฤหาสน์	-10.9934
สง่า	-10.9934
ข้าหลวง	-10.9942
เท่าไหร่	-10.9958
▁นอกจากนั้นยัง	-10.9963
ชาลส์	-10.997
หยาบ	-10.9994
เข้าใจผิด	-11
ก่อเหตุ	-11.0005
คาดการณ์	-11.0007
#	-11.0029
อัจฉริยะ	-11.0029
ā	-11.0029
เกสร	-11.0031
ทรมาน	-11.0038
สมมุติ	-11.0041
	-11.0053
บังเอิญ	-11.0053
าธิปไตย	-11.0053
กรุงรัตนโกสินทร์	-11.0055
สับ	-11.0062
▁One	-11.0065
เรื้อรัง	-11.0065
ธีระเกียรติ	-11.0065
aster	-11.0065
ประชวร	-11.0077
ประเทศกรีซ	-11.0082
คาทอลิก	-11.0089
มาดริด	-11.0089
ปรกติ	-11.0089
ศุกร์	-11.0091
▁ลงวันที่	-11.01
Trans	-11.0102
รัฐแคลิฟอร์เนีย	-11.0112
คุ้นเคย	-11.0113
ประจวบคีรีขันธ์	-11.0113
กางเกง	-11.0125
เกิร์ล	-11.0125
โตโยต้า	-11.0125
กรรมการผู้จัดการ	-11.0128
ฝี	-11.0128
รั้ว	-11.0137
ระลึกถึง	-11.0145
ไพบูลย์	-11.015
พระชันษา	-11.015
กระดาน	-11.0162
ภคินี	-11.0174
โปรเจกต์	-11.0174
เป็นประธานในพิธี	-11.0184
กิตติมศักดิ์	-11.0186
คว่ํา	-11.0186
ลอบสังหาร	-11.0187
กะเหรี่ยง	-11.0198
ปศุสัตว์	-11.0198
กํานัน	-11.0201
ปาเลสไตน์	-11.021
แสดงให้เห็นถึง	-11.0211
ฆาตกรรม	-11.0213
ร่องรอย	-11.0214
สํานวน	-11.0222
เล่าปี่	-11.0247
ระฆัง	-11.0259
เมทริกซ์	-11.0259
▁สถิติการชก	-11.0259
สวัสดิ	-11.0259
ครบวงจร	-11.0262
อสูร	-11.0264
แล่น	-11.0284
อดทน	-11.0288
ตําหนัก	-11.0289
อินโดจีน	-11.0296
หน่อ	-11.0299
▁2506	-11.0303
อันเนื่องมาจาก	-11.0308
▁Development	-11.0308
อิสรภาพ	-11.0308
ผู้มีรายได้น้อย	-11.0308
นะงะ	-11.0309
บ่งบอก	-11.0322
กรมบัญชีกลาง	-11.0326
โผล่	-11.0333
ภิรมย์	-11.0333
กระต่าย	-11.0345
ชั้นมัธยมศึกษาปี	-11.0346
จัดทําแผน	-11.0346
บทกวี	-11.035
าวด์	-11.0352
กระทรวงดิจิทัลฯ	-11.0355
สมุทรสาคร	-11.0357
ทางกายภาพ	-11.0357
และปริมณฑล	-11.0358
จังหวัดนนทบุรี	-11.0359
ปลอด	-11.0361
▁แต่ทว่า	-11.0362
▁wh	-11.0363
สิ่งเร้า	-11.037
ไว้วางใจ	-11.037
ปลาน้ําจืด	-11.0377
กะโหลก	-11.0382
มองโกเลีย	-11.0382
ใฝ่	-11.0395
นิวตรอน	-11.0395
กองบัญชาการ	-11.0395
พึ่งพา	-11.0403
เป็นมรดกโลก	-11.0407
ทางรถไฟสาย	-11.041
สนามแม่เหล็ก	-11.0411
มองโกล	-11.0411
วิเชียร	-11.0417
สะเทือน	-11.0419
สังข์	-11.0419
▁2501	-11.044
โซนิค	-11.0444
อุบล	-11.0445
แอร์ไลน์	-11.0458
มุขนายก	-11.0458
หิรัญ	-11.0459
ฤดูฝน	-11.0469
กริยา	-11.0471
ข่าน	-11.0475
▁บุนนาค	-11.0482
อสังหาริมทรัพย์	-11.0482
ชายฝั่งทะเล	-11.0491
ครีม	-11.0493
ฮิโระ	-11.0498
ความเหลื่อมล้ํา	-11.0507
ข้าวโพด	-11.0507
ห่ม	-11.0517
โทรศัพท์มือถือ	-11.0519
บิดามารดา	-11.0525
ขีปนาวุธ	-11.0532
แบล็ก	-11.0532
สมิธ	-11.0533
High	-11.0539
▁2502	-11.0553
คุณปู่	-11.0556
จระเข้	-11.0557
พัทลุง	-11.0557
บัดนี้	-11.0557
ในสมัยรัชกาลที่	-11.0566
สารานุกรม	-11.057
อัตราดอกเบี้ย	-11.0571
ลาออกจากตําแหน่ง	-11.0576
ความไม่สงบ	-11.0584
เยื่อหุ้ม	-11.0585
เวชศาสตร์	-11.0591
จุดมุ่งหมาย	-11.0595
ทัด	-11.0604
ฟีฟ่า	-11.0608
ประจักษ์	-11.062
ห่วงใย	-11.0621
ทนายความ	-11.0622
แหล่งท่องเที่ยว	-11.0625
[	-11.0626
ลักเซมเบิร์ก	-11.0646
สมัชชา	-11.0646
เทควันโด	-11.0646
ซ้อม	-11.0646
ซามูไร	-11.0658
▁2509	-11.0667
พี่อาร์ม	-11.0684
เซอร์เบีย	-11.0691
เผ่าพันธุ์	-11.0698
ุทธ	-11.0719
เป็นไปอย่าง	-11.0719
พิบูลสงคราม	-11.0722
การสู้รบ	-11.0725
สมรรถภาพ	-11.0735
พจนานุกรม	-11.0735
ลําธาร	-11.074
▁2504	-11.0743
а	-11.0748
สมเด็จพระสังฆราช	-11.0748
แผ่นป้าย	-11.0752
ฟิลด์	-11.0756
คบหา	-11.0764
พระจอมเกล้า	-11.0765
▁Asia	-11.0772
ช่องแคบ	-11.0773
ดิวิชั่น	-11.0774
คณิต	-11.0797
จอร์เจีย	-11.0799
ตอบโต้	-11.0802
พัทธ์	-11.0812
เกษียณ	-11.0812
▁was	-11.0814
ไดโนเสาร์	-11.0825
กราฟิก	-11.0838
สมมติฐาน	-11.0838
บ่งชี้	-11.0851
ไมโครซอฟท์	-11.0877
จนกว่าจะ	-11.089
/2561	-11.089
ราศี	-11.0917
ยัด	-11.0924
ภาษาบาลี	-11.093
ยิว	-11.0932
▁ดอลลาร์สหรัฐ	-11.0937
ปักษ์	-11.0942
เหลียง	-11.0942
หย่อน	-11.0943
สตูล	-11.0943
▁เป็นบุตรของนาย	-11.0959
ประมวลกฎหมาย	-11.0959
ept	-11.0963
เปรียญ	-11.0969
ผู้ตรวจราชการ	-11.0982
แม็ค	-11.099
พิสัย	-11.0995
▁กรมหมื่น	-11.0999
สาธารณ	-11.1004
สําราญ	-11.1008
ทัศนคติ	-11.1009
สมรรถนะ	-11.1048
เครดิต	-11.1048
จันทน์	-11.1052
ology	-11.1054
สแควร์	-11.1088
กล่อม	-11.1101
ภริยา	-11.1101
เอลฟ์	-11.1114
ผู้ประสบภัย	-11.1127
รวมผลสองนัด	-11.1128
ถ่ายทอดสด	-11.1131
ก่อนคริสต์ศักราช	-11.1141
ถัดจาก	-11.1141
ทําความสะอาด	-11.1141
▁พบกระจายพันธุ์	-11.1142
trans	-11.1143
ในตอนท้าย	-11.1145
นโรดม	-11.1151
ดุษฎีบัณฑิต	-11.1154
ปริมาตร	-11.1162
nivers	-11.1168
บาสเกตบอล	-11.1181
ที่เก่าแก่ที่สุด	-11.1188
ผัด	-11.1195
▁องศาตะวันออก	-11.1199
6,000	-11.1213
เอิร์ล	-11.1221
ember	-11.1251
facebook	-11.1262
ปลาฉลาม	-11.1262
ห้อย	-11.1262
มัธยมศึกษาปีที่	-11.1269
▁อดุลย์	-11.1275
สุขุม	-11.1278
กระทรวงวิทยาศา	-11.128
จอร์แดน	-11.1281
สตร์และเทคโนโลยี	-11.1292
▁ออกอากาศทุกวัน	-11.1297
คณาจารย์	-11.1303
---------------	-11.1307
ยูโกสลาเวีย	-11.133
เอเธนส์	-11.133
ถ่านหิน	-11.1331
▁Act	-11.1353
รัตนโกสินทร์	-11.1369
ศาสดา	-11.1371
ยานยนต์	-11.1375
ปลื้ม	-11.1384
พระบรมราชูปถัมภ์	-11.1384
ร้องไห้	-11.1384
ปัง	-11.1387
สัมฤทธิ์	-11.1389
มหัศจรรย์	-11.1398
คล้ายคลึงกัน	-11.1412
เตรียมอุดมศึกษา	-11.1412
เพชรบูรณ์	-11.1412
▁เป็นอําเภอหนึ่ง	-11.1413
เปอร์เซ็นต์	-11.1425
×	-11.1425
แม่ฮ่องสอน	-11.1425
ทุจริต	-11.1434
ัธยมศึกษาตอนปลาย	-11.1438
แทรกแซง	-11.1439
กลีบดอก	-11.1443
ศิลปากร	-11.1449
เธีย	-11.1453
ดิสนีย์	-11.1468
ฝ้าย	-11.1481
α	-11.1481
กรมสามัญศึกษา	-11.1482
เชื่อมั่น	-11.1503
แอปเปิล	-11.1508
พระเจ้าวรวงศ์เธอ	-11.1508
ศรีนครินทรวิโรฒ	-11.1508
▁เจริญเศรษฐศิลป์	-11.1508
โฆษกประจําสํานัก	-11.1508
็อป	-11.1509
ป้อน	-11.1509
−	-11.1522
ธรณีวิทยา	-11.1525
ตอบคําถาม	-11.1532
เสนาธิการ	-11.155
พยางค์	-11.1565
อัญมณี	-11.1578
พรรคพลังประชาชน	-11.1578
ผ่านเข้ารอบ	-11.1589
ภาษาสันสกฤต	-11.1592
▁System	-11.1592
เพียงอย่างเดียว	-11.1592
นิพพาน	-11.1606
รางวัลโนเบล	-11.1609
มัธยมปลาย	-11.1617
~	-11.162
เบิกจ่าย	-11.162
อารย	-11.1628
ขู่	-11.1634
คุ้งตะเภา	-11.1634
ฝ่ายสัมพันธมิตร	-11.1648
บรมราชชนนี	-11.1648
ชิคาโก	-11.1648
๐๐๐	-11.1655
ทึบ	-11.1662
ช่อดอก	-11.167
ภาณุ	-11.1676
III	-11.1676
คอนกรีต	-11.1676
ซัด	-11.1676
มีส่วนเกี่ยวข้อง	-11.1693
วีดีโอ	-11.1711
▁Championship	-11.1718
ยางพารา	-11.1722
ฝึกซ้อม	-11.1732
แถลงการณ์	-11.1733
ไฮโดร	-11.176
สันนิบาต	-11.1761
ความเอนเอียง	-11.1761
แย้ม	-11.1761
ส่งผลกระทบต่อ	-11.1804
ขนมปัง	-11.1818
ยากลําบาก	-11.1834
สันนิษฐาน	-11.1836
ผู้รักษาประตู	-11.1847
สุขุมวิท	-11.1847
สก็อต	-11.1847
เถิด	-11.1848
มหาสมุทรแอตแลนติ	-11.1859
กล้าหาญ	-11.1861
พยาธิ	-11.1862
กายวิภาค	-11.189
oint	-11.1891
สโลวาเกีย	-11.1918
ไอดอล	-11.1933
ชีวประวัติ	-11.1935
ไอซ์แลนด์	-11.1962
▁********	-11.1962
บวม	-11.1969
	-11.1976
ทมิฬ	-11.1976
นางเจ้าสิริกิติ์	-11.199
ถวายพระพร	-11.1994
กระทําความผิด	-11.1995
ปราจีนบุรี	-11.2006
โยธิน	-11.2015
ตาบอด	-11.2019
ริมฝีปาก	-11.202
อ่างเก็บน้ํา	-11.202
เพลย์สเตชัน	-11.202
ศาสตร	-11.203
8,000	-11.2042
วิสัยทัศน์	-11.2049
พักตร์	-11.205
บรูไน	-11.2051
ถ้อยคํา	-11.2064
พระบรมวงศานุวงศ์	-11.2064
แอนตาร์กติก	-11.2064
30,000	-11.2079
นิมิต	-11.2102
พระสวามี	-11.2108
อัลบัม	-11.2108
เลื้อย	-11.2108
ปัญจ	-11.2122
อุทธรณ์	-11.2123
ลูกบาศก์	-11.2123
ที่ราบลุ่ม	-11.2124
เป็นอันมาก	-11.2126
ิงแฮม	-11.2132
สุริยุปราคา	-11.2137
ถือได้ว่าเป็น	-11.2142
▁Girl	-11.2167
ค้ําประกัน	-11.2168
off	-11.2171
วิตกกังวล	-11.2182
มหาวชิราลงกรณ	-11.2182
วิษณุ	-11.2197
สาหร่าย	-11.2197
แบ่งออกได้เป็น	-11.2197
เลวร้าย	-11.2197
ช้างเผือก	-11.2197
ctive	-11.2203
เมียนมา	-11.2209
จู่โจม	-11.2212
โทลคีน	-11.2212
มหิดล	-11.2213
▁from	-11.2226
ลักลอบ	-11.2228
ฉาน	-11.223
ดยุคแห่ง	-11.224
แย่งชิง	-11.2241
ผู้ร่วมการทดลอง	-11.2241
ยานพาหนะ	-11.2242
ข้อพิพาท	-11.2242
เครื่องปฏิกรณ์	-11.2256
คณะรักษาความสงบ	-11.2271
การจับสลาก	-11.2271
รถจักรยานยนต์	-11.2271
ตําหนิ	-11.2272
ปัจเจก	-11.2286
ร่ํารวย	-11.2286
วิกฤตการณ์	-11.2287
ภิบาล	-11.2295
ทวีปอเมริกาเหนือ	-11.2301
ทําเนียบ	-11.2327
ในวัยเด็ก	-11.2329
สพฐ	-11.2332
โภค	-11.2332
ยืดหยุ่น	-11.2346
ครบถ้วน	-11.2361
เฮลิคอปเตอร์	-11.2361
มรณะ	-11.2361
กรีฑา	-11.2376
ชัยนาท	-11.2377
ลึกซึ้ง	-11.2392
สุรเชษฐ์	-11.2392
หมากรุก	-11.2393
หวั่น	-11.2407
หัด	-11.2412
มวยสากลสมัครเล่น	-11.2422
อสุจิ	-11.2437
เซี่ยงไฮ้	-11.2452
ศักย์	-11.2468
ใช้สอย	-11.2485
พรรคชาติไทย	-11.2486
แข้ง	-11.2498
ซิดนีย์	-11.2498
บราวน์	-11.2498
มหาดเล็ก	-11.2498
ประเทศเพื่อนบ้าน	-11.2499
▁แจ็กสัน	-11.2514
พยัคฆ์	-11.2529
ซากดึกดําบรรพ์	-11.2529
ซุปเปอร์	-11.2544
สวัสดิการแห่งรัฐ	-11.2544
ป๊อป	-11.2544
อธิการ	-11.2545
เคิร์	-11.2553
แคลเซียม	-11.2575
พระเจ้าหลุยส์ที่	-11.2579
สีกองทัพบกช่อง	-11.259
นายกเทศมนตรี	-11.2606
พระหัตถ์	-11.2606
ห้างสรรพสินค้า	-11.2606
พระเพลิงพระบรมศพ	-11.2621
มันสําปะหลัง	-11.2621
พรุ่งนี้	-11.2623
เพ็ชร	-11.2625
ฟราน	-11.2635
โต้แย้ง	-11.2637
โครโมโซม	-11.2637
สัตว์เลื้อยคลาน	-11.2637
คลองผดุงกรุงเกษม	-11.2637
บังกลาเทศ	-11.2652
อาบน้ํา	-11.2655
อล์ก	-11.2688
บิชอป	-11.2699
ควอนตัม	-11.2715
ประสิทธิผล	-11.2715
แบตเตอรี่	-11.273
คาราบาว	-11.273
1.00	-11.2734
ฝ่ายค้าน	-11.2746
ราวุธ	-11.2751
ข่มขืน	-11.2762
ปลงพระชนม์	-11.2762
กล้องโทรทรรศน์	-11.2762
จลาจล	-11.2762
เปี่ยม	-11.2762
ปาฐกถา	-11.2777
โมะโตะ	-11.2777
ฮอนด้า	-11.2793
3.00	-11.2805
โคลัมเบีย	-11.2809
แฟนตาซี	-11.2809
ผิง	-11.2809
งค์การบริหารส่วน	-11.2813
ที่ว่าการอําเภอ	-11.2826
▁Time	-11.2841
เคาน์ตี	-11.2856
ะหฺ	-11.2869
ปณิธาน	-11.2872
สรุปสาระสําคัญ	-11.2872
เพลย์ออฟ	-11.2888
ในชีวิตประจําวัน	-11.2888
นางงามจักรวาล	-11.2904
▁Entertainment	-11.2904
เฒ่า	-11.292
สิกข	-11.2925
ให้คําปรึกษา	-11.2952
ณะวิศวกรรมศาสตร์	-11.2954
เลขาธิการคณะกรรม	-11.2982
สวดมนต์	-11.2985
นามปากกา	-11.2992
▁สปีด	-11.2994
เขี้ยว	-11.3
เพี้ยน	-11.3
เสนอชื่อเข้าชิง	-11.3007
พหลโยธิน	-11.3032
แชมเปียน	-11.3032
แท็กซี่	-11.3049
โจรสลัด	-11.3049
เลบานอน	-11.3049
อินเตอร์เนชันแนล	-11.3081
สเตเดียม	-11.3081
ค้างคาว	-11.3081
2.00	-11.3096
ไม้ยืนต้น	-11.3097
พัสดุ	-11.3146
ทัณฑ์	-11.3146
เนรเทศ	-11.3146
ได้ชื่อว่าเป็น	-11.3162
คอร์เทกซ์	-11.3162
ลําเลียง	-11.3162
▁๒๕๔	-11.3163
ย้อม	-11.3164
เอสเอ็มอี	-11.3179
ธํารง	-11.3179
▁แต่อย่างไรก็ตาม	-11.3179
เหลียว	-11.3195
แฟรงก์	-11.3195
เอฟเอคัพ	-11.3195
บาวาเรีย	-11.3196
ปกรณัม	-11.3212
มรสุม	-11.3212
สนิทสนม	-11.3228
พลเรือเอก	-11.3228
เอนเตอร์เทนเมนต์	-11.3245
American	-11.3261
เค้ก	-11.3262
▁เวชชาชีวะ	-11.3278
เจตนารมณ์	-11.3294
ห้วง	-11.3294
ทารุณ	-11.3311
เสียดาย	-11.3311
ปนเปื้อน	-11.3327
อธิปไตย	-11.3327
เกลียว	-11.3327
ไทยเป็นการทั่วไป	-11.3327
นัยน์ตา	-11.3329
อนันต	-11.3342
แยกแยะ	-11.3344
บริบูรณ์	-11.3344
ไบรอัน	-11.3344
มังคล	-11.3345
สยองขวัญ	-11.3361
เถรวาท	-11.3361
อุโบสถ	-11.3406
มัสยิด	-11.3411
โคลอมเบีย	-11.3411
ไพเราะ	-11.3411
เปิดทําการสอน	-11.3411
$	-11.3444
สมุห	-11.3448
ศิขร	-11.3468
รําลึกถึง	-11.3495
ー	-11.3495
เย็บ	-11.3495
ๅ	-12.6601
