<unk>	0
<s>	0
</s>	0
▁	-2.50732
.	-4.00543
ที่	-4.48996
ของ	-4.6765
และ	-4.91362
)	-4.91561
▁และ	-4.91637
ใน	-4.92146
ศ	-4.98741
▁(	-5.01091
เป็น	-5.22341
ได้	-5.32511
"	-5.46189
การ	-5.53099
น	-5.60691
,	-5.62616
▁พ	-5.63511
า	-5.67206
▁"	-5.70098
ส	-5.74363
มี	-5.78005
ก	-5.79769
ม	-5.79991
ให้	-5.81237
จาก	-5.85278
-	-5.90289
มา	-5.93246
กับ	-5.97076
▁เป็น	-5.99824
▁โดย	-6.06981
ง	-6.09139
ด	-6.10766
ว่า	-6.12286
▁ค	-6.12824
ไป	-6.18917
▁ซึ่ง	-6.20518
ต	-6.23745
นี้	-6.24589
ค	-6.25426
ล	-6.25542
จะ	-6.28267
▁1	-6.30745
โดย	-6.31162
▁2	-6.34868
ทาง	-6.39046
ตัว	-6.39463
s	-6.45353
บ	-6.45696
ว	-6.45741
/	-6.46537
▁หรือ	-6.46617
ท	-6.47284
ด้วย	-6.49834
พ	-6.50192
ย	-6.51532
▁มี	-6.53683
ร	-6.53792
ความ	-6.53929
นั้น	-6.54014
▁ใน	-6.54253
▁แต่	-6.54873
▁ๆ	-6.56812
กัน	-6.57938
▁3	-6.59332
อ	-6.63027
ป	-6.64123
ผู้	-6.67096
หรือ	-6.67673
แห่ง	-6.69637
เพื่อ	-6.7264
อยู่	-6.74782
ต่อ	-6.76713
ปี	-6.77452
ตาม	-6.77614
แบบ	-6.77917
ห	-6.78326
แล้ว	-6.79009
คือ	-6.79828
ถูก	-6.80473
ไม่	-6.81443
ขึ้น	-6.82992
พระ	-6.83283
นา	-6.83613
ถึง	-6.8507
▁()	-6.86058
อย่าง	-6.86231
ดี	-6.86901
▁19	-6.87143
น้ํา	-6.87263
ใช้	-6.88846
ร์	-6.89786
▁4	-6.90443
▁ปี	-6.90917
▁คือ	-6.91292
ไทย	-6.91797
ก็	-6.9426
ช	-6.95247
เมือง	-6.9595
ทํา	-6.96656
คน	-6.97213
ฟ	-6.98909
เมื่อ	-7.02583
ะ	-7.03541
▁24	-7.04304
ที่มี	-7.0581
ใหม่	-7.06225
ส์	-7.06585
y	-7.06687
อีก	-7.07041
หนึ่ง	-7.07259
งาน	-7.07458
ในปี	-7.09172
▁5	-7.09561
▁เมื่อ	-7.10073
ชื่อ	-7.11307
:	-7.12045
ลา	-7.12642
สามารถ	-7.13062
ทั้ง	-7.13879
ยา	-7.14515
ในการ	-7.15087
เรื่อง	-7.15985
ซึ่ง	-7.16439
เพลง	-7.17603
”	-7.17979
▁คน	-7.19118
▁การ	-7.1975
ประเทศ	-7.20693
รา	-7.21211
ระหว่าง	-7.21698
ตา	-7.2218
จึง	-7.2371
กา	-7.23805
โอ	-7.24109
ออก	-7.24346
ต่าง	-7.24583
ลง	-7.24776
วัน	-7.24929
▁“	-7.24998
▁เช่น	-7.25287
e	-7.25326
ซี	-7.26269
สร้าง	-7.26272
ด้าน	-7.26562
o	-7.2709
จ	-7.28702
เขา	-7.28927
รี	-7.29168
วง	-7.29588
เข้า	-7.2979
กลุ่ม	-7.29816
▁ได้	-7.30381
ทรง	-7.3157
ริ	-7.32043
อา	-7.33544
นํา	-7.33819
มาก	-7.34031
่	-7.3459
จังหวัด	-7.36028
▁6	-7.36088
มิ	-7.36507
บน	-7.36901
เ	-7.37059
▁ณ	-7.37082
ยัง	-7.37506
S	-7.37766
เล	-7.38065
ธ	-7.39283
▁เพื่อ	-7.39518
ลี	-7.39766
ต้อง	-7.39835
เอ	-7.40059
รับ	-7.4024
คํา	-7.40722
th	-7.41144
กว่า	-7.41266
ประมาณ	-7.41298
▁ในปี	-7.41785
วัด	-7.41908
ใหญ่	-7.42121
v	-7.43398
ภาพ	-7.44271
ระบบ	-7.44405
ต์	-7.44754
ชาว	-7.4555
หน้า	-7.46114
ผล	-7.47559
▁S	-7.48193
ไว้	-7.48213
▁7	-7.48364
สําหรับ	-7.48555
เร	-7.48645
ทั้งหมด	-7.48864
ราช	-7.49084
ลิ	-7.49397
n	-7.49448
er	-7.49695
ซ	-7.49707
โร	-7.49788
เม	-7.50499
อยู่ใน	-7.50779
ผ่าน	-7.51598
a	-7.51623
สอง	-7.51902
บ้าน	-7.52046
เกิด	-7.52471
นิ	-7.52653
มาจาก	-7.52835
แรก	-7.52987
รวม	-7.53131
▁ส่วน	-7.53503
A	-7.5378
ทุก	-7.54934
แสดง	-7.55246
ดา	-7.55342
ซา	-7.5557
หลาย	-7.56096
ได้รับ	-7.56191
▁18	-7.56378
หลัง	-7.56528
ที่จะ	-7.57171
เซ	-7.57234
วิ	-7.57393
เงิน	-7.57572
เสียง	-7.57621
al	-7.58044
ฯ	-7.58319
ย์	-7.58324
อื่น	-7.58428
โก	-7.58553
์	-7.58638
ระดับ	-7.58948
เน	-7.58956
ๆ	-7.58994
กลาง	-7.59371
▁ซึ่งเป็น	-7.59386
ใจ	-7.59402
โลก	-7.59603
▁10	-7.5965
โน	-7.60514
คา	-7.60617
C	-7.60641
▁-	-7.60725
พัฒนา	-7.60763
จัด	-7.60853
แต่	-7.6104
P	-7.61117
ทีม	-7.613
สี	-7.61336
ทําให้	-7.61542
t	-7.61609
พื้นที่	-7.6161
โรงเรียน	-7.61709
▁2560	-7.62004
หลัก	-7.62152
▁นาย	-7.63013
สูง	-7.63234
หา	-7.63776
วา	-7.6378
▁8	-7.63781
E	-7.65104
ประจํา	-7.65352
l	-7.65384
ติ	-7.65678
ชิ	-7.65873
i	-7.65929
r	-7.67239
ข่าว	-7.67327
ก่อน	-7.67524
in	-7.67857
บา	-7.68452
ภาษา	-7.69199
ส่ง	-7.69404
▁โดยมี	-7.69636
ชั้น	-7.69838
M	-7.7103
ส่วน	-7.71188
จน	-7.71704
ฝ่าย	-7.71821
or	-7.72025
เธอ	-7.72096
u	-7.72417
กิ	-7.7243
ดู	-7.72452
เมื่อวันที่	-7.72566
บาง	-7.72917
นี	-7.7301
f	-7.7308
อัน	-7.7313
การศึกษา	-7.73318
an	-7.73345
เด็ก	-7.73414
c	-7.7369
เริ่ม	-7.74264
เดิม	-7.74783
▁9	-7.75044
จํานวน	-7.75334
โค	-7.75488
สาย	-7.75505
พิ	-7.75563
ต่างๆ	-7.75798
ระ	-7.75952
้	-7.76491
โม	-7.76754
รัก	-7.76758
ตั้ง	-7.76998
ข้อมูล	-7.77046
ลูก	-7.77327
บี	-7.77334
D	-7.77608
จิ	-7.77737
d	-7.78005
ดังกล่าว	-7.78175
นัก	-7.78462
โต	-7.78474
ร่วม	-7.78493
โครงการ	-7.78701
ที	-7.78709
ิ	-7.79534
เปิด	-7.79791
นาย	-7.79803
โด	-7.79883
▁:	-7.79948
▁ประเทศ	-7.80124
พระองค์	-7.80282
ค่า	-7.80334
ข	-7.80372
ชีวิต	-7.80729
จีน	-7.80768
ตําแหน่ง	-7.80806
▁จังหวัด	-7.80901
▁ทําให้	-7.80905
ทหาร	-7.81148
กําลัง	-7.81612
ar	-7.81737
รูป	-7.81873
พา	-7.82308
ั	-7.82443
มหาวิทยาลัย	-7.82452
คณะ	-7.82879
โล	-7.83309
p	-7.83321
เวลา	-7.83865
อาหาร	-7.84032
T	-7.84235
▁จึง	-7.8443
k	-7.8447
ประชาชน	-7.85069
m	-7.85393
ทอง	-7.8551
แก่	-7.8576
เครื่อง	-7.85992
B	-7.86044
รัฐ	-7.86391
▁ได้แก่	-7.86472
▁A	-7.87036
เรียก	-7.87243
เก	-7.87376
เพียง	-7.87386
▁15	-7.87524
ภาพยนตร์	-7.87599
รัฐบาล	-7.88194
เจ้า	-7.88251
สาร	-7.88388
ไม่ได้	-7.88856
ing	-7.89043
ธรรม	-7.89072
ภาค	-7.89153
พิเศษ	-7.89265
▁12	-7.89297
ประ	-7.89674
(	-7.89844
เกี่ยวกับ	-7.89885
▁ต่อมา	-7.90003
เรือ	-7.90355
ได้รับการ	-7.90717
เด	-7.90765
▁เขา	-7.91029
ชาย	-7.91098
มีการ	-7.9112
▁C	-7.91486
กระ	-7.91662
▁จาก	-7.91789
▁20	-7.91814
จุด	-7.91838
อาจ	-7.92016
ขอ	-7.92121
แทน	-7.92212
ชุด	-7.92689
▁P	-7.92816
▁of	-7.92983
เล่น	-7.93316
สาม	-7.93556
สัตว์	-7.93792
ภายใน	-7.9403
ทํางาน	-7.9413
แห่งชาติ	-7.9445
ตั้งแต่	-7.94588
เท	-7.94914
O	-7.9513
เว	-7.95195
เรียน	-7.95365
ต้น	-7.95415
สุ	-7.95458
▁16	-7.9563
▁B	-7.95977
ศึกษา	-7.96335
ให้กับ	-7.96437
มัน	-7.96519
00	-7.96526
▁ปัจจุบัน	-7.97028
▁M	-7.97145
สงคราม	-7.97207
อังกฤษ	-7.97208
รายการ	-7.97315
บริเวณ	-7.97424
ชาติ	-7.97649
ชัย	-7.9842
le	-7.98801
รอบ	-7.98859
en	-7.98938
ของเขา	-7.9935
มากกว่า	-7.99446
ไอ	-7.99487
โรค	-7.99587
on	-8.00078
L	-8.00182
▁G	-8.00295
รุ	-8.00671
นิยม	-8.00873
จะมี	-8.00887
มือ	-8.01016
เบ	-8.01149
พบ	-8.01176
ละ	-8.01341
go	-8.01475
ดาว	-8.01583
การแข่งขัน	-8.0164
ที่เป็น	-8.01685
สําคัญ	-8.01737
ดิ	-8.0177
เจ	-8.02097
ปลา	-8.02108
เต	-8.02188
วี	-8.02302
บริษัท	-8.02321
R	-8.02395
แม่	-8.02473
่ง	-8.02643
กะ	-8.02752
กลับ	-8.0298
เขต	-8.03018
อี	-8.03137
มีความ	-8.03896
รถ	-8.03964
คู่	-8.03987
▁เพราะ	-8.04077
ชา	-8.04191
ณ	-8.0428
re	-8.04316
เกม	-8.04323
ยู	-8.04468
b	-8.04531
เข้ามา	-8.04653
องค์	-8.0483
ซ์	-8.04974
สู่	-8.05211
เพิ่ม	-8.05261
หญิง	-8.05299
ตะ	-8.05448
กําหนด	-8.05668
ช่วย	-8.05678
เป	-8.05731
ทา	-8.05993
▁เนื่องจาก	-8.06091
มหา	-8.06316
โซ	-8.06744
ที่สุด	-8.06771
ใต้	-8.06944
ซิ	-8.07204
▁17	-8.0735
โท	-8.07471
ญี่ปุ่น	-8.07511
www	-8.07815
น์	-8.0783
เห็น	-8.08067
▁11	-8.08085
▁L	-8.08086
ป่า	-8.08382
เห	-8.0853
เดียว	-8.08652
แยก	-8.08665
อุตสาหกรรม	-8.0872
วันที่	-8.09159
I	-8.09386
ปัจจุบัน	-8.09429
'	-8.09537
ยาว	-8.09798
▁14	-8.09867
แนว	-8.10063
มะ	-8.10254
ช่วง	-8.10451
การพัฒนา	-8.1054
ประกาศ	-8.10649
พล	-8.10687
เอก	-8.1082
อิ	-8.11167
เฟ	-8.11213
g	-8.11227
เสีย	-8.11437
สัน	-8.11464
เช่น	-8.11797
ปา	-8.12249
รักษา	-8.1225
ผลิต	-8.12512
ออกมา	-8.12522
นาง	-8.12747
ทําเนียบรัฐบาล	-8.12758
▁สิงหาคม	-8.12788
ศาสตร์	-8.12897
F	-8.13366
▁13	-8.13484
อําเภอ	-8.1351
ประเภท	-8.13663
น้อย	-8.14018
ศรี	-8.14196
ในช่วง	-8.14968
ครู	-8.15004
▁มีนาคม	-8.15092
ทะเล	-8.1512
ข้อ	-8.15257
▁23	-8.15331
กร	-8.1543
▁สําหรับ	-8.15473
ไม่มี	-8.15787
หัว	-8.15842
ฉ	-8.16127
ญ	-8.16156
ใด	-8.16323
▁–	-8.16744
ยุค	-8.16949
สังคม	-8.17017
เส้น	-8.17024
สมาชิก	-8.17083
กระทรวง	-8.17223
กรม	-8.17396
สม	-8.17403
▁ตุลาคม	-8.1767
▁D	-8.17856
เหนือ	-8.17872
สิ่ง	-8.17883
ในวันที่	-8.17889
โย	-8.18011
H	-8.18039
ตี	-8.18136
เขียน	-8.18139
G	-8.18402
เค	-8.18471
เอง	-8.18574
▁the	-8.18598
รูปแบบ	-8.18698
หนังสือ	-8.18756
▁อําเภอ	-8.1892
▁เมษายน	-8.19038
เท่านั้น	-8.19054
://	-8.1907
ขาย	-8.19297
ถนน	-8.19334
▁ที่มา	-8.19369
จากการ	-8.19381
ใบ	-8.19436
▁กุมภาพันธ์	-8.19517
จริง	-8.19574
ประกอบ	-8.20133
▁http	-8.20525
เชิง	-8.20531
รุ่น	-8.20818
▁F	-8.20835
▁พฤษภาคม	-8.21032
2	-8.21178
▁นอกจากนี้	-8.21197
ไม้	-8.21447
▁ธันวาคม	-8.22495
อายุ	-8.22536
ชน	-8.23245
โบ	-8.23289
บุคคล	-8.23308
▁กันยายน	-8.23318
เดียวกัน	-8.23422
วงศ์	-8.23467
▁ผู้	-8.23493
บท	-8.2354
▁กรกฎาคม	-8.2355
กุ	-8.23666
is	-8.24093
N	-8.24315
▁เมื่อวันที่	-8.24421
ต่อไป	-8.24456
แสง	-8.24564
อํานาจ	-8.24717
▁มกราคม	-8.24801
ลู	-8.24843
▁เป็นต้น	-8.2486
เฉพาะ	-8.24936
เพราะ	-8.24982
at	-8.25521
ติด	-8.25646
เป็นผู้	-8.25715
นายกรัฐมนตรี	-8.25852
5	-8.25955
▁จน	-8.26119
เล็ก	-8.26347
หลวง	-8.26454
ศูนย์	-8.26711
us	-8.26779
กฎหมาย	-8.26844
พี	-8.26974
h	-8.27367
เกาะ	-8.27512
อัลบั้ม	-8.27686
ถ	-8.27687
ทั้งสอง	-8.27805
นคร	-8.27839
ed	-8.27915
ch	-8.28
ไฟ	-8.28092
หน่วยงาน	-8.28187
▁รัฐบาลไทย	-8.28378
ตัน	-8.28486
สมัย	-8.28557
พอ	-8.28587
news	-8.28675
ทั่วไป	-8.2877
▁รวมทั้ง	-8.28996
ที่ใช้	-8.29008
แดง	-8.29511
อันดับ	-8.29644
thaigo	-8.2976
ขนาด	-8.29765
0	-8.29845
ประเทศไทย	-8.29887
–	-8.29977
details	-8.30166
กลายเป็น	-8.30214
▁พฤศจิกายน	-8.30229
contents	-8.30295
ชุมชน	-8.30459
มนุษย์	-8.3052
พระเจ้า	-8.30537
อยู่ที่	-8.30786
ส่วนใหญ่	-8.30934
กิน	-8.30972
อุ	-8.31084
▁W	-8.31171
เส	-8.3137
ic	-8.3141
แม่น้ํา	-8.31806
ไปยัง	-8.31832
เตอร์	-8.31866
1	-8.31906
ลํา	-8.31941
สนับสนุน	-8.3199
ทิ	-8.32064
ปัญหา	-8.32103
เกิดขึ้น	-8.32168
▁แห่ง	-8.32475
▁H	-8.32591
ผลงาน	-8.32719
มัก	-8.3279
อีกครั้ง	-8.32987
ี	-8.32998
การใช้	-8.33025
ษ	-8.3312
แมน	-8.33268
คุณ	-8.33331
ฝรั่งเศส	-8.33672
เปลี่ยน	-8.33729
เหมือน	-8.33845
คิด	-8.33869
ดําเนินการ	-8.34039
ลด	-8.34433
ห์	-8.34457
▁มหาวิทยาลัย	-8.34519
กองทัพ	-8.34609
ตลาด	-8.34667
คอ	-8.34684
it	-8.34796
สูงสุด	-8.34821
▁มิถุนายน	-8.34933
คณะกรรมการ	-8.34952
ก็ได้	-8.35452
เคย	-8.35506
ตรา	-8.35538
รู	-8.35544
บิ	-8.35607
▁ตาม	-8.35618
สี่	-8.35793
อาคาร	-8.36034
แอ	-8.36364
ชนิด	-8.36376
ฐาน	-8.36447
กลับมา	-8.36488
▁และมี	-8.36509
เข้าร่วม	-8.36818
เสียชีวิต	-8.36917
เช	-8.37018
สภา	-8.37078
สุด	-8.37631
▁จํานวน	-8.37636
เก็บ	-8.37823
ยก	-8.38132
ซู	-8.38273
แค	-8.38395
ra	-8.38433
ในประเทศไทย	-8.38502
ออกจาก	-8.38691
กรรม	-8.38714
สกุล	-8.3874
ราย	-8.38776
นักเรียน	-8.3913
เรียกว่า	-8.39134
นอก	-8.39281
คะแนน	-8.39609
หิน	-8.39834
อื่นๆ	-8.39873
เลือก	-8.39981
ครอบครัว	-8.4005
▁N	-8.40133
จะต้อง	-8.40206
พันธุ์	-8.40282
จะเป็น	-8.40303
ri	-8.40487
นก	-8.40553
ไซ	-8.40683
ท่าน	-8.40816
▁T	-8.40836
▁E	-8.40843
▁21	-8.40973
ตอน	-8.41018
เอา	-8.41204
ไฟฟ้า	-8.41243
ตาย	-8.41254
บริการ	-8.41267
ไท	-8.41315
ราว	-8.41332
ของประเทศ	-8.41338
พระราช	-8.41448
วร	-8.41484
เศรษฐกิจ	-8.41556
ur	-8.416
ลีก	-8.41616
เอเชีย	-8.41657
พรรค	-8.41659
▁30	-8.41882
้า	-8.41947
เทพ	-8.42032
▁25	-8.42153
เย	-8.42348
อีกด้วย	-8.42401
ครั้งแรก	-8.42453
วิทยา	-8.42544
สโมสร	-8.4266
ท์	-8.4266
วาง	-8.43087
ด์	-8.43116
ต่อมา	-8.43176
พร	-8.43302
แผน	-8.43408
am	-8.43438
ดํารงตําแหน่ง	-8.43452
สวน	-8.43483
▁2561	-8.43487
สนาม	-8.43515
นโยบาย	-8.43647
ปาก	-8.43771
จา	-8.43874
เอส	-8.43912
เรา	-8.44027
ลาย	-8.44288
กีฬา	-8.444
▁ถึง	-8.4448
สมเด็จพระ	-8.44554
ยอด	-8.44995
ท่า	-8.45059
▁จะ	-8.45128
พร้อม	-8.45142
เทคโนโลยี	-8.45468
กรุง	-8.4556
▁K	-8.45651
พวก	-8.4566
การแสดง	-8.45661
ข้าง	-8.45737
ราชวงศ์	-8.4589
บุ	-8.45937
▁(;	-8.46045
ดนตรี	-8.46139
บุตร	-8.46177
อาชีพ	-8.46315
โจ	-8.46318
สิทธิ	-8.46323
ดําเนิน	-8.46403
่า	-8.46508
คุ	-8.46624
อากาศ	-8.46831
ศักดิ์	-8.46856
el	-8.47106
็	-8.47256
ปลาย	-8.47352
▁22	-8.47543
หน่วย	-8.47583
ธุรกิจ	-8.47666
ตลอด	-8.47678
ฮา	-8.47847
รางวัล	-8.47976
▁หลังจาก	-8.47992
วน	-8.48014
อะ	-8.48257
▁พระ	-8.48299
ตก	-8.48366
เหตุการณ์	-8.48461
พิธี	-8.48476
),	-8.48497
เนื้อ	-8.48608
รอ	-8.48647
ส่งเสริม	-8.49067
สถาบัน	-8.49075
อักษร	-8.49155
เดือน	-8.49166
ฮ	-8.49562
มุ	-8.49593
เต็ม	-8.4974
▁และเป็น	-8.49883
๊	-8.50185
ation	-8.50429
สาว	-8.50441
ตัด	-8.50455
ไร	-8.50629
▁ทั้งนี้	-8.50869
อิน	-8.50981
วิทยาศาสตร์	-8.50997
จู	-8.51178
ยะ	-8.51181
พืช	-8.51273
เลี้ยง	-8.51426
ร่าง	-8.51469
ควบคุม	-8.51507
ดิน	-8.51617
ย่อย	-8.51633
สินค้า	-8.51648
เหล่านี้	-8.51662
นะ	-8.51678
ฟา	-8.51749
ร่วมกัน	-8.51771
สา	-8.51821
ตน	-8.51882
ประกอบด้วย	-8.52029
ยังคง	-8.5222
แต่ละ	-8.5232
แก้ว	-8.52394
ก่อตั้ง	-8.52483
ลอ	-8.52609
จี	-8.52752
เลย	-8.52769
")	-8.53003
จิต	-8.53046
วัย	-8.5306
สภาพ	-8.53115
st	-8.53115
▁เธอ	-8.53208
ให้เป็น	-8.53274
▁อ	-8.53413
il	-8.5354
พระบาทสมเด็จพระ	-8.5372
พลังงาน	-8.53757
ครั้ง	-8.53785
ขนาดใหญ่	-8.53821
ถือ	-8.53847
ฟุตบอล	-8.53944
เพ	-8.53965
น่า	-8.53973
▁โรงเรียน	-8.54013
แบ่ง	-8.54096
W	-8.54254
มักจะ	-8.54516
ตรง	-8.54597
นักแสดง	-8.54667
แซ	-8.54691
ร่วมกับ	-8.54803
แรง	-8.54906
▁เมตร	-8.54949
สํานักงาน	-8.55158
คืน	-8.5544
ช่อง	-8.55619
ซื้อ	-8.55935
▁แล้ว	-8.56013
ตําบล	-8.56113
et	-8.56179
มากขึ้น	-8.56303
▁เวลา	-8.56344
มอบ	-8.56509
สํานัก	-8.56569
รอง	-8.5666
20	-8.56948
4	-8.56988
ภ	-8.57072
ละคร	-8.57101
ไม่สามารถ	-8.57202
โฮ	-8.57252
มากที่สุด	-8.57617
ขา	-8.57825
ตะวันตก	-8.57922
ท้องถิ่น	-8.58035
ดูแล	-8.58035
เริ่มต้น	-8.58153
ือ	-8.58234
▁รวมถึง	-8.58378
สมาคม	-8.58382
ประโยชน์	-8.58386
แพทย์	-8.58449
อ่อน	-8.58586
▁ตําบล	-8.58689
ชอบ	-8.58803
ปิ	-8.58839
▁ครั้งที่	-8.58847
ตระกูล	-8.58871
ขึ้นมา	-8.59216
วิธี	-8.59378
เป็นการ	-8.59388
50	-8.5959
▁ก็	-8.59779
▁R	-8.59791
ในพื้นที่	-8.59921
เท่า	-8.59993
การประชุม	-8.60058
พลัง	-8.6006
▁จากนั้น	-8.6008
ให้แก่	-8.60284
ฺ	-8.60533
ร้อง	-8.60699
เนื่องจาก	-8.60752
▁ดังนั้น	-8.60754
ข้าว	-8.60867
ภา	-8.61011
ลักษณะ	-8.61098
สุดท้าย	-8.61152
พ่อ	-8.61193
ในปัจจุบัน	-8.61236
วัง	-8.61285
ใส่	-8.61382
กอง	-8.61536
ตะวันออก	-8.61544
โป	-8.61636
พิจารณา	-8.61653
ตร	-8.61664
ปิด	-8.61748
วิชา	-8.61772
ตํารวจ	-8.61889
อาการ	-8.6189
;	-8.61937
ขยาย	-8.62259
ol	-8.6226
ออกไป	-8.62262
ฟิ	-8.62395
ที่เกิดขึ้นใน	-8.62406
ฮิ	-8.62431
ชนะ	-8.6246
แบ	-8.62512
มาตรฐาน	-8.62549
เซอร์	-8.62722
V	-8.62747
บู	-8.62794
ป้องกัน	-8.62826
เส้นทาง	-8.62912
แต่ง	-8.62961
สถาน	-8.6298
ศาล	-8.62982
ที่สําคัญ	-8.63168
กิจกรรม	-8.63177
ราคา	-8.63236
จบ	-8.63239
ดํา	-8.63251
จักรพรรดิ	-8.6386
ุ	-8.63871
กล่าว	-8.63946
สถานที่	-8.63962
▁ทั้ง	-8.64177
เสนอ	-8.64192
เลือด	-8.64229
▁พร้อม	-8.64246
องค์กร	-8.6426
เฮ	-8.64347
จับ	-8.64371
สหรัฐอเมริกา	-8.64612
te	-8.64624
เข้าสู่	-8.64636
กี	-8.65125
ปกติ	-8.65168
▁I	-8.65571
รู้	-8.6576
ยึด	-8.65799
หลักสูตร	-8.65857
▁ล้านบาท	-8.65876
้อ	-8.65916
K	-8.65981
▁เมือง	-8.66115
๋	-8.66244
ภูมิ	-8.66254
▁เหตุการณ์	-8.66331
วัฒนธรรม	-8.66463
เวอร์	-8.66704
es	-8.66747
เหตุ	-8.66932
อก	-8.66954
▁เอ	-8.66993
la	-8.67057
ล่า	-8.67166
รัสเซีย	-8.67432
ราชการ	-8.67519
ิน	-8.67535
อาร์	-8.67572
ศิลปิน	-8.67588
เซลล์	-8.67961
วิน	-8.68024
หอ	-8.68099
การเลือกตั้ง	-8.68104
ในประเทศ	-8.68348
▁วัน	-8.68369
การผลิต	-8.68402
▁วันที่	-8.68405
เจริญ	-8.68566
โรงพยาบาล	-8.68582
โอกาส	-8.68631
โพ	-8.68733
ad	-8.68916
คง	-8.68928
z	-8.68959
ศิลปะ	-8.68986
สาขา	-8.69028
ชัน	-8.69036
▁จ	-8.69075
คลอง	-8.69107
แผ่นดิน	-8.69313
นี่	-8.69458
กระบวนการ	-8.69515
เมื่อปี	-8.69568
เอ็ม	-8.69638
แพ	-8.69685
นาม	-8.69724
และการ	-8.69741
้ง	-8.69743
การค้า	-8.69776
กว้าง	-8.69841
▁O	-8.69939
▁บริษัท	-8.69943
ro	-8.70171
กรณี	-8.70179
▁2559	-8.702
ไว	-8.70205
▁และได้	-8.70276
อินเดีย	-8.70658
ผ	-8.70813
ฉบับ	-8.71003
เก่า	-8.71136
ธง	-8.71313
พัน	-8.71368
โบราณ	-8.71446
ห้อง	-8.71457
ล์	-8.71522
ัส	-8.71839
ร้อยละ	-8.71907
ถวาย	-8.71944
อาจจะ	-8.7207
ฟ้า	-8.72271
ซิงเกิล	-8.72891
ul	-8.7338
สืบ	-8.73429
ก์	-8.73555
ent	-8.73594
ช่วยเหลือ	-8.73687
เดิน	-8.73746
ชู	-8.73764
▁จํากัด	-8.73908
อัล	-8.73977
as	-8.74267
▁กิโลเมตร	-8.74419
ทางด้าน	-8.74424
ความเป็น	-8.74531
สัญญา	-8.74618
เกร	-8.74634
เป็นหนึ่งใน	-8.74652
▁V	-8.74862
3	-8.75014
คดี	-8.75067
ดินแดน	-8.75164
กอ	-8.75292
คิ	-8.7539
ธรรมชาติ	-8.75399
ว่าเป็น	-8.75607
ทําการ	-8.75623
ศาสนา	-8.75858
ิล	-8.75872
ได	-8.75903
นุ	-8.76306
ค่าย	-8.76584
▁ด้วย	-8.76625
เจ้าหน้าที่	-8.76642
▁and	-8.76643
▁กลุ่ม	-8.76725
ซึ่งเป็น	-8.76859
ได้แก่	-8.7689
ท้อง	-8.76939
กล	-8.77016
นาน	-8.7703
ดังนี้	-8.77073
ต่ํา	-8.77077
พบว่า	-8.77198
ภาวะ	-8.77215
เพิ่มขึ้น	-8.77272
เบอร์	-8.77362
ปรากฏ	-8.77402
บันทึก	-8.77418
อาณาจักร	-8.77611
ความร่วมมือ	-8.77632
ลิน	-8.7767
กิจการ	-8.77815
ที่ไม่	-8.78079
มากมาย	-8.78134
จัดตั้ง	-8.78257
เตรียม	-8.78264
เข้าไป	-8.78301
U	-8.78339
ว์	-8.78419
คอน	-8.78484
ัว	-8.78579
กาย	-8.78585
สอน	-8.78696
นับ	-8.78826
การปกครอง	-8.78849
▁สามารถ	-8.78927
ปล่อย	-8.7896
ที่ถูก	-8.79057
แล	-8.79131
เป้าหมาย	-8.79148
se	-8.79174
▁นายกรัฐมนตรี	-8.79221
ยิง	-8.7929
x	-8.79425
ัก	-8.79462
แพ้	-8.79642
ยุ	-8.79654
w	-8.79767
▁26	-8.79771
บริหาร	-8.80037
ของเธอ	-8.80049
ขาว	-8.80099
อม	-8.80107
ภาษาอังกฤษ	-8.80116
งบประมาณ	-8.80221
อาศัย	-8.80269
ได้รับรางวัล	-8.80274
ต่างประเทศ	-8.80338
พระราชทาน	-8.80503
ชี	-8.80616
▁อา	-8.80855
▁J	-8.80963
▁อดีต	-8.81048
มณฑล	-8.81074
เพื่อน	-8.81299
คัน	-8.81332
เดอร์	-8.81348
▁เขต	-8.81354
พูด	-8.81405
ผู้ที่	-8.81547
▁ในวันที่	-8.81678
ดัง	-8.8181
▁โดยเฉพาะ	-8.8192
ma	-8.81987
ความสัมพันธ์	-8.82119
▁27	-8.82243
um	-8.82297
ธนาคาร	-8.82338
ยุโรป	-8.82375
กุล	-8.82605
ดอก	-8.82609
หมายถึง	-8.8265
รอย	-8.82828
ขาด	-8.82846
พัก	-8.82895
ศึก	-8.82991
เปิดตัว	-8.83064
ทอ	-8.8309
ครอง	-8.83092
แชมป์	-8.83144
สถานี	-8.832
สุข	-8.83344
มาร์	-8.83451
เสด็จ	-8.8346
สะ	-8.83559
10	-8.83629
ัต	-8.83632
พิมพ์	-8.83782
แม	-8.8392
สัปดาห์	-8.83936
ห้า	-8.83948
กระดูก	-8.84173
ของการ	-8.84233
สัญลักษณ์	-8.84268
ระยะ	-8.8435
กษัตริย์	-8.84358
่น	-8.84425
คล้าย	-8.84449
ยังมี	-8.84474
▁เพื่อให้	-8.84496
▁ทรง	-8.84501
จง	-8.84513
พุทธ	-8.84592
ระทรวงศึกษาธิการ	-8.84641
หนึ่งใน	-8.84718
60	-8.8475
ร่างกาย	-8.84822
ia	-8.84852
om	-8.85008
ฤ	-8.85158
บิน	-8.85185
▁ครั้ง	-8.85215
ครั้งที่	-8.8524
แข่งขัน	-8.85454
สื่อ	-8.85472
...	-8.85489
สิ	-8.85539
▁เริ่ม	-8.8576
แผ่น	-8.8585
จํา	-8.85924
ทุกคน	-8.86082
▁อย่างไรก็ตาม	-8.86251
คนที่	-8.86293
ตั้งอยู่	-8.86298
id	-8.86323
▁ซึ่งมี	-8.86421
▁นัก	-8.86447
พยายาม	-8.86456
ir	-8.86459
โครงสร้าง	-8.86489
ก็คือ	-8.86496
ter	-8.86497
ในเรื่อง	-8.86523
แนวทาง	-8.86601
แอน	-8.86774
ปกครอง	-8.86857
สภาผู้แทนราษฎร	-8.86883
ตัวละคร	-8.86948
อั	-8.8695
คู	-8.8705
ิต	-8.87082
วิทยาลัย	-8.87106
ควร	-8.87175
วัตถุ	-8.87277
หลังจาก	-8.87502
แรงงาน	-8.87552
กําเนิด	-8.8757
ion	-8.87587
การสร้าง	-8.87819
▁เกิดเมื่อวันที่	-8.87859
รถไฟ	-8.87952
▁ดังนี้	-8.87985
สุขภาพ	-8.88056
ผู้เล่น	-8.8806
เซีย	-8.88066
ที่ได้	-8.88172
เดอะ	-8.88196
เรีย	-8.88303
กู	-8.88307
ในระดับ	-8.88319
ในเขต	-8.88366
ไล	-8.88467
มีลักษณะ	-8.88576
ออกอากาศ	-8.88655
ที่สอง	-8.88663
คุณภาพ	-8.88746
ิก	-8.88826
▁รัฐ	-8.8886
อนุ	-8.88893
ร้อย	-8.88917
รายงาน	-8.89048
็ง	-8.89084
j	-8.89102
30	-8.89215
สหรัฐ	-8.89289
ฮอ	-8.89362
เจ้าอยู่หัว	-8.89376
ปรับ	-8.89438
ความรู้	-8.89547
สึ	-8.89568
อดีต	-8.89619
แ	-8.89818
ทั่วโลก	-8.89837
15	-8.89852
เดินทาง	-8.89904
ตุ	-8.89905
▁พระองค์	-8.89999
The	-8.90013
▁ถ้า	-8.9002
ในยุค	-8.90051
▁หาก	-8.90055
เพิ่มเติม	-8.9007
ออ	-8.90082
ปฏิบัติ	-8.90227
ไม่ใช่	-8.90266
บอก	-8.90399
▁ภาษา	-8.90409
แหล่ง	-8.90411
สาธารณรัฐ	-8.90557
เพศ	-8.90685
ดวง	-8.90869
ติดตาม	-8.90936
ไม	-8.91227
สิบ	-8.91257
▁The	-8.91264
ฝั่ง	-8.91295
▁28	-8.91382
รม	-8.91411
พม่า	-8.91426
▁วัด	-8.91492
ประสบความสําเร็จ	-8.9156
อุปกรณ์	-8.91561
▁เดือน	-8.91669
วะ	-8.91843
ยาก	-8.92038
ก็จะ	-8.92066
มู	-8.92172
ยาน	-8.92234
ประชากร	-8.92325
ตัวเอง	-8.92491
บุญ	-8.9256
▁พระเจ้า	-8.92712
อย่างเป็นทางการ	-8.9274
ในฐานะ	-8.92907
ทฤษฎี	-8.93016
▁บาท	-8.93056
เน้น	-8.93119
ทุน	-8.9313
โฟ	-8.93218
แห่งประเทศไทย	-8.93268
สมอง	-8.93314
นิว	-8.93385
่อ	-8.93414
หลักฐาน	-8.93421
ไฮ	-8.93572
นั่ง	-8.93894
ก่อ	-8.93914
ร้าย	-8.94141
▁2554	-8.94265
เพื่อให้	-8.94285
โทรทัศน์	-8.94594
กฎ	-8.94659
บัตร	-8.94707
ึ	-8.9477
ทําให้เกิด	-8.94885
อาวุธ	-8.94918
อเมริกา	-8.94972
▁ล้าน	-8.94998
▁หลังจากนั้น	-8.95056
9	-8.95061
▁29	-8.95064
ชิ้น	-8.9517
หมด	-8.95228
ne	-8.9528
▁หลัง	-8.95305
อาจารย์	-8.95428
เอฟ	-8.95616
ด้วยกัน	-8.95627
พื้น	-8.95756
แก	-8.95963
จํากัด	-8.96016
กรุงเทพมหานคร	-8.9603
สต์	-8.96055
ภู	-8.96251
ุ่ม	-8.963
สเตอร์	-8.96412
ลิง	-8.96487
ีย	-8.96635
▁พล	-8.96672
45	-8.9668
สังกัด	-8.96757
หมู่บ้าน	-8.96764
ผิด	-8.97101
คําว่า	-8.97128
ชิง	-8.97325
งค์	-8.97392
19	-8.9742
ระยะเวลา	-8.97459
ฏ	-8.97777
คอมพิวเตอร์	-8.97831
นักศึกษา	-8.97846
คลื่น	-8.97867
▁2550	-8.97883
หาก	-8.98062
วิธีการ	-8.98073
อู	-8.98079
โรง	-8.98098
เสา	-8.98135
18	-8.98172
▁2551	-8.98189
ตนเอง	-8.98347
▁100	-8.98405
ใกล้	-8.98526
ได้มีการ	-8.98583
ลม	-8.98667
ต่อต้าน	-8.98698
จํานวนมาก	-8.98706
พระยา	-8.98819
ปริมาณ	-8.98906
ประวัติศาสตร์	-8.98969
",	-8.99017
ลําดับ	-8.99096
90	-8.99137
ยิ่ง	-8.99372
หาง	-8.99392
แนวคิด	-8.99544
ขนาดเล็ก	-8.99556
▁สมเด็จพระ	-8.9956
หัวใจ	-8.99592
ราบ	-8.99619
ภัย	-8.99663
ครั้งนี้	-8.99703
12	-8.99731
จะถูก	-8.99872
จะได้	-8.99891
ซุ	-8.99932
จําหน่าย	-8.99976
การจัด	-9.00054
li	-9.00076
▁ชื่อ	-9.00142
▁หมายถึง	-9.00264
ที่อยู่	-9.0032
ac	-9.00349
▁คณะ	-9.00387
ชาวไทย	-9.00391
กล่าวว่า	-9.00487
ต้องการ	-9.00569
เผยแพร่	-9.00578
คี	-9.00583
ประธานาธิบดี	-9.00602
ฌ	-9.00626
ยาง	-9.00777
นํามา	-9.00833
ยังไม่	-9.00877
เป็นสมาชิก	-9.00914
สยาม	-9.00945
นอน	-9.00947
หัวหน้า	-9.01008
ธาตุ	-9.01024
โกะ	-9.01079
▁0	-9.01099
การทํางาน	-9.01169
ขน	-9.01323
ยังเป็น	-9.01431
ซอ	-9.01448
สะพาน	-9.0145
me	-9.01602
้ว	-9.01676
ผลิตภัณฑ์	-9.01684
ระเบิด	-9.01789
ตรี	-9.01868
ออกแบบ	-9.0187
ไ	-9.0194
รบ	-9.02245
จนถึง	-9.0233
ผ้า	-9.02381
▁ประกอบด้วย	-9.02423
สนใจ	-9.02432
เครื่องบิน	-9.02433
ใคร	-9.02522
ขุน	-9.02595
สโมสรฟุตบอล	-9.02639
การ์ตูน	-9.0269
ปลัด	-9.02817
ทั้งสิ้น	-9.02857
ภาพยนตร์เรื่อง	-9.02914
สั้น	-9.02917
รัง	-9.03033
▁จนกระทั่ง	-9.03088
ด้วยการ	-9.03164
จัดขึ้น	-9.03177
เอ็น	-9.03249
ทําลาย	-9.03371
อ่าน	-9.03391
เล่า	-9.03393
้น	-9.03396
ฟี	-9.03403
▁ความ	-9.0349
ผสม	-9.03735
เวียดนาม	-9.0384
ตอบ	-9.03869
25	-9.03887
ครึ่ง	-9.03897
ทําหน้าที่	-9.03968
พื้นฐาน	-9.03989
แตก	-9.04036
_	-9.04064
เนีย	-9.04103
▁อาทิ	-9.04124
un	-9.04185
นี้เป็น	-9.04294
แจ้ง	-9.04303
▁2553	-9.04403
]]	-9.04411
อง	-9.04422
โอลิมปิกฤดูร้อน	-9.04422
โนะ	-9.04477
สตรี	-9.04567
ผู้นํา	-9.04579
โช	-9.04654
▁แต่ก็	-9.04709
เครือข่าย	-9.04858
ot	-9.04901
เพชร	-9.05112
▁In	-9.05125
การทํา	-9.05279
ve	-9.0531
แต่งตั้ง	-9.05326
เกษตร	-9.0536
แข็ง	-9.054
ธิ	-9.05446
น้ํามัน	-9.05454
▁เพลง	-9.05565
ย้าย	-9.05689
หมายเลข	-9.05689
หนัง	-9.05732
ในที่สุด	-9.05843
เหล่า	-9.05906
รายได้	-9.05986
▁ในขณะที่	-9.06001
เสมอ	-9.06028
op	-9.0605
โห	-9.06092
▁สาขา	-9.0611
ช้าง	-9.06153
คม	-9.06436
หลากหลาย	-9.06542
ข้าม	-9.06751
กิจ	-9.06841
ทู	-9.06874
ก่อสร้าง	-9.06972
ผม	-9.07049
ของพระองค์	-9.07055
เกียรติ	-9.0724
บังคับ	-9.073
ตั้งแต่ปี	-9.07315
ประตู	-9.07319
ตรวจ	-9.07383
เป็นคน	-9.07385
สมบูรณ์	-9.07408
ม้า	-9.07428
๊ก	-9.07486
ไหล	-9.07495
กัมพูชา	-9.07595
ที่ดิน	-9.07746
กระแส	-9.0788
ภูมิภาค	-9.07884
อะไร	-9.07915
ขับเคลื่อน	-9.07921
มีผลงาน	-9.07955
ของโลก	-9.08003
รัตน์	-9.08022
ปรับปรุง	-9.08039
ท้าย	-9.08053
สเปน	-9.08063
ลาว	-9.08074
ชั่น	-9.08168
11	-9.08283
▁ดร	-9.08342
อธิบาย	-9.08372
บอ	-9.08377
แฟน	-9.08445
ut	-9.08457
ชื่อว่า	-9.08526
รส	-9.08652
17	-9.087
ชม	-9.08774
ของตน	-9.08795
16	-9.08847
ขณะ	-9.09023
สหราชอาณาจักร	-9.09057
ปราสาท	-9.09081
ทิ้ง	-9.09118
พระนาง	-9.09147
▁ในช่วง	-9.09188
35	-9.09207
สากล	-9.09261
ine	-9.09316
▁ตั้งแต่	-9.09338
คนแรก	-9.09442
ลําตัว	-9.09597
กล่าวถึง	-9.09619
ถือเป็น	-9.09639
ราชอาณาจักร	-9.09644
os	-9.09843
▁2549	-9.09896
เชื่อว่า	-9.0993
lo	-9.09976
ที่เมือง	-9.10009
องค์การ	-9.10088
เจอร์	-9.10119
เป็นครั้งแรก	-9.10182
ลึก	-9.10249
ยุทธ	-9.10305
เหรียญ	-9.10402
ขั้น	-9.10417
▁2555	-9.10453
ปืน	-9.10529
ซะ	-9.10548
ช่าง	-9.1064
ัย	-9.10658
แสน	-9.10692
ริน	-9.1073
▁๑	-9.108
ในสมัย	-9.10815
แกน	-9.10839
ตู	-9.10969
โดยทั่วไป	-9.11167
รัฐธรรมนูญ	-9.11271
เดี่ยว	-9.11317
เยอรมนี	-9.11329
40	-9.11411
▁ขณะที่	-9.11415
ผิว	-9.11444
มาเป็น	-9.11483
▁c	-9.11533
พระมหากษัตริย์	-9.1162
ภาษี	-9.1178
งาม	-9.11884
ข้าราชการ	-9.11901
โ	-9.11966
นานาชาติ	-9.11997
ในเมือง	-9.12016
▁b	-9.12027
็อก	-9.12061
ยอดเยี่ยม	-9.12107
ไกล	-9.12141
ไข่	-9.12146
นักร้อง	-9.12395
จิน	-9.12422
แน	-9.12428
ก็มี	-9.12462
เชียงใหม่	-9.12577
โปร	-9.12584
ได้ถูก	-9.12599
เมีย	-9.12677
ทีวี	-9.12768
ปฏิบัติการ	-9.12787
เรียง	-9.12861
ถ่าย	-9.12905
บุรี	-9.12909
คริสต์ศตวรรษที่	-9.1317
เร่ง	-9.13222
ผู้ป่วย	-9.1328
หู	-9.13317
ื่อ	-9.13332
ฆ่า	-9.13349
▁2557	-9.13353
จันทร์	-9.13357
หนอง	-9.13406
มาน	-9.13438
รอน	-9.13523
เยอรมัน	-9.13527
ทีมชาติ	-9.13542
สําเร็จ	-9.13658
และมี	-9.13717
มอน	-9.13739
แถบ	-9.13768
ยุติธรรม	-9.13773
ี้ย	-9.13802
สเต	-9.13841
▁มีการ	-9.13964
ทัพ	-9.14058
ศิริ	-9.14161
เกือบ	-9.1425
เรน	-9.14295
อิตาลี	-9.14333
แก้	-9.14491
เยาวชน	-9.1457
ate	-9.14624
สิทธิ์	-9.14627
ปรา	-9.14627
▁to	-9.14666
เย็น	-9.1472
ซาน	-9.14805
จอม	-9.14861
▁Ch	-9.14894
มงคล	-9.15044
เกาหลี	-9.15071
เมอร์	-9.15141
ออกเป็น	-9.15253
สถานการณ์	-9.1529
แคว้น	-9.15346
โตะ	-9.15386
นู	-9.15386
mo	-9.1539
%	-9.15408
▁in	-9.15484
▁31	-9.1562
ู	-9.15695
แก้ไข	-9.15704
สิ่งที่	-9.15977
ly	-9.15991
▁โอ	-9.15996
เซน	-9.16055
พวกเขา	-9.1608
แท	-9.16108
เลีย	-9.16132
▁ตั้งอยู่	-9.1614
อย	-9.16188
มอง	-9.16211
ที่ดี	-9.16264
ประชุม	-9.16389
จึงได้	-9.16507
ความคิด	-9.16538
มุม	-9.16548
▁1.	-9.16609
คอย	-9.16685
กรรมการ	-9.16744
ลล์	-9.16749
อัตรา	-9.16837
ph	-9.16859
ถ้า	-9.1691
แฟ	-9.17022
▁2552	-9.17041
จักรวรรดิ	-9.17054
ตีพิมพ์	-9.17084
co	-9.17126
▁2558	-9.17129
โปรแกรม	-9.17155
ทัน	-9.17165
เชื่อม	-9.17243
คณะรัฐมนตรี	-9.17265
ไชย	-9.17302
ภายใต้	-9.17509
ฟัน	-9.17535
ในงาน	-9.17575
สรุป	-9.1759
ง่าย	-9.17894
ฉาก	-9.18
นิตยสาร	-9.18061
หนุ่ม	-9.18092
ประสาท	-9.18109
เช่นกัน	-9.18191
แปลง	-9.18201
ภายหลัง	-9.18212
24	-9.18215
สีขาว	-9.18342
เชีย	-9.18347
!	-9.18497
เลน	-9.18508
คําสั่ง	-9.18508
ti	-9.18528
บ้าง	-9.18533
▁ปลา	-9.18566
็ก	-9.18715
เหลือ	-9.1872
ประพันธ์	-9.1879
เสริม	-9.18916
ระหว่างประเทศ	-9.18923
เร็ว	-9.18983
14	-9.191
อุป	-9.19163
ay	-9.19164
บัณฑิต	-9.19198
บางครั้ง	-9.19236
ขวา	-9.19277
ได้ว่า	-9.19284
พระราชวัง	-9.19308
บอล	-9.19399
แลนด์	-9.19441
แรกของ	-9.19444
▁St	-9.1946
no	-9.19517
สถาปัตยกรรม	-9.19582
หยุด	-9.19627
หมอ	-9.19664
ปลูก	-9.19761
รัชกาลที่	-9.19821
ปริ	-9.19849
ใช้เป็น	-9.1985
พงษ์	-9.19876
im	-9.1998
ชิน	-9.19989
ที่สามารถ	-9.2005
▁2012	-9.20081
▁จัด	-9.20138
ร้าน	-9.20154
เปลี่ยนแปลง	-9.20339
▁2556	-9.20348
สถาปนา	-9.20374
เลข	-9.20412
ได้อย่าง	-9.2046
โดยการ	-9.20526
ในรูปแบบ	-9.20544
จอ	-9.20662
ให้บริการ	-9.20662
ระบุ	-9.20704
บิดา	-9.2076
น้ําหนัก	-9.20773
59	-9.20839
เกษตรกร	-9.20953
▁รัฐมนตรีว่าการ	-9.2099
▁Re	-9.21005
ชะ	-9.21006
หวัง	-9.21011
อิสระ	-9.21084
ฤดูกาล	-9.21137
61	-9.21176
ทั่วประเทศ	-9.21233
รัน	-9.21369
ดุ	-9.21396
็ด	-9.21419
ผู้บริหาร	-9.21476
อยาก	-9.21495
พระนาม	-9.21595
เบล	-9.21616
ดอน	-9.21621
รัส	-9.21729
ั่น	-9.21826
ขอให้	-9.21864
▁และการ	-9.21934
48	-9.22025
▁ท่าน	-9.22046
▁ทีม	-9.22139
▁พลเอก	-9.22155
▁อัน	-9.2221
▁("	-9.22236
สุร	-9.22276
ทูต	-9.22311
คอม	-9.22476
ค์	-9.22533
เนอร์	-9.22586
ที่เกี่ยวข้อง	-9.22675
กระทรวงมหาดไทย	-9.22902
▁เรื่อง	-9.23081
ทางการเมือง	-9.23107
หนัก	-9.23127
ในเวลา	-9.23155
to	-9.23165
ัช	-9.23294
all	-9.23547
ก็ยัง	-9.23566
แห่งนี้	-9.23605
การเมือง	-9.23668
ปฐม	-9.23724
เป็นที่รู้จัก	-9.23732
▁2010	-9.23758
เทศ	-9.23886
แปล	-9.23896
ที่มีความ	-9.23905
ซิน	-9.24019
ฟัง	-9.24054
ราม	-9.24108
ld	-9.24175
เป็นเวลา	-9.24373
ฮั	-9.24404
็น	-9.24447
ไร้	-9.24475
ha	-9.24499
art	-9.2451
ตัดสิน	-9.24519
สด	-9.24519
ฉาย	-9.24592
รัตน	-9.2461
ทรัพย์	-9.24611
28	-9.24616
ที่เรียกว่า	-9.24687
ซัน	-9.247
ความเร็ว	-9.24722
สิ้น	-9.2494
วาด	-9.25011
เวที	-9.25053
รัฐมนตรี	-9.25201
พิษ	-9.2523
08	-9.25304
ออฟ	-9.25313
ลบ	-9.25332
ศาสตราจารย์	-9.25335
13	-9.25384
เป็นส่วนหนึ่งของ	-9.25494
ประธาน	-9.25546
มิติ	-9.2557
▁2017	-9.25595
▁จึงได้	-9.2564
แฮ	-9.25655
นด์	-9.25672
ํา	-9.2569
นส์	-9.25708
เข	-9.25714
เรื่องราว	-9.25787
ซ้าย	-9.25896
ดํารง	-9.25904
-1	-9.26028
วิจัย	-9.26052
ให้มี	-9.26114
ทาน	-9.2612
พร้อมกับ	-9.26143
คาร์	-9.26146
แช	-9.26227
เหล็ก	-9.26237
จักร	-9.26277
ag	-9.26342
สร	-9.26386
▁f	-9.26712
J	-9.26739
สอบ	-9.26789
ทะ	-9.26893
ที่มีชื่อเสียง	-9.26903
ธิดา	-9.26998
ในการแข่งขัน	-9.2704
เกอร์	-9.27047
สัญญาณ	-9.27077
เทอร์	-9.27135
จะใช้	-9.27189
ธา	-9.27226
36	-9.27237
ity	-9.27247
ตรวจสอบ	-9.27311
อย่างมาก	-9.27333
คอร์	-9.27346
ัญ	-9.27524
ลดลง	-9.27526
ไค	-9.27585
+	-9.27653
มูลค่า	-9.27657
เล่ม	-9.27674
มารดา	-9.27715
ห้าม	-9.27774
หมู่	-9.27813
แต	-9.27891
ment	-9.2793
ตํานาน	-9.27976
ไน	-9.2799
ครบ	-9.28013
๓	-9.28021
สั่ง	-9.28074
สระ	-9.28078
รับรอง	-9.28117
เหตุผล	-9.28134
จ่าย	-9.28153
ซีรีส์	-9.28168
ลักษณ์	-9.28223
ัท	-9.28246
ร้องเพลง	-9.28267
ความสามารถ	-9.28308
ตัวอย่าง	-9.28424
ในแต่ละ	-9.28513
ell	-9.28547
ของรัฐ	-9.28562
สิน	-9.28594
▁2008	-9.28605
บทบาท	-9.28606
80	-9.2874
ในด้าน	-9.28781
หน้าที่	-9.28788
อน	-9.28809
แอล	-9.28841
สิริ	-9.28883
เคมี	-9.28891
ร้อน	-9.2895
จะไม่	-9.2895
▁ชั้น	-9.28963
ฮี	-9.29043
ตาราง	-9.29045
โทษ	-9.29094
ประชาธิปไตย	-9.29097
▁และยัง	-9.29106
ประสงค์	-9.29166
ทุ	-9.29196
ในอดีต	-9.29253
เทคนิค	-9.29254
หนี้	-9.29282
▁formula	-9.29304
ราก	-9.29343
ทั่ว	-9.29368
ท่าอากาศยาน	-9.29436
and	-9.29504
โว	-9.29512
บัว	-9.29517
ปู	-9.29615
เป็นนัก	-9.29708
เจอ	-9.29782
พี่น้อง	-9.29846
บางส่วน	-9.29849
เกิน	-9.29853
ถิ่น	-9.29873
▁นาง	-9.2989
▁ผล	-9.29899
อเมริกัน	-9.29914
ตัดสินใจ	-9.29993
▁2016	-9.30024
▁ตลอดจน	-9.30051
ขวัญ	-9.30077
ไบ	-9.30087
▁เม	-9.30134
▁กรม	-9.30195
กซ์	-9.30226
▁ได้รับ	-9.30243
ive	-9.30262
▁มิ	-9.30307
นิกาย	-9.30328
▁อี	-9.30397
มิน	-9.30398
ริม	-9.30414
▁ไม่	-9.30442
ไต	-9.30465
▁วันนี้	-9.30466
โจมตี	-9.30507
▁เซนติเมตร	-9.30579
ไว้ใน	-9.30591
สร้างขึ้น	-9.30627
▁m	-9.30636
การรักษา	-9.30746
บุก	-9.30758
55	-9.30813
ยศ	-9.30909
ความรู้สึก	-9.30916
ลาน	-9.30991
กํากับ	-9.31035
คะ	-9.31062
▁รัฐบาล	-9.31178
ต่อเนื่อง	-9.31179
ของไทย	-9.31196
เห็นว่า	-9.3122
ปัญญา	-9.3126
44	-9.31334
ผู้ประกอบการ	-9.31353
ภารกิจ	-9.31464
ชนิดหนึ่ง	-9.31491
เจ้าชาย	-9.31552
การดําเนินงาน	-9.31566
สมัคร	-9.3159
นท์	-9.31601
อย่างต่อเนื่อง	-9.31667
ความหมาย	-9.31678
กรุงเทพฯ	-9.31759
อุณหภูมิ	-9.31769
นําไป	-9.31809
ในวัน	-9.31889
ลับ	-9.31909
บรรจุ	-9.32156
ยังได้	-9.32189
85	-9.32194
ang	-9.32269
เปอร์	-9.3234
เคน	-9.32395
สูตร	-9.32409
ฝึก	-9.32414
▁60	-9.32576
คนหนึ่ง	-9.32618
▁เดอะ	-9.32698
เฉลี่ย	-9.32715
ผู้แทน	-9.32747
สาเหตุ	-9.32788
ไม่เกิน	-9.32821
65	-9.32884
ฟู	-9.32913
ตั้งแต่วันที่	-9.32943
กระทํา	-9.32954
สีแดง	-9.32975
ลุ	-9.33018
ที่ได้รับ	-9.33071
ชาร์ต	-9.33105
em	-9.33124
0%	-9.33154
น้อยกว่า	-9.33266
▁รายชื่อ	-9.33307
สติ	-9.33397
ai	-9.33456
กาล	-9.33482
▁อิ	-9.33483
33	-9.33493
คุ้มครอง	-9.33495
ของรัฐบาล	-9.33495
สตาร์	-9.33548
วย	-9.33664
ถูกต้อง	-9.3382
นี้มี	-9.33867
▁พุทธศักราช	-9.33879
ประเด็น	-9.33904
ill	-9.33959
ได้เป็น	-9.33996
ระหว่างวันที่	-9.34057
ิด	-9.3407
ปอ	-9.34103
รถยนต์	-9.34139
▁2014	-9.34157
โดยใช้	-9.34264
รวมทั้ง	-9.3429
วอ	-9.34346
เสร็จ	-9.34536
ออสเตรเลีย	-9.34554
ล้าน	-9.3457
อินโดนีเซีย	-9.34609
▁รอง	-9.34636
และความ	-9.34641
โทร	-9.34677
ลงไป	-9.3476
โดยเฉพาะ	-9.34761
ประการ	-9.34764
ie	-9.34785
รวมถึง	-9.34787
71	-9.34847
รหัส	-9.34853
6	-9.34904
การเปลี่ยนแปลง	-9.34912
▁ใช้	-9.34919
ู่	-9.34968
ด้วยความ	-9.3498
นําเสนอ	-9.35011
มวล	-9.35038
▁เจ	-9.35051
ของผู้	-9.35275
▁สังกัด	-9.35391
▁2548	-9.35398
สถิติ	-9.35413
ab	-9.35534
ึง	-9.35563
ยง	-9.35621
ทร	-9.35636
พุ	-9.35703
ทันที	-9.35715
▁ระหว่างวันที่	-9.35865
การ์	-9.35868
เอล	-9.35882
รู้จัก	-9.35949
41	-9.35978
ตามลําดับ	-9.36008
47	-9.36046
ce	-9.36051
ชก	-9.36099
ของชาว	-9.36175
com	-9.36271
▁ราย	-9.36348
แขวง	-9.36353
มีผู้	-9.36393
เลขาธิการ	-9.3645
ชัดเจน	-9.36528
สาธารณะ	-9.36564
เวน	-9.36635
ื้อ	-9.36646
หลง	-9.36675
▁เข้าร่วมแข่งขัน	-9.36689
อารมณ์	-9.36727
รวบรวม	-9.36783
สถานะ	-9.36803
ประทับ	-9.36845
เว็บไซต์	-9.36915
ปุ	-9.36926
ี่ย	-9.36979
สําคัญของ	-9.37064
รอด	-9.37135
ทางการ	-9.37146
ระเบียบ	-9.37156
กระจาย	-9.37215
▁รวม	-9.37225
การเกษตร	-9.37281
ศพ	-9.37317
75	-9.37326
ขับ	-9.37378
ชี้	-9.374
22	-9.37414
แหลม	-9.37436
▁สุ	-9.37485
เนื้อหา	-9.37498
ค่อนข้าง	-9.3756
ชาวอเมริกัน	-9.37574
▁พระองค์เจ้า	-9.37576
เข้าใจ	-9.37578
ig	-9.37587
รัฐมนตรีว่าการ	-9.37608
ยอมรับ	-9.37706
ทราบ	-9.37753
นักบุญ	-9.37799
56	-9.37812
นักกีฬา	-9.37991
แว	-9.38031
อันดับที่	-9.38114
ดะ	-9.38146
โปรดเกล้าฯ	-9.38237
79	-9.38256
ver	-9.38327
ใช้เวลา	-9.38332
กีฬาโอลิมปิกฤดู	-9.38387
▁กล่าว	-9.38415
นัด	-9.38422
สําเร็จการศึกษา	-9.38432
ล่าง	-9.38528
37	-9.38548
มีชื่อเสียง	-9.38656
▁แม้	-9.38734
▁2547	-9.38778
ศิลป	-9.38831
ซิล	-9.38847
▁แม้ว่า	-9.38879
อร	-9.38903
แจ	-9.39005
oc	-9.39013
ที่ตั้ง	-9.39023
▁หลังจากที่	-9.39039
อาเซียน	-9.39089
สาขาวิชา	-9.39092
▁ชนิด	-9.39126
ลด์	-9.39148
เชื่อมต่อ	-9.39168
รู้สึก	-9.3923
วิ่ง	-9.39262
▁'	-9.39263
ประชา	-9.39273
ec	-9.393
สัม	-9.39325
นิ้ว	-9.39326
57	-9.39332
ประกัน	-9.3936
กลิ่น	-9.3941
ฮัน	-9.39464
็ค	-9.39487
ในขณะนั้น	-9.39559
เท่ากับ	-9.39567
▁=	-9.39575
ัค	-9.39643
หรือไม่	-9.3968
39	-9.39708
▁โค	-9.3982
โฆษณา	-9.3988
▁เมื่อปี	-9.39884
คร	-9.39972
นิติ	-9.39979
เป็นที่	-9.39994
เป็นตัว	-9.40017
ub	-9.40108
มหาชน	-9.40205
กลับไป	-9.40227
ประวัติ	-9.40234
มาตรการ	-9.40245
ภาคตะวันออก	-9.40249
บาร์	-9.40257
วิทยุ	-9.4036
▁50	-9.4041
หนึ่งของ	-9.40412
ร่า	-9.40547
ริก	-9.40775
per	-9.40779
ry	-9.40824
วอลเลย์บอล	-9.40959
vi	-9.41048
ประเทศจีน	-9.41048
สู้	-9.41051
เชื่อมโยง	-9.41074
ราง	-9.41106
ow	-9.41115
หาย	-9.41131
ในสังกัด	-9.41158
อาศัยอยู่	-9.41228
สงบ	-9.41363
ที่ผ่านมา	-9.41416
ตกลง	-9.4143
ในจังหวัด	-9.41548
ก้าว	-9.4158
▁2015	-9.41615
ในชื่อ	-9.41637
หารือ	-9.4165
ออน	-9.41723
▁เขาได้	-9.41753
▁ด้าน	-9.41775
42	-9.41775
Y	-9.41803
ย้ายไป	-9.41808
นี้จะ	-9.4186
ขึ้นเป็น	-9.41874
ลาก	-9.41876
▁สาย	-9.41953
▁เ	-9.41976
ชีพ	-9.42017
38	-9.42029
วิส	-9.42167
ฤทธิ์	-9.42168
การต่อสู้	-9.42183
43	-9.42265
78	-9.42269
ต่อจาก	-9.42324
เติบโต	-9.42359
ซูเปอร์	-9.42393
ยอ	-9.42418
77	-9.42482
มีประชากร	-9.42539
สุวรรณ	-9.42572
ติก	-9.42583
ค้นพบ	-9.42627
่ว	-9.4264
แทนที่	-9.42657
หนา	-9.4267
สัง	-9.4268
58	-9.42689
เจ้าหญิง	-9.42715
กรอบ	-9.42787
พระราชบัญญัติ	-9.42787
เดียวกับ	-9.42802
na	-9.42877
การลงทุน	-9.42969
พระราชโอรส	-9.43089
เดินทางไป	-9.43134
ราชา	-9.43146
ความมั่นคง	-9.43198
ศิลป์	-9.43302
คอนเสิร์ต	-9.43307
กําแพง	-9.43338
เอช	-9.4336
็อง	-9.43385
หมาย	-9.43397
34	-9.43403
67	-9.43405
วิหาร	-9.43462
ist	-9.43478
ภาษาไทย	-9.43491
▁ยัง	-9.43572
นัน	-9.43597
54	-9.43606
ระยะทาง	-9.43609
52	-9.43629
ฐ	-9.43747
▁U	-9.43784
นอร์	-9.43797
มอ	-9.4382
ภรรยา	-9.43822
ยกเว้น	-9.43833
กระทรวงยุติธรรม	-9.44009
พรหม	-9.44032
▁นอกจาก	-9.44045
he	-9.44051
อวกาศ	-9.44053
เทศกาล	-9.44092
ฝัน	-9.44143
X	-9.4429
กองทุน	-9.44299
▁ไร่	-9.4439
ap	-9.44583
ta	-9.44657
เล็กน้อย	-9.44703
po	-9.44737
od	-9.44765
ภูเขา	-9.44869
ผู้อํานวยการ	-9.44878
เจ้าของ	-9.4488
ทับ	-9.44885
ของประเทศไทย	-9.44939
▁ถนน	-9.44939
มาแล้ว	-9.44987
รายละเอียด	-9.45038
ความรัก	-9.45147
pe	-9.45288
ออร์	-9.45334
สิ่งแวดล้อม	-9.45343
ได้รับความนิยม	-9.45476
ภาคใต้	-9.45502
เวท	-9.45587
53	-9.45592
เสือ	-9.45618
ในกลุ่ม	-9.4572
ธี	-9.45752
ตอ	-9.45761
มาตรา	-9.4591
งานวิจัย	-9.45946
ล้ม	-9.46031
สังเกต	-9.46087
ไพ	-9.46127
จะทําให้	-9.46148
ผู้หญิง	-9.46151
ประสูติ	-9.46185
ที่เกิดขึ้น	-9.46224
ฐานะ	-9.46308
ขึ้นไป	-9.46335
จัดการ	-9.4637
ฑ	-9.46392
จัดทํา	-9.46407
ศัพท์	-9.46422
้ม	-9.46493
ต้นไม้	-9.46498
62	-9.46529
ที่เขา	-9.46559
▁2.	-9.46624
เชื้อสาย	-9.4664
ร็อก	-9.46663
หนี	-9.46675
ประเพณี	-9.46678
ในระบบ	-9.46681
ในทาง	-9.46723
พันธ์	-9.46744
บริ	-9.46752
▁โดยใช้	-9.46754
46	-9.46772
น้อง	-9.46775
con	-9.46816
▁ภายใต้	-9.46856
▁เจ้า	-9.46884
บทความ	-9.46963
เดีย	-9.46979
อพยพ	-9.47003
49	-9.47064
ยืน	-9.47159
ัม	-9.47177
ใช้งาน	-9.47202
▁ภายหลัง	-9.47221
▁ตอน	-9.47237
สูงกว่า	-9.47252
ho	-9.47256
กํา	-9.47279
up	-9.47309
de	-9.47326
▁40	-9.47417
วาย	-9.4742
ศักยภาพ	-9.47449
ที่ทํา	-9.47474
วางจําหน่าย	-9.47484
ฝัง	-9.47509
▁ประจําปี	-9.47536
ขอบ	-9.47586
ไปแล้ว	-9.47586
เทียม	-9.47647
ฟุ	-9.4769
มีประสิทธิภาพ	-9.47692
▁2013	-9.47705
ซ้ํา	-9.47718
คริสต์	-9.47743
การเรียนการสอน	-9.47763
7	-9.47793
ทั้งคู่	-9.47814
▁de	-9.47843
คนไทย	-9.47851
มิตร	-9.47858
ติดต่อ	-9.47881
ni	-9.47889
ci	-9.47892
เรื่องนี้	-9.47931
ของจังหวัด	-9.48002
ผู้มี	-9.48059
-2	-9.48061
ก็ตาม	-9.48123
ไปสู่	-9.48137
▁สร้าง	-9.48194
81	-9.48196
ant	-9.48206
เซนต์	-9.4834
▁สํานักงาน	-9.48356
เป็นภาษา	-9.48397
ผา	-9.48418
นั่น	-9.48431
63	-9.48533
เลื่อน	-9.48633
▁สาธารณรัฐ	-9.48642
21	-9.48661
ตรงกับ	-9.48679
โรงแรม	-9.48684
เดช	-9.48737
เบีย	-9.48743
ชิงแชมป์	-9.4875
66	-9.48751
tic	-9.48761
เบา	-9.48796
ยุทธศาสตร์	-9.48898
มีขนาด	-9.4893
ย่อ	-9.48959
เจน	-9.4902
เหมือนกับ	-9.49028
โส	-9.49093
เอกชน	-9.49104
ผู้ช่วย	-9.49105
ลาด	-9.49135
สามัญ	-9.49181
82	-9.49237
ฎ	-9.49272
ภายนอก	-9.49313
ผู้ใช้	-9.49318
วิถี	-9.49343
บวก	-9.49364
83	-9.49379
▁บริเวณ	-9.49398
นวัตกรรม	-9.49402
วิล	-9.4941
บาท	-9.49434
ภูมิพลอดุลยเดช	-9.49435
▁จนถึง	-9.49482
ครีบ	-9.49499
ลําดับที่	-9.49566
ิ้ง	-9.49613
▁ซึ่งจะ	-9.49696
มิส	-9.49794
รองรับ	-9.49867
วางแผน	-9.50016
▁นอกจากนั้น	-9.50028
มีอายุ	-9.50046
70	-9.50104
ช้า	-9.50113
ด้านการ	-9.50171
▁[[	-9.50175
ของตนเอง	-9.50209
ภาครัฐ	-9.50272
เพาะ	-9.5028
สิ้นพระชนม์	-9.50292
อิง	-9.50319
เด่น	-9.50367
▁เป็นผู้	-9.50389
ard	-9.50409
ชายฝั่ง	-9.50416
8	-9.50438
▁ในการ	-9.50494
ยื่น	-9.50505
99	-9.50526
เต้น	-9.50527
วู	-9.50569
เปลือก	-9.50596
นัย	-9.50624
ปรัชญา	-9.50657
พันธมิตร	-9.50664
ความเชื่อ	-9.50743
โดยตรง	-9.50744
เดอ	-9.50768
ดารา	-9.50771
▁2011	-9.50777
๐	-9.50798
69	-9.50837
di	-9.50856
เกล้าเจ้าอยู่หัว	-9.50908
▁2009	-9.50917
เท้า	-9.50926
▁2006	-9.50942
▁อาร์	-9.50956
ทุ่ง	-9.5099
เผย	-9.51025
อียิปต์	-9.51027
พฤติกรรม	-9.51117
การประกวด	-9.51153
สําหรับการ	-9.51173
01	-9.51286
นิก	-9.5153
▁ชาว	-9.51538
73	-9.51562
มุ่ง	-9.51567
จําเป็น	-9.51577
รวมกัน	-9.51579
23	-9.51662
สิ้นสุด	-9.51678
วิชาการ	-9.51777
หก	-9.51837
▁p	-9.51848
▁ระหว่าง	-9.51868
ติดกับ	-9.51908
อิทธิพล	-9.51934
กรุงเทพ	-9.51968
ฆ	-9.52025
พนักงาน	-9.52087
หลักของ	-9.52091
เอกสาร	-9.52163
64	-9.52373
,2	-9.52419
แบ่งเป็น	-9.52428
สะสม	-9.52519
บรรยาย	-9.52523
51	-9.52541
รักษ์	-9.52573
อยุธยา	-9.52583
มีจํานวน	-9.52599
กําหนดให้	-9.52727
ลอย	-9.52827
โชว์	-9.52953
ปร	-9.52962
เลิก	-9.53008
.30	-9.53054
ที่อยู่ใน	-9.53096
ยั่งยืน	-9.53119
แบ่งออกเป็น	-9.53152
อด	-9.53178
▁มัน	-9.53204
ฉัน	-9.53209
ปัจจัย	-9.53275
เซล	-9.5329
▁สมัย	-9.5331
ต่อสู้	-9.53314
คัพ	-9.53375
▁คา	-9.53417
โอะ	-9.53439
อริ	-9.53468
กระทรวงสาธารณสุข	-9.53495
หัน	-9.53628
เป็นอันดับ	-9.53685
เชิญ	-9.53687
ทรา	-9.537
ในวงศ์	-9.53719
ปะ	-9.53769
ไตร	-9.5379
ปรากฏตัว	-9.53805
ใช้ชื่อ	-9.53829
การท่องเที่ยว	-9.5384
ตั้งชื่อ	-9.53889
▁๒	-9.53947
แห	-9.53954
แอร์	-9.53988
ew	-9.54044
เทียน	-9.54091
มอร์	-9.54193
▁ยู	-9.5422
รัม	-9.54235
บัง	-9.54239
ที่ปรึกษา	-9.54278
นาค	-9.54282
วงดนตรี	-9.54344
สีเขียว	-9.54376
แค่	-9.54395
74	-9.54512
ประสบการณ์	-9.54518
อยู่กับ	-9.54645
ดี้	-9.54705
▁2007	-9.54717
▁ไอ	-9.54724
เฉียงเหนือ	-9.54747
การบริหาร	-9.54786
▁ร่วมกับ	-9.54808
เชื่อ	-9.54873
วาน	-9.54907
แท้	-9.55115
ลัทธิ	-9.55187
เอาชนะ	-9.55208
▁อัล	-9.5521
สวม	-9.55225
ดิจิทัล	-9.55275
02	-9.55305
one	-9.55343
ers	-9.55433
สร้างความ	-9.55553
27	-9.5559
สังหาร	-9.55652
๔	-9.55663
หนังสือพิมพ์	-9.55728
ลงนาม	-9.55734
บัญชี	-9.55769
▁แอ	-9.55803
ขึ้นอยู่กับ	-9.55855
โรงงาน	-9.55856
▁รางวัล	-9.55874
สํา	-9.5589
โฆษก	-9.55899
เมน	-9.55902
คณิตศาสตร์	-9.55937
กองกําลัง	-9.55996
แร่	-9.56003
วันศุกร์ที่	-9.56012
▁ได้มีการ	-9.56021
เมืองหลวง	-9.56054
เครื่องยนต์	-9.5606
ซึ	-9.56083
มีผล	-9.56114
การก่อสร้าง	-9.56118
ปฏิกิริยา	-9.56126
ออกฉาย	-9.56218
ทางหลวง	-9.56366
เดน	-9.5637
ล้อ	-9.56424
อุดม	-9.56462
สัก	-9.56476
ในบริเวณ	-9.56514
07	-9.56525
ศัตรู	-9.56548
▁ศูนย์	-9.56595
ไม่ให้	-9.566
ความยาว	-9.56617
ตี้	-9.56728
ทวีป	-9.56731
รร	-9.56741
ความเข้าใจ	-9.56824
กระตุ้น	-9.56842
สตา	-9.56867
วรรณ	-9.5688
ที่ประชุม	-9.56917
หมู่เกาะ	-9.56919
เจ้าพระยา	-9.5693
▁ออกอากาศ	-9.56941
88	-9.57066
สินเชื่อ	-9.57081
สีดํา	-9.57095
พบได้	-9.57191
ส่วนตัว	-9.57237
▁อําเภอเมือง	-9.57239
ออสเตรีย	-9.57268
เวช	-9.57332
เปิดเผย	-9.57366
26	-9.57391
ลาส	-9.57422
ของวง	-9.57498
ในอนาคต	-9.57551
ยกระดับ	-9.57566
ยกเลิก	-9.57589
งู	-9.57597
ซึ่งมี	-9.57618
ที่เคย	-9.57625
อันตราย	-9.57631
ทราย	-9.57633
ริง	-9.57652
ดาบ	-9.57672
ท่อ	-9.57691
▁เคย	-9.57772
โปรด	-9.57773
อย่างไร	-9.57796
▁2535	-9.57898
นครราชสีมา	-9.57927
ความสนใจ	-9.57928
▁คําว่า	-9.57939
ครั้งแรกใน	-9.57949
กลัว	-9.57966
ซิส	-9.57967
พัง	-9.57967
สว่าง	-9.5801
▁จักรพรรดิ	-9.58099
ปฏิเสธ	-9.58259
▁นําแสดงโดย	-9.58292
เชื้อ	-9.58331
สํารวจ	-9.58339
ประดิษฐ์	-9.58358
หวาน	-9.58407
อาณาเขต	-9.58458
มิได้	-9.5848
เหลือง	-9.58488
ทํานอง	-9.58492
ติน	-9.58634
ความเสียหาย	-9.58742
พยาบาล	-9.58846
ผี	-9.58867
ถือว่า	-9.58893
ในสหรัฐอเมริกา	-9.58962
ฝาก	-9.58991
รี่	-9.59011
▁Y	-9.59046
=	-9.59059
ในรายการ	-9.59161
ดอร์	-9.59173
บัน	-9.59177
▁พระบาทสมเด็จพระ	-9.59196
สวยงาม	-9.59201
▁(20	-9.5921
เพลงนี้	-9.59231
สิ่งมีชีวิต	-9.59256
โดยไม่	-9.59263
ให้เกิด	-9.59324
มูลนิธิ	-9.59326
เกีย	-9.59333
การจัดการ	-9.5937
เบน	-9.59407
man	-9.59408
สัมผัส	-9.59427
▁|	-9.59449
▁for	-9.59461
เถ	-9.5947
นี้ได้	-9.59508
จ้าง	-9.59515
96	-9.59524
▁ห้อง	-9.5955
▁Co	-9.59554
ขบวน	-9.59593
ไม่นาน	-9.59632
เสรี	-9.59658
▁เกิด	-9.5969
เตีย	-9.59696
est	-9.59707
ล้าง	-9.59718
ak	-9.59756
ประชารัฐ	-9.5977
ปรมินทรมหา	-9.59797
ดร	-9.59851
▁งาน	-9.59908
000	-9.5993
ภพ	-9.59937
มติ	-9.59997
งา	-9.60031
ผู้คน	-9.60063
ตะวันออกเฉียงใต้	-9.60068
เวียน	-9.60081
แรกที่	-9.60082
กาญจน	-9.60135
ึก	-9.6015
ยุติ	-9.60211
มีค่า	-9.60242
ปก	-9.60244
สิงห์	-9.60258
แพร่	-9.60336
โรมัน	-9.60338
09	-9.6041
|	-9.60417
มัส	-9.60448
อภิ	-9.60463
ต่ํากว่า	-9.60478
ครอบคลุม	-9.60492
พระโอรส	-9.60532
พิพิธภัณฑ์	-9.60575
มีพื้นที่	-9.60578
ข้อความ	-9.6058
พันธ	-9.6065
บะ	-9.60724
ass	-9.60725
พงศ์	-9.60745
สิงคโปร์	-9.60779
ก่อตั้งขึ้น	-9.60805
ในนาม	-9.60819
ของประชาชน	-9.609
การป้องกัน	-9.61033
สูญเสีย	-9.61035
เครื่องมือ	-9.61085
เขียว	-9.61096
▁อาคาร	-9.6113
โอน	-9.6116
ดับ	-9.61212
ฝีมือ	-9.61222
งะ	-9.61261
นม	-9.61278
ดั้งเดิม	-9.61291
ปีก	-9.61305
ม่า	-9.61384
พบกับ	-9.61399
แปร	-9.61443
มาถึง	-9.61453
พระราชพิธี	-9.61458
โลหะ	-9.61521
มารี	-9.61583
พรรณ	-9.61588
กลม	-9.61611
ปีที่	-9.61739
76	-9.61744
ชื่อเล่น	-9.61746
97	-9.61777
เคยเป็น	-9.6178
กรด	-9.61814
ประสาน	-9.61815
จุ	-9.61818
่อน	-9.61835
รัฐสภา	-9.6185
05	-9.6187
ong	-9.61876
เกาหลีใต้	-9.61928
แนะนํา	-9.61934
▁เจ้าหญิง	-9.62073
ความปลอดภัย	-9.62094
▁เจ้าชาย	-9.62126
แบน	-9.6218
ความร้อน	-9.62185
คุม	-9.62187
ของพระเจ้า	-9.62188
29	-9.62227
.1	-9.6228
รณ	-9.62292
กล้ามเนื้อ	-9.62322
ั่ง	-9.62381
วัสดุ	-9.62391
ยอม	-9.62422
เขาได้	-9.62454
อย่างรวดเร็ว	-9.62465
ฟื้นฟู	-9.62466
ผัก	-9.62511
ศาลา	-9.62527
ว่าจะ	-9.62619
ฟรี	-9.62626
ซาร์	-9.62681
กระทรวงการคลัง	-9.62754
92	-9.62784
โดน	-9.62809
ในรอบ	-9.62823
ial	-9.62832
▁2539	-9.62871
เทว	-9.62922
เลียน	-9.62958
▁a	-9.63123
สามารถใช้	-9.63146
our	-9.63149
93	-9.63149
ติดตั้ง	-9.63157
โคร	-9.63173
ผู้โดยสาร	-9.63202
สมรสกับ	-9.63206
เหลี่ยม	-9.63255
เวิลด์	-9.63365
รับประทาน	-9.63412
วิศวกรรม	-9.63436
อนุมัติ	-9.63504
มวย	-9.63557
เมล็ด	-9.63615
แข่ง	-9.63619
ขุนนาง	-9.63639
ight	-9.63647
94	-9.6366
ไปด้วย	-9.63695
84	-9.637
mi	-9.63732
▁เป็นนักแสดง	-9.63749
ส่วนหนึ่ง	-9.6376
จนกระทั่ง	-9.63798
▁ภายใน	-9.63833
ide	-9.6387
ดังต่อไปนี้	-9.63876
ประชาสัมพันธ์	-9.63937
แย	-9.63943
สถานีรถไฟ	-9.63985
▁""	-9.64015
รังสี	-9.64015
ไม่เคย	-9.64015
▁(19	-9.64021
การออกแบบ	-9.64062
สมบัติ	-9.64072
เทศบาลตําบล	-9.64145
ดัดแปลง	-9.64206
เป็นจํานวนมาก	-9.64215
แสดงความ	-9.64242
▁Mo	-9.64264
▁2546	-9.64304
ance	-9.64307
การบิน	-9.64373
ยุบ	-9.64388
▁De	-9.64393
หลายคน	-9.64406
ฝ	-9.64408
▁ในประเทศ	-9.64411
-25	-9.64426
ลงทุน	-9.64443
ลัน	-9.64508
วันจันทร์ที่	-9.64549
พาณิชย์	-9.64588
ย่า	-9.64597
ที่โรงเรียน	-9.64671
สุนทร	-9.64805
อยู่บน	-9.64814
บูรณาการ	-9.64842
▁เค	-9.64855
หน	-9.64857
จนถึงปัจจุบัน	-9.64874
72	-9.64952
ลงมา	-9.65061
เฉลิม	-9.65125
รํา	-9.65128
เทน	-9.65151
ชาวบ้าน	-9.65162
ระหว่างปี	-9.65168
hi	-9.65263
คล้ายกับ	-9.65267
านนท์	-9.65287
กลไก	-9.65328
der	-9.65342
พระพุทธ	-9.65394
สีเหลือง	-9.65401
เป็นรูป	-9.65404
กู้	-9.65436
นับถือ	-9.65447
ปฏิ	-9.65479
ชนะเลิศ	-9.65543
▁เดิม	-9.6562
ทักษะ	-9.65625
คุณธรรม	-9.65642
.2	-9.65662
สวรรค์	-9.65668
บุคลากร	-9.65696
เกิดการ	-9.65757
ธรรมดา	-9.65767
ลีย์	-9.65796
เกี่ยวกับการ	-9.65821
ศูนย์กลาง	-9.65826
▁ก่อน	-9.65845
อ้าง	-9.65863
องค์ประกอบ	-9.65901
สอดคล้องกับ	-9.66072
ศร	-9.66096
เปีย	-9.6614
ทศวรรษ	-9.66154
เทศบาล	-9.66176
ในภาษา	-9.66176
ประสบ	-9.66181
]	-9.66294
ประเมิน	-9.6631
เกณฑ์	-9.66432
ความจริง	-9.66491
▁2004	-9.66503
แห่งหนึ่ง	-9.66602
▁ลักษณะ	-9.66632
เดล	-9.66638
ฮาร์	-9.66757
ซี่	-9.66775
่อง	-9.66889
▁ซี	-9.66983
เรือน	-9.67068
ที่ทําให้	-9.67073
ซ้อน	-9.67142
ลอง	-9.67216
กับการ	-9.67219
กันว่า	-9.67336
ทรัพยากร	-9.67338
ณี	-9.6735
นอ	-9.67352
สหภาพโซเวียต	-9.67357
ชําระ	-9.67391
,6	-9.67395
รับผิดชอบ	-9.67395
ng	-9.67411
ก้าน	-9.67444
บูชา	-9.67449
ล่าสุด	-9.6749
เฟอร์	-9.67519
รับบท	-9.6752
ผู้เป็น	-9.67526
ge	-9.67591
sh	-9.67684
หนู	-9.67701
ฟิลิปปินส์	-9.67709
ชุ	-9.67722
มาก่อน	-9.67791
sp	-9.67818
มีบทบาท	-9.67882
04	-9.67898
▁ชนะ	-9.67926
▁ระบบ	-9.6797
เข้ากับ	-9.68014
ติดต่อกับ	-9.68032
▁ฯลฯ	-9.68047
นักเขียน	-9.68112
▁2543	-9.68114
ฮ่องกง	-9.68157
00,000	-9.68189
สร้างสรรค์	-9.68194
นายก	-9.68219
ประเทศฝรั่งเศส	-9.68234
เป็นพระ	-9.68264
ของกลุ่ม	-9.68311
ย่าน	-9.68315
06	-9.68348
ทะเลสาบ	-9.68378
31	-9.68396
▁Ma	-9.68396
68	-9.68518
มงกุฎ	-9.68524
ได้นํา	-9.68581
เบร	-9.68597
นิยาม	-9.68618
คัดเลือก	-9.68624
ทางช่อง	-9.68687
รายชื่อ	-9.687
เชอร์	-9.68709
ลงเล่น	-9.68711
สุทธิ	-9.68713
ไหน	-9.68727
ถอน	-9.68783
ความจํา	-9.68833
bo	-9.68963
การเล่น	-9.68963
ในตําแหน่ง	-9.69024
มาเลเซีย	-9.69055
ทิศทาง	-9.69058
านุ	-9.69073
บํารุง	-9.69077
พี่	-9.69101
เฟร	-9.69107
หลักการ	-9.69172
วิจารณ์	-9.69224
เนเธอร์แลนด์	-9.69225
ud	-9.69227
ของตัวเอง	-9.69255
หลายครั้ง	-9.69261
มหาราช	-9.69265
โปรตุเกส	-9.69336
รุ่นที่	-9.69345
เซ็น	-9.69374
▁อะ	-9.69387
▁2000	-9.69463
▁2544	-9.69519
ies	-9.69532
ชายแดน	-9.69549
เผา	-9.69569
เวิร์	-9.69572
ก้า	-9.69585
วรรณกรรม	-9.69585
เรียนรู้	-9.69603
บุตรชาย	-9.69614
เปล	-9.69629
▁ต่อมาในปี	-9.69694
ช่วยให้	-9.69772
ขนาน	-9.6978
ue	-9.69781
สมเด็จ	-9.69822
▁เซ	-9.69915
io	-9.69956
วัฒน์	-9.69958
▁ประตู	-9.69962
แก้ปัญหา	-9.69974
ตึก	-9.70047
เจีย	-9.7008
เกี่ยวข้องกับ	-9.70102
ice	-9.70103
รถไฟฟ้า	-9.70112
32	-9.70124
ถือว่าเป็น	-9.7013
อัส	-9.70134
แอฟริกา	-9.70154
สะท้อน	-9.70342
วิญญาณ	-9.70342
,8	-9.70345
act	-9.70419
▁ในฐานะ	-9.70424
มีอํานาจ	-9.7044
การดําเนินการ	-9.70468
คู่กับ	-9.70564
พจน์	-9.70608
การควบคุม	-9.70617
๊อ	-9.70683
ช์	-9.70693
จะได้รับ	-9.70704
คริส	-9.70719
วัต	-9.70809
tion	-9.70906
ใช้ใน	-9.7094
บัญญัติ	-9.70996
ก็เป็น	-9.71031
แบร์	-9.71091
เชล	-9.71098
ขนส่ง	-9.71124
นิวยอร์ก	-9.7117
▁Me	-9.71266
โซน	-9.71285
ขุด	-9.71285
ผลกระทบ	-9.71329
เฉ	-9.71335
ประดับ	-9.71345
▁2545	-9.71407
แห้ง	-9.71416
แส	-9.71454
ร้อนครั้งที่	-9.71473
เจมส์	-9.71476
▁(1	-9.71524
ผู้ใหญ่	-9.71544
▁โดยเป็น	-9.71577
การนํา	-9.71674
เข้าถึง	-9.71695
▁Sh	-9.71756
▁เป็นการ	-9.71757
ซอน	-9.71769
เขมร	-9.71799
86	-9.71808
ที่มีการ	-9.71817
้อย	-9.71858
สัมพันธ์	-9.71861
การเดินทาง	-9.71903
พญา	-9.71911
อาทิตย์	-9.71942
ญาติ	-9.71999
เข้ม	-9.72047
▁กรุงเทพมหานคร	-9.72052
วิช	-9.72053
.6	-9.72134
การเงิน	-9.72156
ขั้นตอน	-9.72161
ของบริษัท	-9.72305
’	-9.72309
เจดีย์	-9.72309
pro	-9.72374
วันพฤหัสบดีที่	-9.72389
คิม	-9.72391
ian	-9.72393
การเขียน	-9.72463
ผลักดัน	-9.72615
็ต	-9.72641
หัก	-9.72677
▁สหรัฐอเมริกา	-9.72697
▁w	-9.72766
/1	-9.7284
อินเทอร์เน็ต	-9.72845
พระพุทธศาสนา	-9.72861
สวย	-9.72926
เปิดสอน	-9.72929
▁ก่อนจะ	-9.72936
ตัวแทน	-9.73009
ast	-9.73024
เหล่านั้น	-9.73049
พม	-9.73073
โบสถ์	-9.73078
mp	-9.73105
นวนิยาย	-9.73112
▁ใบ	-9.73114
ค้นหา	-9.73178
▁2542	-9.73184
ดาร์	-9.73221
จอห์น	-9.73227
นิส	-9.73245
มนตรีช่วยว่าการ	-9.7327
87	-9.7328
ธน	-9.73294
เคล	-9.73326
สนธิสัญญา	-9.73351
ฮะ	-9.73354
ex	-9.73395
ริส	-9.73515
ต่อการ	-9.73518
ลูกค้า	-9.73557
ทองคํา	-9.73563
ไปถึง	-9.73693
""	-9.73696
▁ซา	-9.73752
โปแลนด์	-9.73763
เพื่อการ	-9.73787
โค้ง	-9.73791
ip	-9.73834
เอน	-9.73855
▁X	-9.73867
เจ็ด	-9.73875
ที่สร้าง	-9.7389
จร	-9.73931
โต้	-9.7395
เหมาะสม	-9.73965
วุฒิ	-9.7398
ในฤดูกาล	-9.73991
มีส่วน	-9.74024
▁พร้อมกับ	-9.7403
be	-9.7404
▁เพื่อเป็น	-9.74044
ke	-9.74125
▁โร	-9.74167
ฝา	-9.7419
จิตใจ	-9.74212
ยักษ์	-9.74237
พิธีกร	-9.74255
กบฏ	-9.74286
▁อาจหมายถึง	-9.74295
กําจัด	-9.74299
จากโรงเรียน	-9.74305
ในครั้งนี้	-9.74325
qu	-9.74337
พระที่นั่ง	-9.74365
อุบัติเหตุ	-9.74393
การปฏิรูป	-9.7446
สวีเดน	-9.7451
รวมไปถึง	-9.74561
ทางเศรษฐกิจ	-9.74607
จะมีการ	-9.74611
ยืนยัน	-9.74662
น่าน	-9.74748
ปรากฏใน	-9.74799
ออกจําหน่าย	-9.74803
95	-9.74811
ชุมนุม	-9.74901
่ํา	-9.74912
ens	-9.74919
,3	-9.74919
ศาสน	-9.74972
พารา	-9.7501
age	-9.75011
▁โครงการ	-9.75084
รุนแรง	-9.75088
ลัส	-9.75109
ดอ	-9.75145
มูล	-9.7515
ไทยแลนด์	-9.75198
ใกล้เคียง	-9.75208
โอลิมปิก	-9.75243
แดน	-9.75315
ของพระ	-9.7536
๕	-9.75453
รุ่ง	-9.75477
มีความยาว	-9.75478
ฟังก์ชัน	-9.7553
เตือน	-9.75649
โดดเด่น	-9.75652
เกิดความ	-9.75658
ค่าใช้จ่าย	-9.75688
ผู้บัญชาการ	-9.7573
ด้า	-9.75753
ลิส	-9.75753
.25	-9.75773
นางสาว	-9.75794
▁ต้อง	-9.758
เท็	-9.75801
ความถี่	-9.75806
สาน	-9.75825
ที่เหลือ	-9.7583
▁4.0	-9.75842
อีกหลาย	-9.75883
เขาก็	-9.75913
มาตั้งแต่	-9.76003
กี้	-9.76027
อ่าว	-9.76085
ออส	-9.76086
ก็ไม่	-9.76186
ส้ม	-9.76332
เกิดจาก	-9.76345
เอะ	-9.76357
▁(,	-9.7638
คัมภีร์	-9.76441
ศตวรรษที่	-9.76444
สลับ	-9.76505
สมเด็จพระเจ้า	-9.76528
ดีขึ้น	-9.76561
ในหลาย	-9.7658
สห	-9.76586
▁เรา	-9.76594
▁เป็นภาพยนตร์	-9.76606
ไพร	-9.76655
ได้ประกาศ	-9.76668
ประกอบไปด้วย	-9.76678
กล้อง	-9.76761
รัช	-9.76774
น้ําตาล	-9.76799
,7	-9.76801
ประมง	-9.76844
ไล่	-9.76857
ยาวนาน	-9.7687
ษา	-9.76877
เช่นนี้	-9.76897
su	-9.76984
▁3.	-9.77044
▁ช่วง	-9.77077
แป	-9.7708
เลอร์	-9.77093
คนอื่น	-9.7717
lu	-9.77177
กรีก	-9.77194
▁2540	-9.77205
ภาคเหนือ	-9.77224
ขัน	-9.77256
บาน	-9.77265
าลัย	-9.7728
เวล	-9.77286
มั่น	-9.77331
แร	-9.77381
ตั้งอยู่ใน	-9.77451
คิว	-9.77462
ปั้น	-9.77498
▁แต่ไม่	-9.77502
98	-9.77641
เนื่อง	-9.77644
ที่ต้อง	-9.77661
ลอนดอน	-9.77668
วิชาชีพ	-9.77719
เป็นอาหาร	-9.77744
บรร	-9.77772
ถ่ายทอด	-9.77804
ที่ต้องการ	-9.7784
ที่สาม	-9.77851
เดนมาร์ก	-9.77887
ญา	-9.77902
โข	-9.77907
▁วิ	-9.77911
หอม	-9.77932
ฝน	-9.77941
รุก	-9.78023
เพล	-9.781
▁Th	-9.78176
การณ์	-9.78178
เปรียบเทียบ	-9.78192
เบส	-9.78285
ต้นแบบ	-9.78291
ประจําปี	-9.78336
ตั้งใจ	-9.78381
แมลง	-9.78417
ดอกไม้	-9.78429
โดยมี	-9.78446
โซล	-9.78452
เปลี่ยนชื่อ	-9.78489
เติม	-9.78494
▁เป็นเมือง	-9.78495
▁ไม่มี	-9.78587
ฟอร์	-9.78616
ทางสังคม	-9.78626
idae	-9.78629
ทรัพย์สิน	-9.7866
▁รุ่น	-9.78692
เป็นไปได้	-9.78717
ty	-9.78732
▁จอห์น	-9.78822
อบ	-9.78826
.3	-9.78909
▁ช่อง	-9.78934
อัคร	-9.78945
เหมือนกัน	-9.7903
การกระทํา	-9.79049
แก้ไขปัญหา	-9.79114
และเป็น	-9.79122
ธงชาติ	-9.79123
ของมัน	-9.792
ะฮ์	-9.7922
อัด	-9.79235
▁พวกเขา	-9.79243
ออนไลน์	-9.79357
นัส	-9.79477
ฉลอง	-9.79498
ก็ถูก	-9.79523
คราว	-9.79624
หลาน	-9.79798
แด	-9.79807
ทรงเป็น	-9.79816
เป็นเมือง	-9.79873
สุริย	-9.79926
เสื้อ	-9.80025
ช่อ	-9.80113
ชั่วคราว	-9.80176
เช้า	-9.80196
ทดลอง	-9.80253
ต้า	-9.8029
กอน	-9.80357
ล้อม	-9.80372
ที่กําลัง	-9.80376
พิสูจน์	-9.80378
▁จันทร์โอชา	-9.80378
ส่วนมาก	-9.80394
▁2005	-9.80449
เข้ารับ	-9.8046
ไก่	-9.80476
เช่นเดียวกับ	-9.80488
▁ตารางกิโลเมตร	-9.80503
ee	-9.80509
ได้จาก	-9.80518
.4	-9.80551
ทั้งใน	-9.80581
ลีน	-9.80602
ห่างจาก	-9.8063
ตรงข้าม	-9.80675
▁แปลว่า	-9.80683
ทิศ	-9.80713
ear	-9.80775
นิสัย	-9.80805
วินิจฉัย	-9.80835
ละลาย	-9.80857
บริจาค	-9.80959
ล้วน	-9.80961
มีหน้าที่	-9.80961
วอล	-9.80967
ทัศน์	-9.81002
ขยายตัว	-9.8102
▁ดอก	-9.81034
ca	-9.81049
ระดับปริญญาตรี	-9.81065
ว่าด้วย	-9.81065
จากมหาวิทยาลัย	-9.8111
แผ่	-9.81113
เพื่อสร้าง	-9.81214
ก่อให้เกิด	-9.81231
กัล	-9.81269
ทอด	-9.81279
มีโอกาส	-9.81329
ห้วย	-9.81336
เป็นประธาน	-9.81336
อาจมี	-9.81352
๑	-9.81387
มีชื่อว่า	-9.81399
เป็นตัวแทน	-9.81431
โชค	-9.81508
ผู้ชนะ	-9.81543
ลงพื้นที่	-9.81555
อนุรักษ์	-9.81563
เยือน	-9.81586
ร่อง	-9.81598
ว่าง	-9.81648
เวีย	-9.81656
จัดงาน	-9.81676
ปฏิรูป	-9.81769
นั้นมี	-9.81797
ที่น่า	-9.81797
จอร์จ	-9.81802
จุลจอมเกล้า	-9.81804
ธร	-9.81846
ถัง	-9.81846
ลัก	-9.81938
ยิ่งใหญ่	-9.82067
เบิล	-9.82198
แขน	-9.82234
นามว่า	-9.82258
ถาวร	-9.82259
ของมนุษย์	-9.82298
วอร์	-9.82317
คาด	-9.82436
▁ล้านคน	-9.82463
-3	-9.82511
▁โดยจะ	-9.82519
การส่งเสริม	-9.82522
ซ่า	-9.82553
ดับเบิลยู	-9.82555
ปลอดภัย	-9.82579
กันดั้ม	-9.82639
▁80	-9.82643
ินทร์	-9.82748
▁เดลินิวส์	-9.82766
▁อีกทั้ง	-9.82774
สัต	-9.828
ของพวกเขา	-9.82806
อิเล็กทรอนิกส์	-9.82809
แต่งงาน	-9.82846
คัด	-9.82873
เป็นเรื่อง	-9.82928
ตอนที่	-9.82966
ปูน	-9.83082
▁ร่วม	-9.83087
▁Thailand	-9.83122
▁พรรษา	-9.83147
๙	-9.83149
▁สถาบัน	-9.83179
ทางเพศ	-9.83207
เครื่องหมาย	-9.8321
▁นาที	-9.83317
เป็นนักร้อง	-9.83352
รูปร่าง	-9.83359
มังกร	-9.83389
ศิษย์	-9.83397
เอาไว้	-9.83404
เชียง	-9.83407
tt	-9.83432
▁ก่อนที่จะ	-9.83455
ปรากฏการณ์	-9.83506
ซิม	-9.8352
หลุม	-9.83533
ชี้แจง	-9.83575
end	-9.83598
ซุน	-9.83601
▁ผลงาน	-9.83655
สนามกีฬา	-9.83657
▁ชั่วโมง	-9.83716
▁เป็นประธาน	-9.83764
นั้นเป็น	-9.83791
ทัย	-9.838
จดหมาย	-9.83813
ถ่ายทํา	-9.83836
tal	-9.83873
สาธารณสุข	-9.83882
จะสามารถ	-9.8389
▁หมู่บ้าน	-9.83998
บรรดา	-9.84057
ไปจนถึง	-9.84058
เป็นอย่างมาก	-9.84074
มาใช้	-9.84075
ธรรมศาสตร์	-9.84086
▁เครื่อง	-9.84086
ความสําเร็จ	-9.8416
อย่างหนึ่ง	-9.84162
ศีล	-9.84181
ทน	-9.84185
▁รมว	-9.84203
นิวเคลียร์	-9.84218
ื	-9.84231
เทร	-9.84239
สูงขึ้น	-9.84242
เหรียญทอง	-9.84243
ที่พบ	-9.84305
การแพทย์	-9.84335
ช่วงเวลา	-9.84353
▁พร้อมทั้ง	-9.84376
เห็นชอบ	-9.84425
ความแตกต่าง	-9.84517
นิยาย	-9.84525
▁ประเภท	-9.84543
หญ้า	-9.84563
าราม	-9.84664
บ่อ	-9.84689
เอกลักษณ์	-9.84703
ยัน	-9.84716
การแข่งขันกีฬา	-9.84729
ไปตาม	-9.84792
สีน้ําตาล	-9.84795
มีความสําคัญ	-9.84813
ดัน	-9.84906
กึ่ง	-9.84907
แถว	-9.84909
▁ใกล้เคียงกับ	-9.84912
ที่ไม่มี	-9.84931
▁วันอังคารที่	-9.84991
การทดลอง	-9.84998
ผ่านทาง	-9.84998
bi	-9.85022
89	-9.85028
ย่อม	-9.85049
พายุ	-9.851
ยาม	-9.85111
ระบุว่า	-9.85119
▁นอกจากนี้ยัง	-9.85124
พรีเมียร์ลีก	-9.85256
ทําได้	-9.85279
▁พรรค	-9.85281
ical	-9.85285
▁Ar	-9.85323
พระพุทธรูป	-9.85384
ความต้องการ	-9.85392
กล้า	-9.85426
▁กล่าวว่า	-9.85442
บ่อย	-9.85476
▁รองนายกรัฐมนตรี	-9.85477
ฮุ	-9.85513
วิดีโอ	-9.85525
เป็นผล	-9.85562
ความเสี่ยง	-9.85564
ในภาพยนตร์	-9.85566
แอนด์	-9.85579
สนิท	-9.85594
ขนม	-9.85701
สมัยใหม่	-9.85824
ต่อปี	-9.85845
หม่อม	-9.85897
▁200	-9.85934
เป็นหลัก	-9.85945
หุ้น	-9.86034
แปด	-9.86047
▁อันเป็น	-9.86051
ให้เห็น	-9.86072
เวย์	-9.86158
สุโขทัย	-9.86173
ack	-9.8618
ขัด	-9.86254
ของคน	-9.86298
การทํางานของ	-9.86301
แพร่หลาย	-9.86339
03	-9.86344
หุ	-9.86345
ด่าน	-9.8635
เพียงพอ	-9.8636
เอกราช	-9.86373
ดาวเคราะห์	-9.86406
▁คํา	-9.86484
คนไข้	-9.86488
ค่ํา	-9.86515
ได้ทําการ	-9.86525
เก้า	-9.86552
เทือกเขา	-9.86569
▁An	-9.86583
ได้เข้า	-9.86595
▁เฮ	-9.86598
form	-9.86625
กรา	-9.86687
การเรียนรู้	-9.86701
ea	-9.86792
พื้นเมือง	-9.86816
บางคน	-9.86838
บอย	-9.86875
ก้อน	-9.86913
สถานศึกษา	-9.8692
เยี่ยม	-9.86986
เป็นต้น	-9.8701
ในทุก	-9.87033
เข้าไปใน	-9.87056
ฉายา	-9.8707
ชื่อของ	-9.87135
ื่	-9.87146
และพัฒนา	-9.872
EC	-9.87217
▁(25	-9.87224
ยุทธการ	-9.87307
สลาย	-9.87391
ลัด	-9.87445
หอย	-9.87462
ไว้ว่า	-9.87515
res	-9.87544
▁นับเป็น	-9.87555
แน่นอน	-9.87601
ใช้ในการ	-9.87617
แคนาดา	-9.87621
▁เช่นเดียวกับ	-9.87631
คิดว่า	-9.87677
ชัยชนะ	-9.87697
▁ฤดูกาล	-9.8778
แปลก	-9.8778
แปลว่า	-9.87815
ความขัดแย้ง	-9.87835
หาร	-9.87837
วดี	-9.87837
▁2538	-9.87846
นันท	-9.87865
ต่างกัน	-9.87895
สป	-9.87936
ตกแต่ง	-9.8795
ทรี	-9.87973
เรียกร้อง	-9.8808
ในระยะ	-9.88098
กุศล	-9.88112
ประเทศญี่ปุ่น	-9.88117
วาระ	-9.88136
▁มัก	-9.88186
เลือกตั้ง	-9.88205
ยืม	-9.88212
มองเห็น	-9.88222
ลุก	-9.88233
ที่เกี่ยวข้องกับ	-9.88296
น่าจะ	-9.88399
หง	-9.88514
ทัวร์	-9.88522
ron	-9.88545
ลี่	-9.88565
ยินดี	-9.88633
ออกเสียง	-9.88841
ภั	-9.88928
อะตอม	-9.88931
ทั้งหลาย	-9.88967
tr	-9.89038
ปกป้อง	-9.89073
▁Z	-9.89127
มณี	-9.8918
พระนคร	-9.892
สําเนียง	-9.89383
ปราบปราม	-9.89428
ซับซ้อน	-9.89477
อวัยวะ	-9.89519
ดยุก	-9.89567
▁นก	-9.89579
ญาณ	-9.89594
[[	-9.89689
น้ําท่วม	-9.89694
นว	-9.89722
ไหม	-9.89723
เพลิง	-9.89786
ด้านล่าง	-9.89818
วิวัฒนาการ	-9.89837
แตกต่างกัน	-9.89848
▁โดยได้	-9.89861
สละ	-9.89862
ตลก	-9.8988
ในโลก	-9.89909
au	-9.89922
ขบวนการ	-9.89931
สารสนเทศ	-9.89974
ขัง	-9.89975
บรา	-9.90001
กิ่ง	-9.90029
▁ยังมี	-9.9008
▁อุ	-9.9009
แอบ	-9.90101
เกล	-9.90146
เกิดจากการ	-9.90195
ตัวอักษร	-9.90232
บาดเจ็บ	-9.90263
ฟิสิกส์	-9.90384
โกล	-9.90387
ได้ถึง	-9.90408
ดอล	-9.90441
ในบาง	-9.90442
ary	-9.90472
ณา	-9.90485
ความผิด	-9.90487
เจาะ	-9.90525
วิกฤต	-9.90531
จําเป็นต้อง	-9.90533
กัด	-9.90551
เคารพ	-9.90568
ฟอร์ด	-9.90654
หายไป	-9.90682
เปรียบ	-9.90722
ปรากฏว่า	-9.90746
พร้อมกัน	-9.90787
เรียบร้อย	-9.90809
เป็นแบบ	-9.90872
▁จะมี	-9.90882
ศิลา	-9.90924
da	-9.91005
หมุน	-9.91049
ย้ายมา	-9.91194
เซต	-9.91196
เนื้อเรื่อง	-9.91257
ัป	-9.91291
▁และต่อมา	-9.91358
พี่ชาย	-9.91396
กัง	-9.91417
นอกจาก	-9.91441
แผนก	-9.91474
▁Ro	-9.91495
จึงต้อง	-9.91582
พบใน	-9.9161
กด	-9.9164
เป็นกลุ่ม	-9.91676
ในเวลาต่อมา	-9.91678
เลอ	-9.91703
ผู้ชม	-9.91704
หิ	-9.91745
พิทักษ์	-9.91767
▁ก็ได้	-9.91771
ภาคเอกชน	-9.91807
▁ตั้งอยู่ที่	-9.91816
▁บ้าน	-9.91838
เฉลิมพระเกียรติ	-9.9186
๒	-9.91887
▁ชา	-9.91911
ในประวัติศาสตร์	-9.9195
ัน	-9.91987
ไร่	-9.92022
▁วงศ์	-9.92063
▁ประเทศญี่ปุ่น	-9.92076
เผ่า	-9.92087
เป็นสถานที่	-9.92104
ผู้เข้าแข่งขัน	-9.92144
▁โดยที่	-9.92234
มีส่วนร่วม	-9.92287
ของญี่ปุ่น	-9.92288
อุทยานแห่งชาติ	-9.92304
ไต้หวัน	-9.92325
ตู้	-9.92328
เพน	-9.92332
รอส	-9.92335
ค้า	-9.92408
อาณานิคม	-9.92418
จาง	-9.92447
ber	-9.92462
เกมส์	-9.92494
บก	-9.925
ปราบ	-9.92526
การวิจัย	-9.92533
คริสต์ทศวรรษ	-9.92568
เมตร	-9.9259
พระมหา	-9.92651
uc	-9.92651
อ้างอิง	-9.92662
ในตอน	-9.92681
วิเคราะห์	-9.92721
จะทํา	-9.92772
หลังจากที่	-9.92793
สัญชาติ	-9.92793
กลอง	-9.92809
การบริหารจัดการ	-9.92814
การ์ด	-9.92831
▁จากการ	-9.92893
พัด	-9.92944
เธอร์	-9.92966
อ้างว่า	-9.92987
▁เรียกว่า	-9.92995
เกษตรและสหกรณ์	-9.93074
.7	-9.93144
ลิป	-9.93149
รับราชการ	-9.93194
เดินทางมา	-9.93219
▁บาง	-9.93222
▁โดยการ	-9.93243
ผู้กํากับ	-9.93254
ย้ํา	-9.93292
ท่องเที่ยว	-9.93294
เป็นผู้นํา	-9.93353
วงจร	-9.93394
๖	-9.93404
ไม่กี่	-9.93404
▁ต่อมาได้	-9.93408
หมื่น	-9.93439
son	-9.93449
อาศัยอยู่ใน	-9.93478
็กซ์	-9.93495
เดือนมีนาคม	-9.93498
อยู่ภายใต้	-9.93502
คติ	-9.93526
หม่อมเจ้า	-9.93528
▁ฮา	-9.93532
การใช้งาน	-9.93555
ป่วย	-9.93571
ทําให้เขา	-9.93598
คือการ	-9.93677
โร่	-9.93698
แกร	-9.93714
แมว	-9.93715
เม็กซิโก	-9.94019
▁ในปัจจุบัน	-9.94033
เลิศ	-9.94033
ได้รับพระราชทาน	-9.94037
สูบ	-9.94056
ผลไม้	-9.9406
อว์	-9.94143
▁ประธาน	-9.94157
▁ถือเป็น	-9.94165
ลูกชาย	-9.94213
อัง	-9.94284
▁Tr	-9.94291
ace	-9.94449
ยึดครอง	-9.94452
หลอดเลือด	-9.9446
ประเทศอังกฤษ	-9.94465
ระดับสูง	-9.94478
tor	-9.94494
ของท่าน	-9.94539
หล่อ	-9.94552
หัวข้อ	-9.94569
เคีย	-9.94624
ซาก	-9.9463
นักฟุตบอล	-9.94641
ขณะนี้	-9.94653
อัตราการ	-9.94716
เกล้า	-9.94724
ase	-9.94738
สตี	-9.94749
▁กอง	-9.9476
ห้องเรียน	-9.9482
เป็นที่นิยม	-9.94849
ชุม	-9.94853
▁Con	-9.94868
บําบัด	-9.94878
เจรจา	-9.94934
▁ภาพยนตร์	-9.94936
ไปเป็น	-9.9496
นักมวย	-9.9497
เพื่อใช้	-9.94972
เงื่อนไข	-9.94972
พาร์	-9.9513
มาลา	-9.95185
ขับร้อง	-9.95206
โด่งดัง	-9.95212
มาร	-9.9522
▁โทร	-9.95236
วงการ	-9.95259
ชื่อดัง	-9.95273
ผู้ชาย	-9.95339
300	-9.95464
อิม	-9.95478
วุ	-9.95517
ใช้ชีวิต	-9.95525
กวน	-9.95553
ในภาค	-9.95594
ที่ได้รับการ	-9.9562
ทริ	-9.95661
▁สมาชิก	-9.95704
เกี่ยว	-9.95708
ใช้ชื่อว่า	-9.95711
▁นอกจากนี้ยังมี	-9.95751
ราชสมบัติ	-9.95761
อํา	-9.95771
อย่างยิ่ง	-9.95912
ฝูง	-9.95935
ละเอียด	-9.96029
ได้ดี	-9.96035
▁2002	-9.96039
ัญญ	-9.96089
พากย์	-9.9613
วันอาทิตย์	-9.96141
นั้นจะ	-9.96164
อย่างน้อย	-9.96215
ท้าว	-9.96221
วิลเลียม	-9.96226
ความสามารถในการ	-9.96265
เนส	-9.96295
อนุภาค	-9.96305
ผู้ปกครอง	-9.96353
▁และในปี	-9.96424
ถา	-9.96424
แม้จะ	-9.9643
ซัส	-9.9643
int	-9.96466
มืด	-9.9647
กัส	-9.96483
สถานีโทรทัศน์	-9.96508
ทรงพระกรุณา	-9.96517
▁2531	-9.96548
ชาวอังกฤษ	-9.96587
เมา	-9.96591
é	-9.96614
โซเวียต	-9.96659
ภักดี	-9.96712
▁เปิด	-9.96782
วิทยาเขต	-9.96795
แคน	-9.96817
ไวรัส	-9.96845
▁ศรี	-9.96847
▁เบ	-9.96871
ผู้ว่าราชการ	-9.96912
ขี้	-9.96916
ประชุมคณะกรรมการ	-9.96917
ทุกอย่าง	-9.96944
▁2541	-9.96998
ดุล	-9.97047
port	-9.97052
สหพันธ์	-9.97064
ทุกข์	-9.97103
ถูกใช้	-9.97132
ก็สามารถ	-9.97173
ไมล์	-9.972
สถานีวิทยุ	-9.97204
สายการบิน	-9.97248
เดือนมกราคม	-9.9725
สมรส	-9.9727
▁อาจ	-9.97282
▁g	-9.97284
อะนิเมะ	-9.97348
91	-9.97353
▁h	-9.97355
SM	-9.97361
ตัวผู้	-9.97442
บอกว่า	-9.97446
คิง	-9.97449
ตัวเลข	-9.97494
อาชีวศึกษา	-9.97495
5,000	-9.97519
ib	-9.97578
▁ผู้อํานวยการ	-9.97586
ย้อน	-9.97596
ชื่นชม	-9.97598
ขั้ว	-9.97691
คลินิก	-9.97741
ฮู	-9.97838
นครศรีธรรมราช	-9.97895
บริโภค	-9.97912
▁[	-9.97933
ศึกษาต่อ	-9.97934
นําโดย	-9.9794
ฟาโรห์	-9.98086
อย่างยั่งยืน	-9.98132
▁มีความ	-9.98151
ที่อยู่อาศัย	-9.98161
ปริญญา	-9.98267
ตาก	-9.98317
วินัย	-9.9832
แผนการ	-9.98359
do	-9.98412
▁;	-9.9845
นักท่องเที่ยว	-9.98454
ใส	-9.98608
ประมุข	-9.98618
สายพันธุ์	-9.98645
ถอด	-9.98784
▁อัลบั้ม	-9.98817
บางอย่าง	-9.9886
การตรวจ	-9.98877
โครง	-9.9895
เฉพาะอย่างยิ่ง	-9.98966
มีอิทธิพล	-9.98972
ของแต่ละ	-9.99006
เสียหาย	-9.99019
อยู่ระหว่าง	-9.99045
▁Di	-9.99074
ไม่ค่อย	-9.99074
โทรศัพท์	-9.99113
การขับเคลื่อน	-9.99125
ลูกสาว	-9.99125
ลิขสิทธิ์	-9.99129
วาส	-9.99138
การจัดตั้ง	-9.99142
รัฐวิสาหกิจ	-9.99181
พรรคการเมือง	-9.99217
Te	-9.9924
ธุ	-9.99244
คําถาม	-9.99292
เป็นศูนย์กลาง	-9.99309
ของมหาวิทยาลัย	-9.99345
คุณสมบัติ	-9.99354
แสดงว่า	-9.99399
เลส	-9.99415
เฝ้า	-9.99429
iz	-9.99502
ตอนแรก	-9.99503
ป์	-9.99518
ในส่วนของ	-9.99595
ได้รับแต่งตั้ง	-9.99639
ตื่น	-9.99681
การปฏิวัติ	-9.99683
ที่สุดใน	-9.99692
เคลื่อนที่	-9.99694
กระจก	-9.99705
หลังจากการ	-9.99723
โปรตีน	-9.9973
▁ได้มี	-9.99739
ลาร์	-9.99791
แลกเปลี่ยน	-9.99823
มีรูปร่าง	-9.99828
และเทคโนโลยี	-9.99831
ดึง	-9.99856
ชัด	-9.99868
▁2537	-9.99873
สัดส่วน	-9.99881
เดือนกันยายน	-9.99881
ศีรษะ	-9.99932
ได้ด้วย	-9.99937
อัม	-9.99948
เรือง	-9.99951
▁1980	-9.99994
ขณะนั้น	-10.0002
ga	-10.0003
gen	-10.0003
เว็บ	-10.0003
▁วิทยาลัย	-10.0007
▁ชุด	-10.001
ป้าย	-10.0012
ถ้วย	-10.0013
pi	-10.0019
ชนิดนี้	-10.0025
▁สม	-10.0028
อิสราเอล	-10.0028
เป็นที่ตั้งของ	-10.0032
แม้แต่	-10.0032
ock	-10.0033
ห่าง	-10.0039
▁วันพุธที่	-10.0039
อายุได้	-10.0043
โมเลกุล	-10.0044
ละครเรื่อง	-10.0044
▁Mar	-10.0048
ด้านหน้า	-10.005
ยอง	-10.005
ชาวจีน	-10.0057
บุคคลที่	-10.006
ในเกม	-10.0063
ท่าเรือ	-10.0068
ุ่น	-10.0069
ตามกฎหมาย	-10.007
▁พร้อมด้วย	-10.0076
▁รอบ	-10.0077
▁สถานี	-10.008
ชั่ว	-10.0088
ในรัชสมัย	-10.0093
ประกันภัย	-10.0097
เป็นแหล่ง	-10.0097
ฤดูร้อน	-10.0099
ทางตะวันออก	-10.0106
สงครามโลกครั้ง	-10.011
▁ดัง	-10.0111
ไก	-10.0113
ของโรงเรียน	-10.0113
▁กม	-10.0116
ซึม	-10.0116
ผู้ผลิต	-10.0117
มิล	-10.0122
มัธยมศึกษา	-10.0132
▁บุญ	-10.0132
อิหร่าน	-10.0135
เป็นไปตาม	-10.0136
▁สี	-10.0137
ยีน	-10.0142
วัยรุ่น	-10.0144
ปาร์	-10.0148
ชวน	-10.0153
ทางหลวงแผ่นดิน	-10.0153
ด่วน	-10.0155
วิท	-10.0155
มหาสมุทร	-10.0158
รับบทเป็น	-10.0161
เขียนบท	-10.0162
ผู้จัดการ	-10.0169
การสื่อสาร	-10.0169
มุข	-10.0172
ที่เกิด	-10.0174
บรรยากาศ	-10.0176
นับตั้งแต่	-10.0178
นําเข้า	-10.0178
สุดท้ายของ	-10.0179
กรณ์	-10.0185
มีลักษณะเป็น	-10.0186
๘	-10.0191
อาจเป็น	-10.0193
ind	-10.0193
พึ่ง	-10.02
นิทรรศการ	-10.0202
▁He	-10.0206
ต่อสู้กับ	-10.0209
ี่ยว	-10.0209
▁2018	-10.0212
ดง	-10.0213
ริโอ	-10.0214
สะดวก	-10.0215
▁จุด	-10.0223
▁นพ	-10.0225
▁พัน	-10.0225
เพอร์	-10.0226
▁เดอ	-10.0226
ดื่ม	-10.0228
มิว	-10.0232
เดือนธันวาคม	-10.0233
?	-10.0238
นี้คือ	-10.0239
▁ภาค	-10.0246
▁ได้รับการ	-10.0249
ชัก	-10.0249
หลังจากนั้น	-10.025
ys	-10.025
่ย	-10.0251
ซอง	-10.0251
อธิบดีกรม	-10.0252
ก่อนหน้านี้	-10.0252
เปลี่ยนชื่อเป็น	-10.0253
นั่นเอง	-10.0257
ลักษณะของ	-10.0265
เบื้องต้น	-10.0267
เศษ	-10.0269
ได้พบกับ	-10.0272
การเคลื่อนไหว	-10.0274
นอร์เวย์	-10.0275
เหมาะ	-10.0281
tu	-10.0284
หลวงพ่อ	-10.0285
ชาร์	-10.029
พลเรือน	-10.0291
เกะ	-10.0293
น็อค	-10.0294
วาท	-10.0297
ดวงอาทิตย์	-10.0302
ระหว่างการ	-10.0305
▁เกิดวันที่	-10.0308
พระบรม	-10.0309
เดือนเมษายน	-10.031
เป็นจุด	-10.0312
ัจ	-10.0312
ผัน	-10.0317
เคียว	-10.0318
จําพวก	-10.032
อนุญาตให้	-10.032
ฉุกเฉิน	-10.0321
les	-10.0322
ที่ยัง	-10.0327
▁แต่เมื่อ	-10.0335
ป้อม	-10.0337
ครบรอบ	-10.0338
วีร	-10.034
▁เล่ม	-10.034
Q	-10.0345
กอร์	-10.0347
มายัง	-10.0349
▁และเมื่อ	-10.0351
วงกลม	-10.0355
โตร	-10.0356
จังหวัดเชียงใหม่	-10.0357
โจว	-10.0357
รู้ว่า	-10.0361
Cl	-10.0361
ลิม	-10.0361
ราชสํานัก	-10.0363
ory	-10.0364
เสื่อม	-10.0373
ดีเด่น	-10.0382
แตกต่างจาก	-10.0385
ตามแนว	-10.0392
ทูล	-10.0393
ต้องมี	-10.0397
เป็นอย่างดี	-10.0399
เพียงแค่	-10.0401
ชุดนี้	-10.0401
ก่อนหน้า	-10.0404
สุนัข	-10.0404
เดือนพฤษภาคม	-10.041
ลาออกจาก	-10.0416
เพื่อที่จะ	-10.0419
แถลง	-10.0421
ther	-10.0429
บางชนิด	-10.0429
ความช่วยเหลือ	-10.0435
ประถมศึกษา	-10.0437
▁Bo	-10.0441
ปวด	-10.0442
จึงเป็น	-10.0444
sa	-10.0446
นิพนธ์	-10.0446
ซอฟต์แวร์	-10.0446
เหยื่อ	-10.0446
ชอ	-10.0449
▁ด้วยการ	-10.0451
▁เด	-10.0454
โตเกียว	-10.0455
.8	-10.0462
ผู้สูงอายุ	-10.0467
น้ําแข็ง	-10.0471
ส่วนราชการ	-10.0471
เรียบ	-10.0472
มะเร็ง	-10.0474
ล็อก	-10.0474
ชั่วโมง	-10.0476
ทางตะวันตก	-10.0478
โฉม	-10.0478
นักวิชาการ	-10.0479
หลุยส์	-10.0487
สกี	-10.0488
จําแนก	-10.0488
เพลงที่	-10.0491
▁เป็นเพลง	-10.0491
บรม	-10.0494
▁จบการศึกษา	-10.0496
เป็นเจ้าของ	-10.05
พระพุทธเจ้า	-10.0512
็อต	-10.052
สอด	-10.0521
บันเทิง	-10.0529
พ่ายแพ้	-10.0532
กําลังใจ	-10.0536
พิพากษา	-10.0536
้ด	-10.0542
ust	-10.0542
รัฐประหาร	-10.0544
เคลื่อน	-10.0546
มั่นคงของมนุษย์	-10.0547
คุณค่า	-10.0547
สหประชาชาติ	-10.055
*	-10.0554
มนต์	-10.0555
ประดิษฐาน	-10.0557
ถัดมา	-10.0557
เน็ต	-10.0559
si	-10.056
ครุ	-10.056
▁ฉบับ	-10.0561
▁คุณ	-10.0563
เงา	-10.0564
นิน	-10.0566
ยาย	-10.0566
▁70	-10.0567
ess	-10.0571
ได้สําเร็จ	-10.0572
ั่ว	-10.0573
▁2003	-10.0575
การเพิ่ม	-10.0578
กรุงศรีอยุธยา	-10.0579
ord	-10.058
มหาวิหาร	-10.058
แค้น	-10.0581
กบ	-10.0582
นิต	-10.0583
ในช่วงเวลา	-10.0585
▁&	-10.0587
ตับ	-10.059
▁แต่ว่า	-10.0597
▁1990	-10.0599
ัฟ	-10.0602
ประกวด	-10.0604
สงสัย	-10.0606
ข้า	-10.0606
ของนาย	-10.0607
สังคมและความ	-10.0614
ตัวเมีย	-10.0615
ก็ต้อง	-10.0616
ดิส	-10.0625
เอ็กซ์	-10.0626
เลขที่	-10.0631
ในลักษณะ	-10.0632
ปลด	-10.0633
สํานักพิมพ์	-10.0633
ัณ	-10.0634
วินาที	-10.0639
ka	-10.0642
โพธิ	-10.0644
ราชินีนาถ	-10.0645
ประสิทธิภาพ	-10.0652
เปลี่ยนเป็น	-10.0652
พัฒนาการ	-10.0657
ละครโทรทัศน์	-10.0665
คว้า	-10.0667
▁ลูก	-10.0671
ถาม	-10.0675
กุ้ง	-10.0675
เคลื่อนไหว	-10.0675
กรอง	-10.0676
ame	-10.0681
ให้ประชาชน	-10.0687
IS	-10.0687
ชาร์ล	-10.0688
1,000	-10.0688
การจัดอันดับ	-10.069
แก๊ส	-10.0692
ความคิดเห็น	-10.0693
ใดๆ	-10.0693
เป็นเจ้าภาพ	-10.0693
เรย์	-10.0694
วอน	-10.07
▁จึงมี	-10.0701
พระราชธิดา	-10.0702
ome	-10.0705
เสมือน	-10.0708
มัง	-10.0708
บ่อยครั้ง	-10.0713
อักเสบ	-10.0719
ทางใต้	-10.0721
จุล	-10.0722
เชื้อเพลิง	-10.0725
▁re	-10.0726
จารึก	-10.0729
▁โดยให้	-10.073
▁จี	-10.073
ฤดู	-10.0736
▁To	-10.0737
หมู	-10.0742
▁2534	-10.0745
ถ้ํา	-10.0746
ซ่อน	-10.0749
ไอร์แลนด์	-10.0751
มีปัญหา	-10.0756
▁ตัวอย่างเช่น	-10.0767
ธานี	-10.0768
คุณภาพชีวิต	-10.077
▁ซึ่งได้	-10.0773
อนาคต	-10.0774
พัฒน์	-10.0775
▁Le	-10.0776
ร่ม	-10.0778
สมเด็จพระราชินี	-10.0783
ฟุตบอลโลก	-10.0783
▁และได้รับ	-10.0785
ru	-10.0786
บุรุษ	-10.0789
การปฏิบัติ	-10.079
พลเอก	-10.0794
ถุง	-10.0795
ไมเคิล	-10.0801
ในอัลบั้ม	-10.0808
การคัดเลือก	-10.0813
สัมพันธ์กับ	-10.0816
หลายชนิด	-10.0818
ลิก	-10.0818
อาหรับ	-10.0821
ชนบท	-10.0822
ไม่เป็น	-10.0823
ขอนแก่น	-10.0824
ภาษาจีน	-10.0834
ได้กล่าว	-10.0835
อํานวยความสะดวก	-10.0839
ได้ใช้	-10.084
เทศบาลเมือง	-10.0842
สัตว์ป่า	-10.0845
▁ขณะ	-10.0845
ขอบคุณ	-10.0847
▁ในสมัย	-10.0848
ที่ว่า	-10.0849
อัตโนมัติ	-10.0849
ในยุโรป	-10.0855
จดทะเบียน	-10.0855
gi	-10.0864
WWE	-10.0866
ได้ออก	-10.0867
สองคน	-10.0872
ลอบ	-10.0881
ฒ	-10.0882
ศักดิ์สิทธิ์	-10.0883
เสริมสร้าง	-10.0888
ได้เข้าร่วม	-10.0892
คลัง	-10.0893
wa	-10.0894
ชาวญี่ปุ่น	-10.0895
ทวี	-10.0895
eg	-10.0897
บลู	-10.0898
ที่กําหนด	-10.0898
ran	-10.0903
ผลผลิต	-10.0904
อัต	-10.0906
▁นัด	-10.0907
เป็นจํานวน	-10.0915
ซัม	-10.0915
ได้สร้าง	-10.092
อาสนวิหาร	-10.0921
ข้อตกลง	-10.0921
อิส	-10.0923
ราชภัฏ	-10.0926
สืบทอด	-10.0929
ช่องทาง	-10.0931
นาซี	-10.0939
▁You	-10.094
สวรรคต	-10.0947
if	-10.0949
▁องค์การ	-10.0952
โพธิ์	-10.0954
ของเมือง	-10.0957
อิสลาม	-10.0957
การพิจารณา	-10.0958
▁ประยุทธ์	-10.096
วาร์	-10.0962
▁จุฬาลงกรณ์	-10.0965
เข้าแข่งขัน	-10.0966
กลีบ	-10.0979
ความเห็น	-10.0981
mer	-10.0982
tra	-10.0982
รับฟัง	-10.0988
ม์	-10.0989
การเกิด	-10.0991
▁กระทรวง	-10.0991
ทดสอบ	-10.0996
แทบ	-10.0999
เง	-10.1001
มี่	-10.1003
เออร์	-10.1004
ดาราศาสตร์	-10.1004
ยี	-10.1007
แข็งแรง	-10.1008
▁เกิดเมื่อ	-10.1009
จังหวะ	-10.101
▁อิน	-10.1012
ral	-10.1013
“	-10.1013
ก๊าซ	-10.1015
ตุรกี	-10.1015
๗	-10.1015
ในรัฐ	-10.1018
สามเหลี่ยม	-10.1021
เป็นหัวหน้า	-10.1033
จอมพล	-10.1034
พู	-10.1035
ใย	-10.1038
ความรุนแรง	-10.1042
หลายอย่าง	-10.1045
ัวร์	-10.1046
ภาควิชา	-10.1047
มั่นคง	-10.1052
▁SMEs	-10.1054
วิทย์	-10.1054
เช่า	-10.1055
เสี่ยง	-10.106
เดือนมิถุนายน	-10.106
มีอยู่	-10.1064
▁ก็จะ	-10.1066
พอล	-10.1069
การขนส่ง	-10.1069
▁ตัวอย่าง	-10.107
แล้วเสร็จ	-10.1071
ts	-10.1071
mb	-10.1072
มีการใช้	-10.1076
ซิตี	-10.1077
ทีมชาติไทย	-10.1081
สปีชีส์	-10.1082
ค่อย	-10.1083
นักวิทยาศาสตร์	-10.1087
▁ข้อ	-10.1093
มุสลิม	-10.1094
▁โม	-10.1098
▁หน่วย	-10.1103
ปีต่อมา	-10.1103
จัน	-10.1105
กระทรวงการพัฒนา	-10.1105
อย่า	-10.1106
นีย์	-10.1106
▁32	-10.1109
เปลี่ยนไป	-10.1113
ชิงแชมป์โลก	-10.1116
มีพระ	-10.1117
น้องชาย	-10.1122
บาล	-10.1127
หะ	-10.113
หมวดหมู่	-10.1134
▁Be	-10.1135
สื่อสาร	-10.1138
ที่เหมาะสม	-10.1143
ประเทศเยอรมนี	-10.1148
เรียบเรียง	-10.1157
ที่เขียน	-10.1159
ฟื้น	-10.116
ธาร	-10.1166
เจ้าเมือง	-10.117
เกษตรกรรม	-10.1172
▁และสามารถ	-10.1172
ไทร	-10.1173
ทุกวัน	-10.1177
กีตาร์	-10.1184
สมการ	-10.1184
โรจน์	-10.119
แอม	-10.1194
▁2560)	-10.1197
สวด	-10.1201
ผูก	-10.1209
ที่แตกต่างกัน	-10.121
ตอง	-10.1218
▁2536	-10.1218
เบิร์ก	-10.1218
ลัม	-10.1224
แผ่นดินไหว	-10.1225
๒๕	-10.1229
จบการศึกษา	-10.1229
สนามบิน	-10.1231
อี้	-10.1237
เบลเยียม	-10.1241
▁กีฬา	-10.1244
/2560	-10.1246
ยูโร	-10.1257
เดือนพฤศจิกายน	-10.1258
ศรัทธา	-10.1264
ดาวฤกษ์	-10.1273
ฉบับที่	-10.1275
กั้น	-10.1275
ยังสามารถ	-10.1279
ตอบสนอง	-10.1282
การดูแล	-10.1284
แกรนด์	-10.1293
โล่	-10.1293
ที่มหาวิทยาลัย	-10.1294
ยาเสพติด	-10.1298
กิตติ	-10.1298
ในการพัฒนา	-10.1299
คนเดียว	-10.1299
▁—	-10.13
อินทรีย์	-10.13
จัง	-10.1302
ence	-10.1306
▁ซึ่งทําให้	-10.1309
โระ	-10.1312
ที่เกิดจาก	-10.1313
▁กิโลกรัม	-10.1315
มีความสามารถ	-10.1317
ven	-10.1317
ปรับตัว	-10.1319
เดินหน้า	-10.1324
พื้นผิว	-10.1324
ได้เริ่ม	-10.1325
ki	-10.1327
▁ส่งผลให้	-10.1328
แชมป์โลก	-10.1329
แกรมมี่	-10.1332
เป็นสัตว์	-10.1334
ฮิต	-10.1337
Ch	-10.1337
ี่ยน	-10.1338
▁1992	-10.1338
ob	-10.1339
แทรก	-10.134
ตามมา	-10.1342
กระดาษ	-10.1344
เดือนกุมภาพันธ์	-10.135
รัชกาล	-10.1357
อาญา	-10.136
เวอร์ชัน	-10.1363
lic	-10.1364
ไม่มีการ	-10.1367
เก่ง	-10.137
มีอาการ	-10.137
มป์	-10.1373
เอื้อ	-10.1375
▁Pro	-10.1382
ทิน	-10.1384
ฤดูหนาว	-10.1389
ส่วนประกอบ	-10.139
อุบลราชธานี	-10.139
นักดนตรี	-10.1391
การประเมิน	-10.1395
กองทัพเรือ	-10.1397
สหภาพ	-10.1397
จับกุม	-10.1398
pa	-10.1398
าภรณ์	-10.14
ลือ	-10.141
▁จึงทําให้	-10.141
หลังคา	-10.1411
▁1996	-10.1414
▁2533	-10.1418
กล้วย	-10.1419
เทียบ	-10.1426
จัดแสดง	-10.1426
ชีว	-10.1429
มนตรี	-10.1431
จักรพรรดินี	-10.1435
แรงบันดาลใจ	-10.1437
ในสาขา	-10.1438
จอด	-10.1439
แม็ก	-10.144
▁Ex	-10.1441
ธรรมเนียม	-10.1445
ด้านหลัง	-10.1453
ในสงคราม	-10.1454
ใกล้กับ	-10.1462
สามี	-10.1465
ได้ง่าย	-10.1465
สวิตเซอร์แลนด์	-10.1466
องค์กรปกครองส่วน	-10.1466
สุก	-10.1467
เม็ด	-10.1467
พิษณุโลก	-10.1472
▁เกาะ	-10.1472
ภิ	-10.1474
การแก้ไขปัญหา	-10.1477
▁เจ้าฟ้า	-10.1478
ริเริ่ม	-10.1482
ล้มเหลว	-10.1483
จําลอง	-10.1483
สุดยอด	-10.1485
รับทราบ	-10.1487
เนิน	-10.1489
AT	-10.1495
เครือ	-10.15
สมุทร	-10.1507
สุรินทร์	-10.1511
ซัล	-10.1513
ปีเดียวกัน	-10.1513
แมค	-10.1515
บราซิล	-10.1516
ิ้ล	-10.1519
บิล	-10.1527
มีเพียง	-10.1535
คํานวณ	-10.1537
การทดสอบ	-10.1539
ทางเดิน	-10.1543
ah	-10.1546
การเปลี่ยน	-10.1552
แม้	-10.1553
มัธยม	-10.1553
ยังไม่มี	-10.1553
ทั้งสาม	-10.1557
ในภูมิภาค	-10.1558
เข็ม	-10.1559
lan	-10.1559
ทักษิณ	-10.1559
สภาวะ	-10.1565
เอกอัครราชทูต	-10.1565
บรู	-10.1571
บริสุทธิ์	-10.1571
มอบหมายให้	-10.1574
สรรพ	-10.1578
ควบ	-10.1582
โคน	-10.1582
น้องสาว	-10.1586
ถ่ายภาพ	-10.1588
ในส่วน	-10.1588
ba	-10.1595
เดือนสิงหาคม	-10.1595
เต่า	-10.1596
เทวี	-10.1597
ได้ยิน	-10.1598
ราษฎร	-10.1602
วัล	-10.1603
นันท์	-10.1604
ata	-10.1604
ฟฟ์	-10.1607
ด้านบน	-10.1608
สวัสดิ์	-10.1609
พรรคประชาธิปัตย์	-10.1613
หายใจ	-10.1618
มิวสิก	-10.1618
เกราะ	-10.1619
บ้านเมือง	-10.1619
สํานักงานคณะกรรม	-10.1624
................	-10.163
บรรลุ	-10.1632
ระบอบ	-10.1635
ทิว	-10.1637
▁ยูไนเต็ด	-10.1642
เสด็จพระราช	-10.1648
เดือนกรกฎาคม	-10.1648
ณิช	-10.1654
การรับรู้	-10.166
แวน	-10.1661
การปกครองของ	-10.1663
เส้นเมริเดียนที่	-10.1666
ครอบครอง	-10.1668
ปรุง	-10.167
มวยไทย	-10.1673
พระเยซู	-10.1678
ล่อง	-10.1679
▁รูป	-10.1679
เทอ	-10.168
ประหลาด	-10.1684
ร่วมงาน	-10.1685
เซา	-10.1686
ต้องใช้	-10.1687
ปลายปี	-10.1688
ในการสร้าง	-10.1695
ลอก	-10.1697
กูล	-10.1698
หมวด	-10.1701
รุ่งเรือง	-10.1702
เขื่อน	-10.1707
▁พระองค์ทรง	-10.1708
การปรับปรุง	-10.1708
ในแนว	-10.171
จิตรกร	-10.1712
ได้รับเลือกตั้ง	-10.1715
ลอน	-10.1715
บาย	-10.1718
อบรม	-10.1719
▁อย่างไรก็ดี	-10.172
สังเคราะห์	-10.172
land	-10.1723
แคล	-10.1729
ในสังคม	-10.1731
จอง	-10.1737
รู้จักกัน	-10.1744
ล้ํา	-10.1748
การเดิน	-10.175
ครั้งแรกเมื่อ	-10.1752
จัดเก็บ	-10.1752
เคอร์	-10.1753
แนะ	-10.1755
เหม	-10.176
Br	-10.176
บึง	-10.1761
บูรณะ	-10.1762
ดิบ	-10.1765
เกต	-10.1768
สื่อมวลชน	-10.1768
ปัก	-10.1768
ข้อเสนอ	-10.1769
การสนับสนุน	-10.1777
va	-10.1781
ต่อไปนี้	-10.1781
อยด์	-10.1782
▁Se	-10.1782
ใต้ดิน	-10.1786
แลน	-10.1792
ออม	-10.1799
แน่น	-10.1799
เกลือ	-10.1804
บี้	-10.1806
สู	-10.1807
การรับ	-10.1808
พระสงฆ์	-10.181
ในหมู่	-10.1814
อัลบั้มนี้	-10.1815
พ้น	-10.1818
กลายมาเป็น	-10.1818
ใกล้ชิด	-10.1819
ตอนกลาง	-10.182
๋อ	-10.1823
ชวา	-10.1823
ไซด์	-10.1823
สั่งให้	-10.1825
สตัน	-10.1826
ก่อนที่จะ	-10.1828
แผนที่	-10.1831
.9	-10.1834
โคล	-10.1834
เรียว	-10.1841
โก้	-10.1844
เขตการปกครอง	-10.1845
▁500	-10.1846
ฮัม	-10.1848
มินิ	-10.1848
ตลอดเวลา	-10.1855
คาดว่า	-10.1856
NA	-10.1857
ผู้เชี่ยวชาญ	-10.1862
min	-10.1864
ที่มีอยู่	-10.1865
ส่วนใหญ่เป็น	-10.1865
ish	-10.1867
กองทัพบก	-10.1868
ข้างเคียง	-10.187
นาฬิกา	-10.187
▁รายการ	-10.1874
ปีศาจ	-10.1877
ton	-10.1882
▁เป็นชื่อ	-10.1885
ครองราชย์	-10.1899
กวี	-10.191
In	-10.1916
หลอด	-10.1918
เที่ยว	-10.1922
การโจมตี	-10.1924
ฮังการี	-10.1925
จัดการแข่งขัน	-10.1926
แตกต่าง	-10.1927
สันติ	-10.1934
ดัก	-10.1938
5%	-10.1939
รีน	-10.1941
ความสูง	-10.1945
ัตถ	-10.1946
มาร่วม	-10.1946
ทารก	-10.195
พระธรรม	-10.1951
ในเครือ	-10.1953
งานเขียน	-10.1959
อย่างกว้างขวาง	-10.1977
เพื่อป้องกัน	-10.1978
we	-10.1981
du	-10.1984
บิ๊ก	-10.1988
str	-10.1988
ner	-10.1996
ได้ทรง	-10.1999
ยกฐานะ	-10.2003
สัมมนา	-10.2005
ปัน	-10.2005
ซอย	-10.2015
คูณ	-10.2018
ติดต่อกัน	-10.2022
อย่างเช่น	-10.2022
คอล	-10.2028
จัดตั้งขึ้น	-10.2034
หลอก	-10.2042
แต่เดิม	-10.2042
ood	-10.2043
ond	-10.2051
▁2527	-10.2052
ป็อป	-10.206
เภสัช	-10.206
ST	-10.2067
ในกรณี	-10.207
เรื่องราวของ	-10.2073
▁พิ	-10.2076
ภาคี	-10.2079
ster	-10.2084
เจ้าฟ้า	-10.2086
ลําต้น	-10.2087
เจ็บ	-10.2092
โจร	-10.2092
อาคารเรียน	-10.2093
ร่วมมือกับ	-10.2093
มีข้อ	-10.2095
ign	-10.2097
ส่งออก	-10.2105
ณรงค์	-10.2105
-4	-10.2107
ผู้อื่น	-10.2109
ยิ่งขึ้น	-10.2109
รวดเร็ว	-10.211
ปัจจุบันคือ	-10.2112
เศรษฐศาสตร์	-10.2118
▁2519	-10.2118
และสิ่งแวดล้อม	-10.2119
ไหม้	-10.2123
เกษม	-10.2123
โลกครั้งที่สอง	-10.213
จุฬาลงกรณ์	-10.2131
สํารอง	-10.2139
▁2001	-10.214
ภาคกลาง	-10.2142
AN	-10.2142
หลายแห่ง	-10.2145
เสด็จสวรรคต	-10.2149
ach	-10.2153
CO	-10.2158
พึง	-10.2158
ฟิล์ม	-10.216
กําชับ	-10.2166
ชื้น	-10.2166
อิรัก	-10.2168
ทางการศึกษา	-10.2168
โง	-10.217
มุมมอง	-10.217
ซิง	-10.2172
ทรัพยากรธรรมชาติ	-10.2175
Z	-10.2177
ทําร้าย	-10.218
เช่นเดียวกัน	-10.218
เวส	-10.2185
ในปีพ	-10.2189
ปารีส	-10.219
ขี่	-10.2191
IC	-10.2195
▁ผลิตโดย	-10.2197
ขึ้นครองราชย์	-10.2197
ft	-10.2201
แรม	-10.2207
▁กํากับโดย	-10.2208
bu	-10.221
so	-10.2214
มีขนาดเล็ก	-10.2216
สวัสดิการ	-10.2219
ดีกว่า	-10.222
▁ฟุต	-10.2222
มรดก	-10.2223
แย่	-10.2226
▁1998	-10.2226
สตูดิโอ	-10.2227
ik	-10.2232
อินเตอร์	-10.2232
-19	-10.2236
iss	-10.2238
ิ่น	-10.2239
เมฆ	-10.224
พระชนมายุ	-10.2242
ตํารา	-10.2242
ช่วยกัน	-10.2243
แป้ง	-10.2244
เท่ากัน	-10.2247
ฮั่น	-10.2251
การสํารวจ	-10.2252
จั	-10.2252
วิก	-10.2256
▁พบ	-10.226
เมล	-10.2264
▁Ho	-10.2267
ure	-10.2269
จันทร	-10.227
แจก	-10.2274
ภัทร	-10.2278
เปา	-10.2279
นัล	-10.2285
ous	-10.2286
เบญจ	-10.2287
แฮม	-10.2287
ครั้งแรกในปี	-10.229
ทิพย์	-10.2292
สเป	-10.2292
Par	-10.2293
ว่ายน้ํา	-10.2293
สําคัญในการ	-10.2308
ทําหน้าที่เป็น	-10.2308
นักวิจัย	-10.231
ture	-10.2311
ที่สุดในโลก	-10.2311
วงษ์	-10.2324
ริช	-10.2326
ปฏิบัติหน้าที่	-10.2331
og	-10.2336
ina	-10.2338
ลําปาง	-10.2345
ไฟล์	-10.2348
ดุสิต	-10.2349
ปะทะ	-10.235
นับเป็น	-10.2352
▁ถึงแม้ว่า	-10.2357
▁มีบุตร	-10.2359
ราษฎร์	-10.2361
ประเสริฐ	-10.2362
ผนัง	-10.2363
ถูกส่ง	-10.237
กัก	-10.2373
ราชบัลลังก์	-10.2373
การตลาด	-10.2374
บันทึกเสียง	-10.2378
รัล	-10.2381
aw	-10.2381
เพิ่ง	-10.2381
ผิวหนัง	-10.2385
นําไปสู่	-10.2385
เอกซ์	-10.2392
เคร	-10.2392
mon	-10.2392
คว้าแชมป์	-10.2393
มิด	-10.2393
รายงานว่า	-10.2394
ทัศน	-10.2397
ชุดที่	-10.2401
ทันสมัย	-10.2401
บัส	-10.2402
ดัม	-10.2403
กระทั่ง	-10.2404
ภาระ	-10.241
ส่งผลให้	-10.2413
เป็นส่วน	-10.2417
ในภายหลัง	-10.2418
จัดสรร	-10.2418
-5	-10.2428
การแบ่ง	-10.2428
ยกย่อง	-10.243
yl	-10.2432
บูร์ก	-10.2432
สามัคคี	-10.2432
อาย	-10.2434
ศักราช	-10.2435
▁Ra	-10.2439
รัชทายาท	-10.2446
อู่	-10.2447
▁ห้องประชุม	-10.2448
โดยรวม	-10.245
จัดอยู่ใน	-10.2452
แอส	-10.2453
ปลดปล่อย	-10.2454
ขวาง	-10.2454
ไข้	-10.2455
,500	-10.2457
น้อม	-10.2461
ของสหรัฐอเมริกา	-10.2464
shi	-10.2468
-20	-10.2473
อภิเษกสมรส	-10.2473
เอ็ด	-10.2474
ผู้ก่อตั้ง	-10.2477
มากนัก	-10.2479
ออกมาจาก	-10.2493
อภัย	-10.2494
หุ่นยนต์	-10.2497
เล็กๆ	-10.2502
การกําหนด	-10.2504
ถั่ว	-10.2506
ดวงจันทร์	-10.2508
ana	-10.2509
อํานวย	-10.2511
เดย์	-10.252
พ่อแม่	-10.252
ตอบรับ	-10.2521
โดยบริษัท	-10.2529
เวียง	-10.2532
ทดแทน	-10.2532
สหรัฐฯ	-10.2535
หนุน	-10.2537
ดอย	-10.2537
▁2523	-10.2541
การปรับ	-10.2546
นารี	-10.2548
เฮนรี	-10.2549
ในประเทศญี่ปุ่น	-10.2554
เจริญเติบโต	-10.2557
แล้วก็	-10.2559
▁เปิดเผยว่า	-10.2572
แสดงถึง	-10.2573
สีน้ําเงิน	-10.2575
วัว	-10.2576
มัล	-10.2579
อาสา	-10.2589
ที่ดีที่สุด	-10.259
นํามาใช้	-10.2594
ม่วง	-10.2596
พุ่ม	-10.2598
พ้นจาก	-10.26
ระดับชั้น	-10.26
รอก	-10.2601
▁(3	-10.2612
ทีมที่	-10.2613
มั่นใจ	-10.2616
อุทยาน	-10.2616
ism	-10.2618
ปรับเปลี่ยน	-10.2619
เคา	-10.2621
ค้าขาย	-10.2623
บรรเลง	-10.2627
ขับไล่	-10.2629
บัญชา	-10.2632
สาระ	-10.2633
บทประพันธ์	-10.2637
นําไปสู่การ	-10.2639
กองทัพอากาศ	-10.2641
ae	-10.2642
-0	-10.2647
จิตวิทยา	-10.2651
ฉัตร	-10.2653
หลุด	-10.2653
จะช่วย	-10.2661
หากิน	-10.2662
แวร์	-10.2665
ซัง	-10.2667
เทียบเท่า	-10.2669
คารา	-10.2673
ich	-10.2677
ทางการเงิน	-10.2678
เลขานุการ	-10.268
ไม่ต้อง	-10.2681
unt	-10.269
ประโยค	-10.2693
เบื้อง	-10.2694
▁ดู	-10.2694
ทอม	-10.2699
เก่าแก่	-10.27
นําไปใช้	-10.2705
วี่	-10.2708
ประเทศเกาหลีใต้	-10.2712
พระมเหสี	-10.2713
เว้น	-10.2717
สงฆ์	-10.2719
วัฒนา	-10.2729
หมัด	-10.2729
ที่ใหญ่ที่สุด	-10.2732
มิวสิกวิดีโอ	-10.2733
ประสานงาน	-10.2737
สั่งการ	-10.2738
▁For	-10.2741
คลับ	-10.2743
แห่งแรก	-10.2743
การตรวจสอบ	-10.2747
ออกอัลบั้ม	-10.2751
สิ่งก่อสร้าง	-10.2755
สถาปนิก	-10.2759
มีเนื้อที่	-10.276
กลางคืน	-10.2767
พระธิดา	-10.2769
หลักเกณฑ์	-10.2769
ชั้นสูง	-10.2772
คิน	-10.2773
แหล่งน้ํา	-10.2773
ในการทํา	-10.2776
แม่เหล็ก	-10.2779
ปทุม	-10.278
เทป	-10.2785
เวสต์	-10.2785
ัณฑ	-10.2787
ผลประโยชน์	-10.2787
ตั้งอยู่บน	-10.279
ตรัส	-10.2791
เชน	-10.2795
ถูกจับ	-10.2796
ยอดขาย	-10.2797
เยี่ยมชม	-10.2802
งดงาม	-10.2804
การให้บริการ	-10.2806
บวช	-10.2809
ฐิ	-10.2821
พื้นดิน	-10.2826
เพชรบุรี	-10.2843
ไห	-10.2847
ความผิดปกติ	-10.2855
▁1960	-10.2856
เป็นชาว	-10.2858
มลายู	-10.2859
▁Award	-10.2861
ย็อง	-10.2862
สูญ	-10.2863
ผู้ฝึกสอน	-10.2866
ครั้งนั้น	-10.287
ลวง	-10.2872
ในวงการ	-10.2872
บอร์	-10.2872
เที่ยวบิน	-10.2874
บริหารส่วนตําบล	-10.2882
▁รองปลัดกระทรวง	-10.2883
รณรงค์	-10.2884
ล้านดอลลาร์สหรัฐ	-10.2884
หลายๆ	-10.2887
จาน	-10.2892
az	-10.2901
เป็นภาพ	-10.2903
ได้รับเลือก	-10.2904
AC	-10.2904
บุคลิก	-10.2906
ประกาศว่า	-10.2907
สนุก	-10.2908
สมทบ	-10.2913
ทางเลือก	-10.2914
ขั้นตอนวิธี	-10.2917
บุรีรัมย์	-10.292
St	-10.2922
คําร้อง	-10.2923
คริสตจักร	-10.2926
อาจจะเป็น	-10.2933
ว้า	-10.2936
8%	-10.2938
วิจิตร	-10.2939
อุปสรรค	-10.2944
เป็นระบบ	-10.2947
อิเล็กตรอน	-10.296
▁2532	-10.2964
อุทิศ	-10.2965
▁อีกทั้งยัง	-10.2969
ไช	-10.2971
ธนบุรี	-10.2974
เอ็ดเวิร์ด	-10.2974
แข็งแกร่ง	-10.2974
กระบี่	-10.2974
ดาวเทียม	-10.2981
ปรี	-10.2981
เฟีย	-10.2985
ox	-10.2988
แด่	-10.2992
ความพยายาม	-10.2993
ปีเตอร์	-10.2993
มีความหมาย	-10.2994
เสนา	-10.2996
▁2518	-10.2996
เรื่อย	-10.2996
▁ซึ่งต่อมา	-10.2999
สิ้นสุดลง	-10.3001
สังคมนิยม	-10.3004
คาบสมุทร	-10.3008
กระสุน	-10.3008
ซึมเศร้า	-10.3008
2,000	-10.3011
นามสกุล	-10.3014
▁1999	-10.3017
พวกเธอ	-10.3021
นอกเหนือจาก	-10.3021
จัดจําหน่าย	-10.3023
ที่ใช้ในการ	-10.3025
สมดุล	-10.3026
ในช่วงปี	-10.3027
cr	-10.3028
โศก	-10.303
นิโค	-10.3031
ั้น	-10.3035
แต่งงานกับ	-10.3035
ชล	-10.3039
International	-10.3042
ug	-10.3042
Ph	-10.3046
ขีด	-10.3047
นิวซีแลนด์	-10.3049
อําเภอเมือง	-10.305
▁2530	-10.3051
▁2529	-10.3053
ทหารบก	-10.3054
ite	-10.3055
าจารย์	-10.3063
สาธารณรัฐประชาชน	-10.3067
รัต	-10.3067
มีมติ	-10.3072
พระภิกษุ	-10.3075
คลอด	-10.3077
จัดขึ้นที่	-10.3078
การลด	-10.308
รัศมี	-10.3083
ผู้รับ	-10.3085
บรรทุก	-10.3091
▁2515	-10.3092
จัก	-10.3096
กระทรวงพาณิชย์	-10.3098
จราจร	-10.3099
สงขลา	-10.3105
บัล	-10.3108
ความดัน	-10.311
คมนาคม	-10.3111
รูปทรง	-10.312
เป็นเพียง	-10.3127
hy	-10.3132
ok	-10.3133
ในสมัยนั้น	-10.3134
ไผ่	-10.3138
เป็นโรค	-10.314
ของเรา	-10.3142
เกษตรศาสตร์	-10.3148
พูดภาษา	-10.3149
ติดอันดับ	-10.315
เป้า	-10.315
จินดา	-10.3152
สาธิต	-10.3152
ลงโทษ	-10.3153
ลุง	-10.3153
คุ้ม	-10.3158
ทางทิศตะวันออก	-10.3161
สายตา	-10.3171
เทล	-10.3172
ium	-10.3174
เป็นละครโทรทัศน์	-10.318
▁ไม่ว่าจะเป็น	-10.3182
พวกมัน	-10.3188
▁2522	-10.3192
ผัง	-10.32
ค้าง	-10.32
ทุกภาคส่วน	-10.32
ร้านค้า	-10.3203
กล่าวหา	-10.3207
ทวีปยุโรป	-10.321
คอง	-10.3214
ระบาด	-10.3214
ส่วนกลาง	-10.3216
ปัตตานี	-10.3221
เมื่ออายุ	-10.323
ต้ม	-10.3231
ดีที่สุด	-10.3231
มานาน	-10.3231
รังสิต	-10.3235
ถอย	-10.3236
ใช้ประโยชน์	-10.3237
ต่างจาก	-10.3239
เลิฟ	-10.3242
รวมกับ	-10.3247
ภูเก็ต	-10.325
แม้ว่า	-10.3252
ญญา	-10.3254
เก็ต	-10.3255
นายพล	-10.3259
การแข่งขันฟุตบอล	-10.326
รับใช้	-10.3261
ทาส	-10.3265
แบคทีเรีย	-10.327
ราชินี	-10.327
สันติภาพ	-10.3276
คริสเตียน	-10.3277
ส่อง	-10.3277
ท็อป	-10.3279
AR	-10.33
แลก	-10.3301
เกินไป	-10.3302
คลุม	-10.3311
▁1988	-10.3313
เสื้อผ้า	-10.3314
คอมมิวนิสต์	-10.3316
แท่น	-10.3316
ผิดพลาด	-10.3319
วัฒน	-10.332
พลเมือง	-10.3327
รณ์	-10.3328
▁เป็นต้นมา	-10.333
รองชนะเลิศ	-10.3332
▁สํานักโฆษก	-10.3333
aceae	-10.3333
▁ก่อนที่	-10.3334
par	-10.3334
รีย์	-10.3336
พบปะ	-10.3336
▁และยังมี	-10.3338
ปาง	-10.3339
การจัดงาน	-10.334
ซีเรีย	-10.334
ที่แท้จริง	-10.3344
เปอร์เซีย	-10.3345
โอลิมปิกฤดูหนาว	-10.3347
▁1984	-10.3347
เค้า	-10.3353
พระครู	-10.3356
fer	-10.3356
บูล	-10.3363
แผล	-10.3365
ตามนโยบาย	-10.3366
แล้ง	-10.3367
หมายความว่า	-10.3368
ซีดี	-10.337
คําตอบ	-10.3373
ตกเป็น	-10.3377
อยู่แล้ว	-10.3385
°	-10.3389
ore	-10.3392
พระราม	-10.3393
ปริญญาตรี	-10.3394
โดยสาร	-10.3395
ใช้สําหรับ	-10.3396
จักรวาล	-10.3396
ใกล้เคียงกับ	-10.3397
pp	-10.3409
นักบิน	-10.3409
วัคซีน	-10.341
ออล	-10.3414
รับเชิญ	-10.3415
▁En	-10.3424
นิช	-10.3425
็อบ	-10.3432
เครื่องจักร	-10.3433
ไกร	-10.3436
มวยสากล	-10.3437
▁หมู่ที่	-10.3437
เพีย	-10.3438
ประท้วง	-10.3439
ก้าวหน้า	-10.3444
ทางทิศตะวันตก	-10.3446
วิเศษ	-10.3447
ไมโคร	-10.3449
มอเตอร์	-10.3452
ได้กลายเป็น	-10.3453
ศุภ	-10.3461
รมว	-10.3463
ในบรรดา	-10.3464
นาร์	-10.3466
เซียน	-10.3468
oll	-10.3474
พอใจ	-10.3475
นักการเมือง	-10.3478
สหกรณ์	-10.3482
กระโดด	-10.3488
ถูกทําลาย	-10.3488
TV	-10.3491
การค้นพบ	-10.3493
พันธุกรรม	-10.3497
นิสิต	-10.3498
ในขณะที่	-10.3499
อํานวยการ	-10.3499
ไม่ยอม	-10.3499
ปริศนา	-10.3503
วรรค	-10.3509
เดวิด	-10.3517
ick	-10.3519
ทางวิทยาศาสตร์	-10.3522
ความสุข	-10.3524
เครื่องดื่ม	-10.3524
อุดรธานี	-10.3524
วงเงิน	-10.3525
เทิร์น	-10.3528
ปอด	-10.3529
บรรพบุรุษ	-10.3532
กราฟ	-10.3533
ได้ย้าย	-10.3534
จัดกิจกรรม	-10.3538
แปซิฟิก	-10.3538
ผู้บริโภค	-10.3543
รุ่นใหม่	-10.3543
รอบคัดเลือก	-10.355
dia	-10.3551
▁1970	-10.3556
▁สํานักงานปลัด	-10.3557
amp	-10.3558
มอญ	-10.3561
มีขน	-10.3561
ฉีด	-10.3571
พรี	-10.3572
Or	-10.3574
รับรู้	-10.3577
ไม่ดี	-10.3581
ศาสตรบัณฑิต	-10.3582
ได้รับตําแหน่ง	-10.3585
เป็นสิ่งที่	-10.3585
บังคับให้	-10.3586
เล่นให้กับ	-10.3587
าภิเษก	-10.3592
สอบสวน	-10.3596
บัลลังก์	-10.3597
ผู้สนับสนุน	-10.36
ภัณฑ์	-10.36
own	-10.361
พยัญชนะ	-10.3618
บอน	-10.3624
▁ซม	-10.3625
เยาว์	-10.3627
เปล่า	-10.3627
มาเรีย	-10.3628
ประกอบอาชีพ	-10.3629
บรรเทา	-10.3632
ล้านนา	-10.3636
บอร์ด	-10.3637
ความต้องการของ	-10.3637
มีสมาชิก	-10.364
▁2528	-10.3647
เศรษฐกิจและสังคม	-10.3649
ทางเหนือ	-10.3656
ชนิดอื่น	-10.3656
ควรจะ	-10.366
เมะ	-10.3661
เข้าเรียน	-10.3668
ดจ์	-10.3672
หลบหนี	-10.3673
ขอบเขต	-10.3675
เดส	-10.3677
นเรศวร	-10.3677
ต้องการให้	-10.368
ในปีเดียวกัน	-10.3683
คนละ	-10.3684
รัชสมัย	-10.3685
ยากจน	-10.3687
und	-10.3688
หม่อมราชวงศ์	-10.3701
หลับ	-10.3702
ใบหน้า	-10.3705
นางแบบ	-10.3705
พรรษา	-10.3705
คุณหญิง	-10.3708
ั้ง	-10.3711
สไตล์	-10.3712
ชั้นนํา	-10.3713
รองนายกรัฐมนตรี	-10.3717
ธนา	-10.3718
ห่วง	-10.3718
คาร์บอน	-10.3721
รายการโทรทัศน์	-10.3727
สรร	-10.3729
-6	-10.3731
ชุน	-10.3733
อากาศยาน	-10.3733
บัติ	-10.3734
สกอตแลนด์	-10.3735
ปุ่ม	-10.3737
นิ่ง	-10.374
▁กล่าวคือ	-10.3743
เมื่อเทียบกับ	-10.3749
การทุจริต	-10.375
ให้ความช่วยเหลือ	-10.3756
จตุ	-10.3763
ิษฐ	-10.3766
ชิต	-10.3773
มีการเปลี่ยนแปลง	-10.3781
อับ	-10.3782
อีสาน	-10.3786
แปรรูป	-10.3788
ประจุ	-10.3794
เวลส์	-10.3794
สุสาน	-10.3804
ชื่อเดิม	-10.3808
นราธิวาส	-10.3808
ร็อค	-10.3809
▁โดยเริ่ม	-10.381
เกล็ด	-10.3817
ทางการแพทย์	-10.3821
ประเทศอิตาลี	-10.3824
เพลย์	-10.3825
ใ	-10.3828
โปรดิวเซอร์	-10.383
ดัชนี	-10.383
มีชื่อเรียก	-10.3831
นิคม	-10.3832
ตรวจเยี่ยม	-10.3833
ขนาดกลาง	-10.3836
ริด	-10.384
An	-10.3843
col	-10.3844
กํากับการแสดงโดย	-10.3845
ศึกษาธิการ	-10.3847
พนม	-10.3849
เนื้อเยื่อ	-10.3853
ทางศาสนา	-10.3855
พี่น้องประชาชน	-10.3856
เข้าศึกษา	-10.3864
นาถ	-10.3864
พระนครศรีอยุธยา	-10.3867
ลวดลาย	-10.3868
----------------	-10.3869
เกา	-10.3874
ในสมเด็จพระ	-10.3874
ในห้อง	-10.3879
▁เขายัง	-10.388
เปิดให้บริการ	-10.3882
นายทหาร	-10.3884
เกิล	-10.3886
ound	-10.3888
แผง	-10.389
เป็นไม้	-10.3892
นิค	-10.3893
เชื่อกันว่า	-10.3894
ฮอล	-10.3897
ทิเบต	-10.3898
tri	-10.39
ราชาธิบดี	-10.3904
ครั้งสุดท้าย	-10.3921
การสอน	-10.3926
▁ครั้น	-10.3927
โยะ	-10.3927
เราจะ	-10.3931
ฟ้อง	-10.3934
ระยะยาว	-10.3934
ost	-10.3938
เกียร์	-10.3941
ชิ้นส่วน	-10.3943
ชื่นชอบ	-10.3943
สังฆ	-10.3947
พระธาตุ	-10.3951
ไม่รู้	-10.3951
แม่ทัพ	-10.3953
ฝึกอบรม	-10.3955
อุด	-10.3957
เกียรติยศ	-10.396
เมนต์	-10.3965
นับแต่	-10.397
สันนิษฐานว่า	-10.3971
ผสมผสาน	-10.3971
ขุ	-10.3972
สุขุม	-10.3972
คุก	-10.3976
ินทร	-10.3984
บนเกาะ	-10.3988
ความก้าวหน้า	-10.399
gu	-10.4003
เลย์	-10.4003
เป็นปลาที่	-10.4003
ได้รับการยอมรับ	-10.4006
ประเทศอินเดีย	-10.4008
จมูก	-10.4009
ฟอง	-10.4015
ya	-10.4016
๋ง	-10.4016
ปริญญาโท	-10.4022
สารประกอบ	-10.4023
ตระหนัก	-10.4024
ในนัด	-10.4025
ชมรม	-10.4026
อนุญาต	-10.4027
ข้างต้น	-10.4028
นักมวยปล้ํา	-10.4028
คาร์ล	-10.4029
สภาพแวดล้อม	-10.4031
โต๊ะ	-10.4034
แมก	-10.4038
เซอ	-10.4038
ชายแดนภาคใต้	-10.4041
มอล	-10.4042
ชาวเยอรมัน	-10.4046
ตะวันตกเฉียงใต้	-10.4047
เหมือง	-10.4047
ประเทศออสเตรเลีย	-10.4055
นัง	-10.4058
ฤดูกาลที่	-10.4059
ชีวภาพ	-10.4062
เนล	-10.4064
ปนัดดา	-10.4069
ล่วง	-10.4071
อุตรดิตถ์	-10.4077
ชรา	-10.4081
ชลบุรี	-10.4081
พระทัย	-10.4086
อย่างหนัก	-10.4086
แห่งราชวงศ์	-10.4088
คลาสสิก	-10.4092
ศรีสะเกษ	-10.4092
ปกคลุม	-10.4093
อยู่ห่างจาก	-10.4098
ลัง	-10.4098
ไม่ว่าจะ	-10.4103
นิง	-10.4104
ก่อนหน้านั้น	-10.4105
รวมตัวกัน	-10.4108
ไข	-10.4108
เองก็	-10.4112
ปักกิ่ง	-10.4115
เทีย	-10.4119
BC	-10.4124
ไขมัน	-10.4124
เดร	-10.4129
รางวัลออสการ์	-10.413
ิร์น	-10.4138
▁2525	-10.4139
มัด	-10.4144
หลีกเลี่ยง	-10.4145
pri	-10.4148
use	-10.4149
๊ด	-10.4152
ปาล์ม	-10.4153
ส่วนใหญ่จะ	-10.4156
แรงดัน	-10.4156
บางส่วนของ	-10.4158
ือง	-10.416
องค์ชาย	-10.4161
สะอาด	-10.4168
คนสุดท้าย	-10.4175
สมุนไพร	-10.4176
พิธีเปิด	-10.418
รัด	-10.4182
สงวน	-10.4184
ลุย	-10.4185
การรบ	-10.4188
ประกาศนียบัตร	-10.4191
มีการจัด	-10.4191
เพื่อหา	-10.4195
ครั้งใหญ่	-10.4195
โอรส	-10.4199
▁1997	-10.4199
ณัฐ	-10.4201
lin	-10.4203
ตรัง	-10.4206
โชติ	-10.421
พํานัก	-10.4222
คิดค้น	-10.423
น้อยที่สุด	-10.4234
ไม่ได้รับ	-10.4237
หมาก	-10.424
มีคุณสมบัติ	-10.4241
วีระ	-10.4242
dy	-10.4243
ดําเนินงาน	-10.4243
ปลอม	-10.4245
แพน	-10.4246
กระทรวงคมนาคม	-10.425
ลงทะเบียน	-10.4255
สะกด	-10.4255
พุทธศาสนา	-10.4256
รินทร์	-10.4259
ปฏิวัติ	-10.426
▁กลุ่มประชาสัม	-10.426
▁เป็นอดีต	-10.4264
กรุงลอนดอน	-10.4264
เสรีภาพ	-10.4266
ของเหลว	-10.4268
ขึ้นทะเบียน	-10.427
สาวๆ	-10.4272
เฉียงเหนือของ	-10.4273
ไส้	-10.4273
ลพบุรี	-10.4276
ริชาร์ด	-10.4283
โชกุน	-10.4283
สบาย	-10.4286
เกี่ยวข้อง	-10.429
เข้าด้วยกัน	-10.4291
ตั้งถิ่นฐาน	-10.4291
ต้าน	-10.4299
กาแฟ	-10.43
รื้อ	-10.4301
หม้อ	-10.4302
สิงห	-10.4307
ผ่า	-10.4308
▁Fr	-10.4309
ภูมิอากาศ	-10.4311
บล็อก	-10.4311
กําไร	-10.4312
บางกอก	-10.4315
เบอร์ลิน	-10.4315
การฝึก	-10.4321
นาที	-10.4327
ในแถบ	-10.4327
ลิเวอร์พูล	-10.433
ER	-10.4335
ชาวยิว	-10.4337
ทางวิชาการ	-10.434
ตอนเหนือ	-10.4342
ต้นกําเนิด	-10.4344
พันธ์และเผยแพร่	-10.4346
ทรู	-10.4349
เทพเจ้า	-10.4349
ต้อนรับ	-10.4353
เกาหลีเหนือ	-10.4356
ภาพยนตร์ไทย	-10.4359
ทางทหาร	-10.4365
ิกส์	-10.4376
▁ขวบ	-10.4377
ซิงเกิ้ล	-10.4384
มุ่งเน้น	-10.4388
พระราชบิดา	-10.439
กระทรวงกลาโหม	-10.4393
ต้นฉบับ	-10.4393
กเกอร์	-10.4394
สอบถาม	-10.4398
วันพุธ	-10.4399
ใบอนุญาต	-10.4402
เครื่องดนตรี	-10.4402
แพร	-10.4414
จัดหา	-10.4418
▁เกิดที่	-10.442
จึงถูก	-10.4423
หญิงสาว	-10.4425
สูงที่สุด	-10.4426
รองจาก	-10.4426
การขยาย	-10.4432
ผลงานเพลง	-10.4438
คณะสงฆ์	-10.4438
แน่	-10.4438
สงกรานต์	-10.4439
พรรคคอมมิวนิสต์	-10.4443
สกัด	-10.4456
น้ําตก	-10.4468
ยิ้ม	-10.4471
โดยปกติ	-10.4474
โธ	-10.4478
รับการแต่งตั้ง	-10.4478
โรมาเนีย	-10.4479
ลิ้น	-10.448
เนียม	-10.4482
▁Car	-10.4484
ความคืบหน้า	-10.4486
นวล	-10.4487
ตอนใต้	-10.4487
สับสน	-10.449
อยู่ในเขต	-10.4493
สุภาพ	-10.4496
มีเนื้อหา	-10.4502
▁1994	-10.451
สํานึก	-10.451
เข้มข้น	-10.451
ก็เริ่ม	-10.4512
ทางอากาศ	-10.4515
คําแนะนํา	-10.4517
วารสาร	-10.4517
▁2524	-10.4518
เสร็จสิ้น	-10.4525
ไลท์	-10.4529
che	-10.4543
ค้น	-10.4544
ประหารชีวิต	-10.4544
เดือนตุลาคม	-10.4545
ทราบว่า	-10.4546
ฤกษ์	-10.4546
car	-10.4551
ปฏิบัติงาน	-10.4558
ภูมิศาสตร์	-10.456
โดยมาก	-10.456
เธอก็	-10.4563
ภาษาญี่ปุ่น	-10.4563
แฟรง	-10.4566
ชุดแรก	-10.4568
ชาวฝรั่งเศส	-10.4571
ระงับ	-10.4574
เฮอร์	-10.4574
หุ้ม	-10.4575
มองว่า	-10.4575
อนุบาล	-10.4576
เพื่อพัฒนา	-10.458
สุลต่าน	-10.4582
▁2526	-10.4587
ภูเขาไฟ	-10.4589
กรีซ	-10.459
ก็ทรง	-10.4591
เชี่ยวชาญ	-10.4592
เรื่อยๆ	-10.4595
อีกมากมาย	-10.4603
ท่อน	-10.4605
กวาง	-10.4608
แดด	-10.4613
วอลเลย์บอลหญิง	-10.4615
แฟชั่น	-10.4618
งิ	-10.462
ระดับมัธยมศึกษา	-10.4621
row	-10.4621
ความหนาแน่น	-10.4621
หันมา	-10.4625
▁นั่นคือ	-10.4625
แร็	-10.4626
ทางโทรทัศน์	-10.4627
นิยมใช้	-10.4628
นัม	-10.4629
ะกุ	-10.4631
ฟอส	-10.4633
ในสหราชอาณาจักร	-10.4635
เนื้อร้อง	-10.4637
ode	-10.4639
มกุฎราชกุมาร	-10.4645
มากยิ่งขึ้น	-10.4651
สีสัน	-10.4655
รุ่นแรก	-10.466
เคยมี	-10.4668
นั้นๆ	-10.467
ประธานกรรมการ	-10.4672
han	-10.4672
แถลงข่าว	-10.4677
กัปตัน	-10.4678
IT	-10.4678
แบบจําลอง	-10.4681
ป่าไม้	-10.4683
การต่างประเทศ	-10.4693
เจ้านาย	-10.47
การวิเคราะห์	-10.4703
ire	-10.4704
▁Mi	-10.4717
สุราษฎร์ธานี	-10.4718
นักแต่งเพลง	-10.4719
ทางสถานีโทรทัศน์	-10.472
วัตถุประสงค์	-10.4722
มวยปล้ํา	-10.4722
จักรยาน	-10.4731
ฟอน	-10.4749
ผสมพันธุ์	-10.4752
วงการบันเทิง	-10.4753
ตอนปลาย	-10.4761
แพง	-10.4761
สันตะปาปา	-10.4762
โรงภาพยนตร์	-10.4766
ax	-10.4769
สมุทรปราการ	-10.4775
อัญเชิญ	-10.4775
▁2516	-10.4784
วชิร	-10.4796
รัฐศาสตร์	-10.4797
วิชัย	-10.4803
ple	-10.4803
หุ่น	-10.4804
▁กก	-10.4805
เงินทุน	-10.4805
เริ่มขึ้น	-10.4806
ทายาท	-10.4807
50,000	-10.4807
ทุกวันนี้	-10.481
SA	-10.4813
เป็นอาจารย์	-10.4813
อธิการบดี	-10.4815
อลล์	-10.4817
มุ่งมั่น	-10.4817
ประกาศใช้	-10.4824
ที่มีขนาดใหญ่	-10.4824
อัป	-10.4825
ืด	-10.4826
หนาว	-10.4827
แก่ประชาชน	-10.4827
เบิร์ต	-10.483
ces	-10.483
เด็กและเยาวชน	-10.4848
▁ในรัฐบาล	-10.4853
ประพฤติ	-10.4855
ในช่วงแรก	-10.4855
ต่างชาติ	-10.4856
ระดม	-10.4858
กระทบ	-10.4862
อุทกภัย	-10.4864
แต่อย่างใด	-10.4864
อนุสรณ์	-10.4872
ขยะ	-10.4876
ซีเกมส์	-10.4878
คนสําคัญ	-10.488
วรร	-10.488
รากฐาน	-10.488
ا	-10.4881
สงเคราะห์	-10.4881
ลูกหลาน	-10.4882
มีลักษณะคล้าย	-10.4886
สกลนคร	-10.4889
ธีร	-10.4891
โซ่	-10.4893
ไม่มีใคร	-10.4896
ตัง	-10.4898
ศึกษาขั้นพื้นฐาน	-10.4903
ที่พบใน	-10.4904
ในกรณีที่	-10.4905
ธิราช	-10.4908
ตํา	-10.4909
เข้าชม	-10.491
ตั้งแต่สมัย	-10.4915
ประธานการประชุม	-10.4916
อยู่ใกล้	-10.4917
log	-10.4917
ภาพเขียน	-10.4918
ถนนสาย	-10.4919
ครับ	-10.4919
line	-10.492
เจ้าบรมวงศ์เธอ	-10.492
ด้านข้าง	-10.4923
อิจิ	-10.4928
วัชร	-10.4931
แยกตัว	-10.4932
ular	-10.4937
ชํานาญ	-10.4938
โรเบิร์ต	-10.494
หลี่	-10.4941
ความรับผิดชอบ	-10.4946
เมืองไทย	-10.4949
พระบิดา	-10.4949
พระบรมราช	-10.4949
ดาราจักร	-10.4954
พฤหัสบดี	-10.4954
ปรารถนา	-10.4955
แคบ	-10.4955
อ้วน	-10.4965
ประเทศแคนาดา	-10.4965
ก้น	-10.4967
▁อนึ่ง	-10.4971
ครั้งที่สอง	-10.4979
นารายณ์	-10.498
พื้นบ้าน	-10.4984
เธ	-10.4985
ออกซิเจน	-10.4988
กํากับดูแล	-10.4995
ทําให้เธอ	-10.4997
แต่ก็	-10.4998
สํานักงานใหญ่	-10.5001
สามก๊ก	-10.5005
อย่างชัดเจน	-10.5009
ล่มสลาย	-10.5013
โมเดล	-10.5017
▁Pa	-10.502
ละเมิด	-10.5021
▁ชินวัตร	-10.5021
ประจําตัว	-10.5023
ไม่พอใจ	-10.5024
▁Com	-10.5026
กิโลเมตร	-10.5027
▁เป็นพืช	-10.5027
พระองค์ทรง	-10.5028
อาร์เจนตินา	-10.503
ปฏิบัติตาม	-10.5031
จํานวนหนึ่ง	-10.5035
พิชิต	-10.5035
เต็มไปด้วย	-10.5036
อัศวิน	-10.5038
อยู่เสมอ	-10.5038
Qu	-10.504
แซม	-10.5043
จะไม่มี	-10.5044
ผึ้ง	-10.5046
มั่งคั่ง	-10.5046
fe	-10.5049
กรีน	-10.5051
เพียงแต่	-10.5057
IM	-10.5059
พระสันตะปาปา	-10.5059
พระตําหนัก	-10.5061
บันได	-10.5062
ฟินแลนด์	-10.5063
กังวล	-10.5063
กระบอก	-10.5065
ต้นทุน	-10.5065
พับ	-10.5065
สถิต	-10.5067
▁No	-10.5067
ทวีปเอเชีย	-10.5069
▁2511	-10.5072
ระดับโลก	-10.5074
▁2517	-10.5081
การจัดทํา	-10.5083
ครั้งหนึ่ง	-10.5083
CD	-10.5086
๒๕๖๐	-10.5096
แลง	-10.51
เขตร้อน	-10.51
ไลฟ์	-10.5105
พบเห็น	-10.5111
ทั้งสองฝ่าย	-10.5113
สุ่ม	-10.5122
ถูกสร้างขึ้น	-10.5124
วิศวกร	-10.5129
เจ้าจอมมารดา	-10.513
เหนียว	-10.513
เสถียร	-10.5133
จํานวนประชากร	-10.5133
ung	-10.5135
▁2520	-10.5138
ปทุมธานี	-10.5139
ได้รับผลกระทบ	-10.5139
นครสวรรค์	-10.5145
ประทับใจ	-10.5146
ผิดปกติ	-10.5147
แต่ละคน	-10.5148
บุตรสาว	-10.5151
แอฟริกาใต้	-10.5152
ฮิว	-10.5156
▁เป็นประธานการ	-10.5158
ฬ	-10.5165
สมุด	-10.5172
โลหิต	-10.5172
▁เป็นตัวละคร	-10.5173
คัม	-10.5174
เยื่อ	-10.5179
ทางประวัติศาสตร์	-10.5179
เข้มแข็ง	-10.518
คัส	-10.5181
:00	-10.5183
เลี้ยงดู	-10.5184
เดียวกันกับ	-10.519
ภายในประเทศ	-10.519
พี่สาว	-10.5194
พระศพ	-10.5194
เล็บ	-10.5198
คู่แข่ง	-10.5199
คนพิการ	-10.52
รามคําแหง	-10.5206
ชนชั้น	-10.521
อ่าง	-10.5215
เนะ	-10.5217
จิตรกรรม	-10.5228
เรื่องแรก	-10.5231
▁with	-10.5231
chi	-10.5236
ล้อมรอบ	-10.5238
ฝ่า	-10.5239
เรียกกันว่า	-10.5239
เบ็	-10.5241
มีรายได้	-10.5246
อาวุโส	-10.5248
▁องศา	-10.5253
ปริญญาเอก	-10.5254
100	-10.526
‘	-10.5266
เงินรางวัล	-10.5267
กุมาร	-10.5268
พัฒนาระบบ	-10.5268
ทุกๆ	-10.5268
ปากีสถาน	-10.5274
สุพรรณบุรี	-10.5275
การช่วยเหลือ	-10.5276
บริหารจัดการ	-10.5279
เนียน	-10.528
มนุษย	-10.5286
เชษฐ	-10.5286
ตรงกลาง	-10.529
@	-10.5291
สารนิเทศ	-10.5292
ประยุกต์	-10.5308
ผจญภัย	-10.5308
ยับยั้ง	-10.5308
ส่วนภูมิภาค	-10.5308
มีดังนี้	-10.531
รถถัง	-10.5315
เริ่มใช้	-10.5315
หัวเมือง	-10.532
Cr	-10.532
เสกสมรส	-10.5321
ทําประตู	-10.5326
นักธุรกิจ	-10.5346
อรุณ	-10.5347
rit	-10.5349
อรี่	-10.5354
ทางราชการ	-10.5358
กุหลาบ	-10.536
หงส์	-10.536
ประเทศลาว	-10.536
ave	-10.5361
ในปีค	-10.5366
ราชอิสริยาภรณ์	-10.537
น้อยลง	-10.5371
เฉีย	-10.5371
โยะชิ	-10.5378
IN	-10.5385
เอเชียนเกมส์	-10.5386
จังหวัดชลบุรี	-10.5391
ผง	-10.5403
อาชญากรรม	-10.5403
พระราชินี	-10.5406
▁University	-10.5412
!"	-10.5412
บรรดาศักดิ์	-10.5419
ประหยัด	-10.542
กล่อง	-10.5421
เพื่อลด	-10.5425
ร้าง	-10.5433
ตั้งขึ้น	-10.5434
โรงเรียนมัธยม	-10.5434
ake	-10.5436
จริยธรรม	-10.5438
เมื่อครั้ง	-10.5441
แหวน	-10.5442
ชาญ	-10.5445
มีความสุข	-10.5446
กางเขน	-10.5446
ศุลกากร	-10.5446
ในแง่	-10.5455
แขนง	-10.5458
ระยอง	-10.5462
บัด	-10.5463
ฟิลิป	-10.5465
เพลงชาติ	-10.5465
และวัฒนธรรม	-10.5466
สยามบรมราชกุมารี	-10.5472
อาราม	-10.5474
อย่างรุนแรง	-10.5476
ซื่อ	-10.5482
เขียนภาพ	-10.5484
ภาษาฝรั่งเศส	-10.5485
การคลัง	-10.5486
แรน	-10.5487
มอบรางวัล	-10.5487
ระดับนานาชาติ	-10.5488
เที่ยง	-10.549
กรุ๊ป	-10.5498
บังคับบัญชา	-10.55
ฟอร์ม	-10.5504
โพร	-10.5505
ort	-10.5507
ลืม	-10.5507
ade	-10.5508
อิล	-10.5509
เบี้ย	-10.5511
ระเจ้าบรมวงศ์เธอ	-10.5518
ณ์	-10.5522
รอยด์	-10.5525
งานศึกษา	-10.5525
▁แต่ถ้า	-10.5527
-10	-10.5535
RI	-10.5536
จุฬา	-10.5537
มีความหมายว่า	-10.5542
มหาสารคาม	-10.5542
▁School	-10.5542
ต้านทาน	-10.5543
วัตร	-10.5548
แกะ	-10.5549
ข้อเท็จจริง	-10.5551
สถาบันอุดมศึกษา	-10.5551
บิลบอร์ด	-10.5551
แทร	-10.5555
หย่า	-10.5559
โจโฉ	-10.556
พิกัด	-10.556
▁1991	-10.557
จําคุก	-10.557
ฝึกฝน	-10.5571
ข้างหน้า	-10.5577
ปัสสาวะ	-10.5577
เสนาบดี	-10.5577
▁2503	-10.5582
ก็ยังคง	-10.5582
ด้านการศึกษา	-10.5586
พระราชดําริ	-10.5586
ลอสแอนเจลิส	-10.5586
บทเพลง	-10.5586
ซับ	-10.5595
ative	-10.5597
All	-10.5598
โรคมะเร็ง	-10.5602
ปฏิทิน	-10.5602
จูเนียร์	-10.5604
•	-10.5613
ด้อย	-10.5617
เหลืออยู่	-10.5623
ฝึกหัด	-10.5639
มีความรู้	-10.5648
ฐานข้อมูล	-10.5648
วอชิงตัน	-10.5648
ถูกเรียกว่า	-10.5652
ราชวิทยาลัย	-10.5654
cho	-10.5663
ภาพถ่าย	-10.5667
เดินทางกลับ	-10.5669
เป็นที่รู้จักกัน	-10.5674
ดิจิตอล	-10.5675
ผืน	-10.5675
oss	-10.568
ลีโอ	-10.5683
able	-10.5683
AP	-10.5694
ภาคต่อ	-10.5696
คนโต	-10.5696
ในช่วงปลาย	-10.5699
กลุ่มดาว	-10.5701
ที่ใหญ่ที่สุดใน	-10.5703
หัวหน้าพรรค	-10.5709
▁1972	-10.5719
บ้านเกิด	-10.5727
ครัวเรือน	-10.5729
มัย	-10.5733
▁กรมพระ	-10.5733
ในช่วงต้น	-10.5741
ร้านอาหาร	-10.5744
บรรณ	-10.5745
ลี้ภัย	-10.5746
ศาสนาพุทธ	-10.5747
เฉลิมฉลอง	-10.5747
ผิดกฎหมาย	-10.575
อนามัย	-10.5755
พันปี	-10.576
การปฏิบัติงาน	-10.5764
จุดเด่น	-10.5765
ผู้จัดการทีม	-10.5765
พระอิสริยยศ	-10.5779
▁1995	-10.5779
อินทร	-10.578
มีผลต่อ	-10.5784
ได้รับบาดเจ็บ	-10.5786
ไฮโดรเจน	-10.5791
ทํารายได้	-10.5797
ฉลาด	-10.58
อรรถ	-10.5802
สูญพันธุ์	-10.5803
ความเจริญ	-10.5804
ลูกจ้าง	-10.5806
ต้นปี	-10.5808
****************	-10.5808
เพื่อเพิ่ม	-10.5809
ค่ายเพลง	-10.5812
▁ภายหลังจาก	-10.5813
รุกราน	-10.5814
เจียง	-10.5818
ยืนยันว่า	-10.582
กลยุทธ์	-10.5827
แมรี	-10.5827
ประเทศสเปน	-10.5835
ปืนใหญ่	-10.5835
ตามหา	-10.5841
เนปาล	-10.5849
เจ้าคณะ	-10.5852
ตัวแปร	-10.5853
อุปถัมภ์	-10.5854
ดึงดูด	-10.5855
สแตน	-10.5862
ได้รับการยกย่อง	-10.5866
▁2521	-10.587
วันหนึ่ง	-10.5872
ธ์	-10.5873
มีชีวิตอยู่	-10.5874
มีการสร้าง	-10.5877
AM	-10.5878
วิกิพีเดีย	-10.5881
เชียงราย	-10.5884
ร่วมแสดง	-10.5885
มหาสมุทรแปซิฟิก	-10.5891
ภาษากรีก	-10.59
ica	-10.5908
แฮร์รี่	-10.5909
ที่ระลึก	-10.5914
ยี่	-10.5914
พื้นที่การศึกษา	-10.5916
ไม่อาจ	-10.5919
เป็นรูปธรรม	-10.592
ว่าด้วยการ	-10.5922
ประถม	-10.5923
ไลน์	-10.5923
บําเพ็ญ	-10.5926
แอนิเมชัน	-10.5927
จันทบุรี	-10.5928
เรียกชื่อ	-10.5929
เทิล	-10.5931
เจ้าอาวาสวัด	-10.5931
เผชิญ	-10.5936
หมุนเวียน	-10.5937
ET	-10.5946
นักเตะ	-10.5946
old	-10.5949
เชียร์	-10.5949
ความเข้มแข็ง	-10.5951
การเข้าถึง	-10.5952
Comp	-10.5954
มีเดีย	-10.5957
ได้มีโอกาส	-10.596
เชิญชวน	-10.5964
อ็อง	-10.5965
▁1993	-10.5972
แขก	-10.5975
เฮล	-10.5981
ขโมย	-10.5981
ลําพูน	-10.5982
ฆาต	-10.5984
ฉี	-10.5986
ning	-10.5988
ยอน	-10.5993
จักรวรรดิโรมัน	-10.5993
ตอนนี้	-10.5994
โครงสร้างพื้นฐาน	-10.5997
๊ะ	-10.5997
เนตร	-10.5999
มิวสิค	-10.6004
สมควร	-10.6007
กระบวน	-10.6009
นักรบ	-10.6016
หนาแน่น	-10.6019
เบื้องหลัง	-10.602
เพื่อนร่วม	-10.6024
เทวดา	-10.6025
ทางตอนเหนือของ	-10.6038
tern	-10.6042
สนอง	-10.6043
UN	-10.6046
คํานึงถึง	-10.6046
ผลลัพธ์	-10.6046
จีเอ็มเอ็ม	-10.6046
หนวด	-10.6046
ยกทัพ	-10.6057
รอบชิงชนะเลิศ	-10.6057
แนวร่วม	-10.6057
▁2475	-10.6058
ซ่อม	-10.6063
นักบวช	-10.6063
ix	-10.6065
oph	-10.6066
การส่งออก	-10.6073
สีฟ้า	-10.6074
พริก	-10.6081
ใช้บริการ	-10.6083
net	-10.6084
สักการะ	-10.6092
พระอนุชา	-10.6093
พระมารดา	-10.6094
-8	-10.6098
ไหว	-10.6103
แช่	-10.6104
การจราจร	-10.6107
วันศุกร์	-10.6114
หนังสือการ์ตูน	-10.6115
▁ปีก่อนคริสตกาล	-10.612
สภานิติบัญญัติ	-10.612
ON	-10.6121
เลือกตั้งสมาชิก	-10.6121
ประมวลผล	-10.6123
ไหลผ่าน	-10.6128
สรรเสริญ	-10.6138
คัล	-10.614
ประเทศพม่า	-10.6144
ต่อยอด	-10.6147
วินโดวส์	-10.6148
ทางทิศเหนือ	-10.6148
แฝด	-10.6157
ถ้วน	-10.6157
ดิโอ	-10.6158
ร่วมสมัย	-10.6165
▁2500	-10.6168
3,000	-10.6179
ปู่	-10.618
บริหารธุรกิจ	-10.6189
มาร์ก	-10.6192
ฮิตเลอร์	-10.6195
การปลูก	-10.6208
ตั้งครรภ์	-10.6218
เตะ	-10.6221
วันเสาร์ที่	-10.6222
พุ่ง	-10.6225
National	-10.6232
ทางวัฒนธรรม	-10.6233
▁กรมหลวง	-10.6235
เนื่องใน	-10.6239
การคํานวณ	-10.624
สํานักงานเขต	-10.624
พรมแดน	-10.6241
สืบสวน	-10.6246
รักษาโรค	-10.625
การออกอากาศ	-10.625
ดิวิชัน	-10.6251
โบราณคดี	-10.6252
ศตวรรษ	-10.6254
๐๐	-10.6262
แต่งเพลง	-10.6263
ให้การสนับสนุน	-10.6268
▁2513	-10.6269
ธนู	-10.6271
คล้ายคลึงกับ	-10.6279
▁Center	-10.6279
อวอร์ด	-10.6289
บ้านพัก	-10.6289
EX	-10.6291
ุ้ม	-10.6299
ตัก	-10.6301
▁Man	-10.6302
ชีววิทยา	-10.6305
บูรพา	-10.6307
ธนาคารออมสิน	-10.6308
▁ทว่า	-10.6311
ภาษาละติน	-10.6312
ในเดือนตุลาคม	-10.6313
นรก	-10.6313
ประสบปัญหา	-10.6314
ํ	-10.6316
ภูมิประเทศ	-10.6318
ไหล่	-10.6323
บางครั้งก็	-10.6324
มหาวิทยาลัยมหิดล	-10.6326
สิงโต	-10.6326
ให้ความสําคัญกับ	-10.633
บ้า	-10.6333
เทียบกับ	-10.6333
cul	-10.6343
อันดับหนึ่ง	-10.6346
ไม่ปรากฏ	-10.6359
ประสิทธิ์	-10.6362
รสชาติ	-10.6362
ปีที่ผ่านมา	-10.6363
สีเทา	-10.6365
ชักชวน	-10.6365
เคิล	-10.6373
ถึงแก่กรรม	-10.6374
ไอออน	-10.6379
มีความสูง	-10.6379
แมนเชสเตอร์	-10.6382
ท่ามกลาง	-10.6384
แม่น้ําโขง	-10.6389
ึ่ง	-10.6393
ลเลอร์	-10.6401
เป็นฝ่ายชนะ	-10.6408
แท่ง	-10.6417
วิดีโอเกม	-10.6419
ดําเนินโครงการ	-10.642
ด้วยเช่นกัน	-10.6421
ุ้ย	-10.6422
โปรดให้	-10.6423
โดยไม่มี	-10.6424
เข้าฉาย	-10.6425
กระทรวงแรงงาน	-10.6434
ปรีชา	-10.6435
2.5	-10.6439
อเล็กซานเดอร์	-10.6441
eng	-10.6442
ทะเบียน	-10.6444
-7	-10.6451
พราน	-10.6455
บอง	-10.6457
จุน	-10.6457
มาร์ค	-10.6467
ติดเชื้อ	-10.6467
ความลับ	-10.6468
พระราชกฤษฎีกา	-10.6469
เทนนิส	-10.6471
ออกแบบโดย	-10.6472
▁10,000	-10.6477
ext	-10.6478
สรรค์	-10.6478
ตามพระราชบัญญัติ	-10.6487
เอนไซม์	-10.6489
อาสาสมัคร	-10.649
ละครเวที	-10.6491
ผ่อน	-10.6492
พูดถึง	-10.6497
พูน	-10.65
การแข่ง	-10.65
สตูดิโออัลบั้ม	-10.6501
ระบบประสาท	-10.6509
แคระ	-10.6511
ผู้เขียน	-10.6511
ร่วมงานกับ	-10.6516
สนธิ	-10.6517
ไปรษณีย์	-10.6518
ยูเครน	-10.6518
เกิดเหตุ	-10.6519
Ac	-10.6524
ชิมะ	-10.6525
กลั่น	-10.6526
เรื่อยมา	-10.6527
พราหมณ์	-10.6527
พยากรณ์	-10.6527
แพทยศาสตร์	-10.6529
▁Star	-10.653
ฮาร์ด	-10.6533
มิใช่	-10.6533
ไทยทีวีสีช่อง	-10.6537
รถไฟใต้ดิน	-10.6546
John	-10.6547
กดดัน	-10.6548
ถูกนํามา	-10.6548
▁นรม	-10.6554
พรรคเพื่อไทย	-10.656
ข่าย	-10.6563
โบราณสถาน	-10.6564
▁มิลลิเมตร	-10.6566
TH	-10.6567
▁2507	-10.6573
▁เขาจึง	-10.6573
พระชายา	-10.6575
▁Un	-10.6577
ส่วนผสม	-10.6578
หน่อ	-10.6585
ยะมะ	-10.6587
ภิกษุ	-10.6587
▁We	-10.6589
เมทัล	-10.6592
โกรธ	-10.6596
วิลล์	-10.6596
ให้ความสําคัญ	-10.6598
เพรส	-10.66
โดยไม่ต้อง	-10.6601
ประเทศมาเลเซีย	-10.6601
แขวน	-10.6605
ไปทั่ว	-10.6606
อย่างเต็มที่	-10.6608
คัดค้าน	-10.6615
มหานคร	-10.6615
ปล้ํา	-10.6617
หนีไป	-10.6619
ตลอดทั้ง	-10.6621
หลบ	-10.6621
หมึก	-10.6625
คาถา	-10.6629
แกง	-10.6631
เลี้ยงลูกด้วยนม	-10.6634
กํากับภาพยนตร์	-10.6635
สมาพันธ์	-10.6635
บาร์เซโลนา	-10.6644
ปานกลาง	-10.6644
สมาธิ	-10.6645
ส่งสัญญาณ	-10.6648
ลูกเสือ	-10.665
ภูมิภาคเอเชีย	-10.6652
สม่ําเสมอ	-10.6654
เตรียมความพร้อม	-10.6654
ประภา	-10.6657
พระเชษฐา	-10.666
ตามธรรมชาติ	-10.6662
ฝนตก	-10.6663
แบ่งแยก	-10.6666
ทะลุ	-10.6668
แนวเพลง	-10.6669
ผอ	-10.667
เศร้า	-10.6673
การจัดการศึกษา	-10.6676
น้ําจืด	-10.6676
การอบรม	-10.6681
lect	-10.6691
ดัชเชส	-10.6693
low	-10.6701
สารเคมี	-10.6701
พะเยา	-10.6701
แสวงหา	-10.6703
กลืน	-10.6703
เร็	-10.6704
จับมือ	-10.6719
เคราะห์	-10.6722
กอล์ฟ	-10.6723
มีวัตถุประสงค์	-10.6723
น้อยมาก	-10.6732
กระจุก	-10.6733
ฮินดู	-10.6733
ประชาคม	-10.6737
นําเอา	-10.6744
▁2512	-10.6745
คาดว่าจะ	-10.675
คณะผู้บริหาร	-10.6751
▁2499	-10.6751
เต็	-10.6754
ซัก	-10.6759
ราชกิจจานุเบกษา	-10.6762
วางไข่	-10.6766
คุกคาม	-10.6772
▁Music	-10.6772
ทัล	-10.6776
อ้อม	-10.6776
โพรง	-10.6778
วิสาหกิจ	-10.6782
นิวเคลียส	-10.6782
การสนับสนุนจาก	-10.6782
เต้า	-10.6786
ยอดเขา	-10.6791
พฤกษ์	-10.68
ต่างด้าว	-10.6802
เดือด	-10.6802
เป็นที่ยอมรับ	-10.6806
การเคลื่อนที่	-10.6812
สิทธิมนุษยชน	-10.6812
หมวก	-10.6812
pre	-10.6812
เอ็ก	-10.6815
กรุงปารีส	-10.6815
ประกอบธุรกิจ	-10.6817
เซ็นเตอร์	-10.6819
กีฬาโอลิมปิก	-10.6822
เกียรติคุณ	-10.6824
BA	-10.6826
ชุมพร	-10.683
เทพรัตนราชสุดาฯ	-10.6832
พลาสติก	-10.6832
พ้อง	-10.6832
▁1976	-10.6832
▁แม้ว่าจะ	-10.684
รวมทั้งสิ้น	-10.6841
ออง	-10.6848
จังหวัดขอนแก่น	-10.6849
▁ขณะเดียวกัน	-10.685
บัลแกเรีย	-10.6852
มะพร้าว	-10.6852
คัง	-10.6857
ฝรั่ง	-10.6862
▁ปอนด์	-10.6862
ภายใต้ชื่อ	-10.6863
ความเชื่อมั่น	-10.6866
จนถึงปี	-10.6866
การตัดสินใจ	-10.6867
ขึ้นชก	-10.6869
ซ็อง	-10.6871
ประเทศชาติ	-10.6872
ทางตอนใต้ของ	-10.6874
ถูกนําไป	-10.6876
แบ่งเขตการปกครอง	-10.6878
สิบสอง	-10.6884
เซ็นทรัล	-10.6892
เวทมนตร์	-10.6902
แก้ความกํากวม	-10.6902
การติดเชื้อ	-10.6902
ที่รู้จักกันดี	-10.6904
พระบรมราชโองการ	-10.6912
โหวต	-10.6912
ทิศตะวันออก	-10.6912
เพื่อรองรับ	-10.6913
out	-10.6914
วันหยุด	-10.6922
บรรณาธิการ	-10.6922
หยาง	-10.6923
ผูกพัน	-10.6929
หนาวครั้งที่	-10.6935
ash	-10.6937
เพ็ญ	-10.6942
พ่อค้า	-10.6943
จบลง	-10.6945
สถาบันการศึกษา	-10.6945
กัม	-10.695
สลัก	-10.695
วิตามิน	-10.6952
พลิก	-10.6954
อุดมสมบูรณ์	-10.6956
ทางทิศใต้	-10.6963
ศาสนาคริสต์	-10.6964
ator	-10.6966
ร้าว	-10.697
ผู้สําเร็จราชการ	-10.6973
อีกครั้งหนึ่ง	-10.6974
อิฐ	-10.6975
นายกฯ	-10.6978
พานิช	-10.6979
▁ทั้งยัง	-10.6981
ล่วงหน้า	-10.6981
วันอังคาร	-10.6983
การถ่ายภาพ	-10.6984
ข้อหา	-10.6986
ปราศจาก	-10.6986
duct	-10.6991
พระมหากรุณาธิคุณ	-10.6993
▁1989	-10.6997
สัตว์เลี้ยง	-10.7002
เอลิซาเบธ	-10.7003
ze	-10.7003
ร่วง	-10.7003
เดรีย	-10.7005
อบอุ่น	-10.7016
ความเหมาะสม	-10.7023
เช็ก	-10.7024
พุทธศตวรรษที่	-10.7027
▁ดิศกุล	-10.7033
แกนนํา	-10.7034
ประทาน	-10.7035
ดัตช์	-10.7044
พูดคุย	-10.7044
โดยอาศัย	-10.7045
เป็นเวลานาน	-10.7052
ดอกเบี้ย	-10.7056
มีพฤติกรรม	-10.7057
การแลกเปลี่ยน	-10.7061
แม่น้ําเจ้าพระยา	-10.7061
ท้องฟ้า	-10.7065
ทวีปแอฟริกา	-10.7069
กลอน	-10.7071
ไทม์	-10.7079
อย่างแท้จริง	-10.7081
ปิ่น	-10.7084
เทคโนโลยีราชมงคล	-10.7084
สงครามกลางเมือง	-10.7085
ผู้สมัคร	-10.7087
ละติน	-10.7089
ให้สัมภาษณ์	-10.7092
สีม่วง	-10.7093
ประติมากรรม	-10.7095
แก๊ง	-10.7097
เป็นฝ่ายแพ้	-10.7101
▁1968	-10.7103
▁Bank	-10.7105
▁ท้องที่อําเภอ	-10.7105
ได้รับอิทธิพลจาก	-10.7106
เอียง	-10.7115
จันท	-10.7116
พุทธศักราช	-10.7122
ตุ๊กตา	-10.7125
นักวิจารณ์	-10.7126
ประยุกต์ใช้	-10.7126
เพิ่มมากขึ้น	-10.7132
ไม่ทราบ	-10.714
สุพรรณ	-10.7142
ซอร์	-10.7142
ทิศเหนือ	-10.7144
เข้าชิง	-10.7145
ระบบปฏิบัติการ	-10.7149
เข้าร่วมประชุม	-10.7152
สินค้าเกษตร	-10.7154
กระจายเสียง	-10.7155
พลอย	-10.7157
โคลน	-10.7158
ความเป็นจริง	-10.716
ฟุตบอลทีมชาติ	-10.7162
ได้รับเลือกให้	-10.7165
ดวงตา	-10.7165
คําสอน	-10.7166
เป็นที่มาของ	-10.7167
พักผ่อน	-10.7168
ลลี่	-10.7173
มีผู้เสียชีวิต	-10.7189
ทวาร	-10.7192
▁จากนั้นจึง	-10.7193
มีการนํา	-10.7196
▁ยกตัวอย่างเช่น	-10.7198
ศาสตร์พระราชา	-10.7198
ระดับน้ําทะเล	-10.7198
หลิว	-10.7199
app	-10.7204
กระจายพันธุ์	-10.7205
วงแหวน	-10.7209
โหมด	-10.7215
_1	-10.7215
ตรงกันข้าม	-10.7218
หยวน	-10.7219
ร้ายแรง	-10.7219
ชนเผ่า	-10.722
ไมตรี	-10.7226
วาดภาพ	-10.723
,000,000	-10.723
โกลด์	-10.7232
ภาษาอาหรับ	-10.7241
รถโดยสาร	-10.7242
เสียใจ	-10.7245
วงโคจร	-10.725
เริ่มแรก	-10.7251
อังคาร	-10.7252
เซ็นสัญญา	-10.7254
อุ่น	-10.7259
ขาดแคลน	-10.726
ครัว	-10.7261
จริงๆ	-10.7262
que	-10.7269
ทาวน์	-10.727
▁2514	-10.7271
ชื่น	-10.7278
เงียบ	-10.7281
0.00	-10.7281
รู้จักกันในชื่อ	-10.7283
ทิศตะวันตก	-10.7285
จัดให้มี	-10.7287
นักประวัติศาสตร์	-10.729
ō	-10.7291
โปเกมอน	-10.7291
รายจ่าย	-10.7303
เฉิน	-10.7306
ปลุก	-10.7321
อนุสาวรีย์	-10.7323
เข้าเยี่ยมคารวะ	-10.7323
Ju	-10.7331
▁ตารางวา	-10.7335
ดราม่า	-10.7344
สาธารณ	-10.7345
เซ็นสัญญากับ	-10.7348
ขับรถ	-10.7349
อย่างใกล้ชิด	-10.7349
าสน์	-10.735
บริเตน	-10.7354
หลวงปู่	-10.7357
นโปเลียน	-10.7365
นอล	-10.7366
โคจร	-10.7368
อัยการ	-10.7376
อารยธรรม	-10.7383
ตัวย่อ	-10.7383
rop	-10.7385
ิอุส	-10.7386
ในช่วงสงคราม	-10.7388
บุหรี่	-10.7396
▁1964	-10.74
เสถียรภาพ	-10.7404
ถล่ม	-10.7407
ลึกลับ	-10.7411
ถัดไป	-10.7417
มาร์ติน	-10.7423
จังหวัดสงขลา	-10.7437
จัตุรัส	-10.7438
กองทหาร	-10.7447
ความเดือดร้อน	-10.7449
เป็นเหตุให้	-10.7456
สนทนา	-10.746
บริวาร	-10.746
สระบุรี	-10.7465
ภาพลักษณ์	-10.7465
จรวด	-10.7467
ปกครองตนเอง	-10.7474
ขัดแย้ง	-10.7475
ook	-10.7479
over	-10.748
พระชนม์	-10.748
เพิ่มประสิทธิภาพ	-10.7484
พยายามที่จะ	-10.7486
ซิตี้	-10.7489
คณะแพทยศาสตร์	-10.7491
แตกต่างกันไป	-10.7492
way	-10.7492
สามเณร	-10.7502
ตุลาการ	-10.7503
อนันต์	-10.7505
บาทหลวง	-10.7512
ซ่อมแซม	-10.7513
ชกมวย	-10.7515
***********	-10.752
ated	-10.7521
โค้ช	-10.7535
ไพ่	-10.7538
เหลือเพียง	-10.754
ควีน	-10.7553
สปอร์ต	-10.7556
ร่วมมือกัน	-10.7559
เปียโน	-10.756
Si	-10.7563
รอบสุดท้าย	-10.7565
ซิลิ	-10.7566
ศรีลังกา	-10.757
โรมันคาทอลิก	-10.7572
dis	-10.7574
ตลอดกาล	-10.7575
แม่นยํา	-10.7577
ทุกครั้ง	-10.7578
เซ็ก	-10.759
เถระ	-10.7591
ระบาย	-10.7591
ช่วยลด	-10.7595
นินจา	-10.7599
หนองคาย	-10.7599
การรุกราน	-10.7603
อิชิ	-10.7604
โรงละคร	-10.7606
เศรษฐกิจพอเพียง	-10.761
มังงะ	-10.7611
เป็นนักฟุตบอลชาว	-10.7614
มุ่งหน้า	-10.7619
ความทรงจํา	-10.7621
สมาชิกสภา	-10.7628
ชมพู	-10.7632
ขีดความสามารถ	-10.7633
ร้อยเอ็ด	-10.7633
ดีวีดี	-10.7637
แบรนด์	-10.7642
ค้นคว้า	-10.7642
พระบรมศพ	-10.7644
สุจริต	-10.7653
แอ็	-10.7654
หม่อมหลวง	-10.767
ความจุ	-10.767
▁2491	-10.7672
ยุคกลาง	-10.7672
ปะการัง	-10.7674
บ้านเรือน	-10.7677
อัฟกานิสถาน	-10.7685
ศูนย์การค้า	-10.7688
เพื่อนสนิท	-10.7689
á	-10.7696
อุปสมบท	-10.7696
เมตตา	-10.7699
ل	-10.7707
แสดงให้เห็นว่า	-10.7707
บัญชีรายชื่อ	-10.7709
แจ็ก	-10.7712
หลั่ง	-10.7718
ชลประทาน	-10.7718
พิทยา	-10.7722
สารคดี	-10.7725
cre	-10.7731
เบียร์	-10.7733
เข้าร่วมโครงการ	-10.7737
ขยายพันธุ์	-10.774
เห็นได้ชัด	-10.7741
เริ่มออกอากาศ	-10.7743
วียน	-10.7746
มีแนวโน้ม	-10.7748
การผ่าตัด	-10.7752
นักร้องนํา	-10.7756
รองเท้า	-10.7758
ฉันท์	-10.7758
รบกวน	-10.7761
แน่ชัด	-10.7773
tro	-10.7774
ผลการดําเนินงาน	-10.7781
ธรณี	-10.7783
คณะอนุกรรมการ	-10.7784
ปั่น	-10.7791
องค์ความรู้	-10.7794
กุญแจ	-10.7795
ดาวน์โหลด	-10.7806
แมตช์	-10.7806
เรื่องสั้น	-10.7806
tric	-10.7816
สหภาพยุโรป	-10.7819
เยอร์	-10.7828
ความหวัง	-10.7828
พระสนม	-10.7828
าธิบดี	-10.7831
จับคู่	-10.7838
ตอบสนองต่อ	-10.7838
บันทึกไว้	-10.7842
air	-10.7842
ผู้ว่าการ	-10.7845
เจได	-10.7847
นนทบุรี	-10.7848
สุวรรณภูมิ	-10.785
เศรษฐ	-10.7853
มหาศาล	-10.7855
ลูกทุ่ง	-10.7858
ระดับปริญญาโท	-10.7859
แจ็ค	-10.7864
มาโดยตลอด	-10.7864
▁เอฟซี	-10.7864
เดินทางไปยัง	-10.7875
มากเกินไป	-10.7875
ยืด	-10.7876
วรรณคดี	-10.7877
ทิศใต้	-10.788
จิ้น	-10.7883
อ่อนแอ	-10.7887
เน้นย้ํา	-10.7897
ปรึกษา	-10.7898
▁2495	-10.7908
ยิงประตู	-10.7913
มีส่วนร่วมในการ	-10.7917
แฮร์	-10.7918
ดัล	-10.7923
วิพากษ์วิจารณ์	-10.7927
ยุทธศาสตร์ชาติ	-10.7929
นักลงทุน	-10.793
▁ประกอบกับ	-10.7936
อย่างจริงจัง	-10.7949
lex	-10.795
แพร่กระจาย	-10.7951
รับจ้าง	-10.7951
เซิน	-10.7953
ในรูปของ	-10.7962
ประเทศเวียดนาม	-10.7965
พงศาวดาร	-10.7972
ให้การต้อนรับ	-10.7972
รองประธาน	-10.7972
สัมภาษณ์	-10.7974
▁2505	-10.7979
▁1987	-10.798
ฆ่าตัวตาย	-10.7983
ซีซั่น	-10.7983
กรุงโตเกียว	-10.7987
สีชมพู	-10.7989
วิกตอเรีย	-10.7994
แฝง	-10.7994
บริติช	-10.7994
ลูกศิษย์	-10.7996
เจ้าอาวาส	-10.7999
เลื่อนชั้น	-10.8
พรรคไทยรักไทย	-10.8005
▁พลตํารวจเอก	-10.8005
ล้านบาท	-10.8005
คีรี	-10.8006
ถูกนํามาใช้	-10.8017
เข้าสู่วงการ	-10.8018
เพาะปลูก	-10.802
โทรคมนาคม	-10.8031
พัฒน	-10.8031
กติกา	-10.8032
มิตรภาพ	-10.8039
อาร์เซนอล	-10.805
แห่งสหประชาชาติ	-10.8055
รับหน้าที่	-10.8059
ชัง	-10.8063
การบริหารงาน	-10.8065
กองเรือ	-10.8066
มีบทบาทสําคัญใน	-10.8067
ซิ่ง	-10.807
เทศบาลนคร	-10.8071
ผลึก	-10.8072
กรรมการบริหาร	-10.8073
นักโทษ	-10.808
▁1986	-10.8081
มียอดขาย	-10.8083
ยุ่ง	-10.8086
ลําไส้	-10.8088
สั้นๆ	-10.8097
เบิร์น	-10.8102
ก่อการร้าย	-10.8107
ไตรมาส	-10.8107
พัทยา	-10.8107
โมบิลสูท	-10.8118
เข้าร่วมแข่งขัน	-10.8119
ห้องสมุด	-10.8126
ภูมิคุ้มกัน	-10.8141
กาฬสินธุ์	-10.8141
ฮอร์โมน	-10.8152
บกพร่อง	-10.8152
ครรภ์	-10.8157
บารมี	-10.8165
ประเทศฟิลิปปินส์	-10.8167
ยูเนสโก	-10.8175
โปร่งใส	-10.8175
แคลิฟอร์เนีย	-10.8176
เป็นเมืองหลวงของ	-10.8177
มาจากคําว่า	-10.8179
เข้าประกวด	-10.818
ผู้ทรงคุณวุฒิ	-10.8186
สุขาภิบาล	-10.8186
โดเมน	-10.8192
บรรจบ	-10.8193
ออกกําลังกาย	-10.8198
ผนวก	-10.8198
พัชร	-10.82
ไม่จําเป็นต้อง	-10.82
นครพนม	-10.8202
ลวด	-10.8207
เชิด	-10.8209
สมาชิกวุฒิสภา	-10.822
สังคมศาสตร์	-10.8225
แต้ม	-10.823
เร่งด่วน	-10.8235
ั๊ก	-10.824
เปิดโอกาสให้	-10.8244
หุ้นส่วน	-10.8249
แอลกอฮอล์	-10.8255
ฟุตซอล	-10.8255
กระทรวงเกษตรฯ	-10.8266
กระแสไฟฟ้า	-10.8268
ัตสึ	-10.8278
ย็อน	-10.8281
บุญธรรม	-10.8282
ความร่วมมือด้าน	-10.83
ตําบลบ้าน	-10.8301
อัสสัมชัญ	-10.8301
จ่ายเงิน	-10.8306
สาธารณชน	-10.8313
ทางหลวงหมายเลข	-10.8317
ประมูล	-10.832
อินทรี	-10.8323
มัธยมศึกษาตอนต้น	-10.8325
ใช้คําว่า	-10.8332
ณิ	-10.8336
หน้ากาก	-10.8337
dge	-10.8341
อเมริกาเหนือ	-10.8342
อินทร์	-10.8343
▁2510	-10.8353
แบ็ก	-10.836
▁ลิตร	-10.8375
กองพล	-10.8376
เพดาน	-10.8383
ิ้น	-10.8386
ตรวจจับ	-10.8387
ฮาวาย	-10.8392
วุ่นวาย	-10.8406
นัดแรก	-10.8407
มุนี	-10.8414
▁พระบรมราชินีนาถ	-10.8418
ประยูร	-10.8418
เร่งรัด	-10.8419
นายจ้าง	-10.8425
นิติบุคคล	-10.8428
เขตแดน	-10.8429
ท้าทาย	-10.8429
กรุงโรม	-10.8429
เกินกว่า	-10.843
ตะกอน	-10.8439
เฮาส์	-10.8453
สังเกตการณ์	-10.8455
อัตราส่วน	-10.8458
อยู่ในอันดับ	-10.8464
มอสโก	-10.8465
กิ่งอําเภอ	-10.8465
อาร์เอส	-10.8473
โรแมนติก	-10.8476
เชือก	-10.8488
ness	-10.8489
▁2498	-10.849
เซลล์ประสาท	-10.8497
ออกอากาศทางช่อง	-10.8499
เวียงจันทน์	-10.85
เค็ม	-10.85
คณะกรรมาธิการ	-10.8507
▁2489	-10.8512
rand	-10.8514
ุ้น	-10.8515
เซาท์	-10.8516
โจเซฟ	-10.8525
ทะเลทราย	-10.8534
ลอร์ด	-10.8537
เงินกู้	-10.8544
หุบเขา	-10.8547
ดีเอ็นเอ	-10.8547
มีมติเห็นชอบ	-10.8548
ห่างไกล	-10.855
ทรงกลม	-10.8551
เผด็จการ	-10.8559
ชายหาด	-10.8564
ลังกา	-10.8564
มหกรรม	-10.8571
ผลัด	-10.8575
q	-10.8578
หาดใหญ่	-10.8578
จังหวัดเชียงราย	-10.8579
ความสะดวก	-10.8588
หิมะ	-10.8591
กว้างขวาง	-10.8592
tain	-10.8594
โน้ต	-10.8595
ชาลส์	-10.8595
อักษรย่อ	-10.8596
ทบทวน	-10.8606
พัล	-10.8611
▁2508	-10.8618
จักรี	-10.8629
สหพันธรัฐ	-10.863
โตเต็มที่	-10.8636
ไต่	-10.8637
ฉะเชิงเทรา	-10.8642
ā	-10.8642
ระดับอุดมศึกษา	-10.8642
คิวบา	-10.8644
ชาวต่างชาติ	-10.8651
คณบดี	-10.8666
	-10.8666
จดจํา	-10.8666
พระจอมเกล้า	-10.8667
กรุงธนบุรี	-10.867
&	-10.8671
นับว่าเป็น	-10.8672
ธีระเกียรติ	-10.8678
ขัดขวาง	-10.8679
4,000	-10.8687
ห้องปฏิบัติการ	-10.8688
การค้ามนุษย์	-10.8689
ผนึก	-10.869
ประเทศกรีซ	-10.8691
โสภณ	-10.8695
อันศักดิ์สิทธิ์	-10.87
คฤหาสน์	-10.8702
แสตมป์	-10.8702
บรรทัด	-10.8703
หีบ	-10.8703
เคลือบ	-10.8714
อุโมงค์	-10.8714
▁๒๔	-10.8717
ครอบคลุมพื้นที่	-10.872
เข้ารับราชการ	-10.8725
ตลาดหลักทรัพย์	-10.8726
เบรีย	-10.8734
ครีบหลัง	-10.8735
ยูฟ่า	-10.8736
พระชนมพรรษา	-10.8738
กรมศิลปากร	-10.8739
เนื่องในโอกาส	-10.874
อัลบั้มชุดที่	-10.8742
อัจฉริยะ	-10.875
▁One	-10.8752
เหล้า	-10.8767
สโตน	-10.8779
ยูไนเต็ด	-10.8785
พ่าย	-10.8786
ภคินี	-10.8787
พระชันษา	-10.8787
20,000	-10.8787
ี๊ย	-10.8788
▁Best	-10.8807
รัฐแคลิฟอร์เนีย	-10.881
ถกเถียง	-10.8811
โปรเจกต์	-10.8811
ซุ้ม	-10.8811
มาดริด	-10.8811
ลงสมัครรับเลือก	-10.8819
พอสมควร	-10.8827
างกูร	-10.8831
รายนาม	-10.8833
คาทอลิก	-10.8835
▁อดีตสมาชิก	-10.8835
รักษาความปลอดภัย	-10.8837
!!	-10.8838
พอร์ต	-10.8842
วัลย์	-10.8846
เกิร์ล	-10.8848
ภัยพิบัติ	-10.8853
เล่าปี่	-10.886
คิดเป็นร้อยละ	-10.886
เป็ด	-10.8864
กาฬ	-10.887
กฤษณ	-10.8872
เด็ดขาด	-10.8872
เยียวยา	-10.8872
▁สถิติการชก	-10.8872
เมทริกซ์	-10.8872
▁comp	-10.8876
ection	-10.8896
#	-10.8896
รอดชีวิต	-10.8903
▁ด้วยเหตุนี้	-10.8909
เป็นประธานในพิธี	-10.8913
มอบหมาย	-10.8923
ตั้งอยู่บริเวณ	-10.8931
ประมวล	-10.8932
อสูร	-10.8938
กระทรวงดิจิทัลฯ	-10.8949
เพียงคนเดียว	-10.8949
กรวย	-10.8951
ตอนล่าง	-10.897
โครงข่าย	-10.8971
▁2506	-10.8991
กรมบัญชีกลาง	-10.8992
ลุ่มน้ํา	-10.8993
เสน่ห์	-10.9007
ซื่อสัตย์	-10.902
เปรี้ยว	-10.902
Trans	-10.9021
แอนน์	-10.9031
เศรษฐี	-10.9035
ปราชญ์	-10.9045
สิ่งเร้า	-10.9045
เชื้อชาติ	-10.9045
หลอม	-10.9045
กิตติมศักดิ์	-10.9057
สนามแม่เหล็ก	-10.9061
ปลาน้ําจืด	-10.9066
ศักดิ	-10.9068
▁หมายเหตุ	-10.907
มุขนายก	-10.9071
มองโกล	-10.9073
พระบรมมหาราชวัง	-10.9082
นิวตรอน	-10.9082
โซนิค	-10.91
ปาเลสไตน์	-10.9107
แถม	-10.9107
ฮิโระ	-10.9111
จําเลย	-10.9119
มองโกเลีย	-10.912
ผู้มีรายได้น้อย	-10.912
aster	-10.9133
ระลึกถึง	-10.9138
ขจร	-10.914
ระบายน้ํา	-10.9143
ขันธ์	-10.9146
▁2501	-10.9154
ชั้นมัธยมศึกษาปี	-10.9156
จิ๋ว	-10.9157
วุฒิสภา	-10.9166
กระทรวงวิทยาศา	-10.917
สตร์และเทคโนโลยี	-10.918
ขยับ	-10.9183
มหาดไทย	-10.9185
อู๋	-10.9185
ข้าหลวง	-10.9189
ข่าน	-10.9189
หยิบ	-10.9195
ไนท์	-10.92
ประเทศบราซิล	-10.9203
เคร่งครัด	-10.9208
เป็นมรดกโลก	-10.9208
---------------	-10.921
คุณลักษณะ	-10.9216
แว่น	-10.9227
▁2502	-10.923
แบล็ก	-10.9233
บทกวี	-10.9236
▁องศาเซลเซียส	-10.9246
ทั้งปวง	-10.9246
พระอุโบสถ	-10.9251
ประหาร	-10.9257
ปล้น	-10.9259
เทควันโด	-10.9271
ซามูไร	-10.9271
สมิธ	-10.9272
แอร์ไลน์	-10.9272
ทางรถไฟสาย	-10.9274
สอดคล้อง	-10.9278
▁ลงวันที่	-10.9294
ครบวงจร	-10.9299
ระยะสั้น	-10.9311
หิรัญ	-10.9323
สวัสดิ	-10.9324
แม้กระทั่ง	-10.933
กะโหลก	-10.9335
▁2509	-10.9344
High	-10.9347
จังหวัดนนทบุรี	-10.9349
ะโมะ	-10.9349
ความเครียด	-10.9358
บริบท	-10.936
а	-10.9361
ลักเซมเบิร์ก	-10.9361
าธิการ	-10.9363
พิจิตร	-10.9363
สมุทรสาคร	-10.9374
▁Development	-10.9374
ท่านผู้หญิง	-10.9384
▁สามารถหมายถึง	-10.9392
ศาสนาอิสลาม	-10.9396
ช่องว่าง	-10.9397
บุกเบิก	-10.9399
กระชับ	-10.9412
เรือนจํา	-10.9423
เฮีย	-10.9437
โตโยต้า	-10.9438
กราฟิก	-10.9446
ดิวิชั่น	-10.9451
อับดุล	-10.9452
เจตนา	-10.9452
กรุณา	-10.9452
อภิสิทธิ์	-10.9455
▁2504	-10.9459
อินโดจีน	-10.9464
เครื่องประดับ	-10.9469
ไดโนเสาร์	-10.9477
เยื่อหุ้ม	-10.948
จอร์เจีย	-10.949
ฟีฟ่า	-10.949
กรรมการผู้จัดการ	-10.9491
/2561	-10.9503
สมมุติ	-10.9503
คับ	-10.9505
หอประชุม	-10.9509
ถนัด	-10.9515
ไมโครซอฟท์	-10.9516
▁บุนนาค	-10.9516
ฝุ่น	-10.9518
ละออง	-10.9519
โถ	-10.952
ลักษ	-10.9526
ประจวบคีรีขันธ์	-10.9529
และปริมณฑล	-10.9529
ุ่ย	-10.9534
ยี่สิบ	-10.9536
เซอร์เบีย	-10.9537
จัดทําแผน	-10.955
ความเหลื่อมล้ํา	-10.9555
ตําหนัก	-10.956
ช่องแคบ	-10.9567
กิริยา	-10.9568
▁เป็นบุตรของนาย	-10.9568
สมัครเล่น	-10.9573
▁ในขณะเดียวกัน	-10.9582
▁แต่ทว่า	-10.9585
▁was	-10.9607
ระฆัง	-10.9608
ทางกายภาพ	-10.9608
ฆาตกรรม	-10.9611
วาฬ	-10.9615
ไหว้	-10.9616
คณิต	-10.9618
จินตนาการ	-10.9621
เรื้อรัง	-10.9621
ได้รับอนุญาต	-10.9625
Str	-10.9633
กระต่าย	-10.9634
อสังหาริมทรัพย์	-10.9647
ก้อง	-10.9648
ฮีโร่	-10.965
▁กรมหมื่น	-10.9651
ฝัก	-10.9654
าธิปไตย	-10.9661
แสดงให้เห็นถึง	-10.9661
พจนานุกรม	-10.9674
วิเชียร	-10.9684
บ่าย	-10.9685
แดนซ์	-10.9685
เหลียง	-10.9687
ผุ	-10.9689
เสี้ยว	-10.97
อธิบดี	-10.9718
ฉัตรชัย	-10.9721
เอลฟ์	-10.9727
ฟิลด์	-10.9736
รวมผลสองนัด	-10.974
ตระเวน	-10.9754
▁พบกระจายพันธุ์	-10.9755
แผ่นป้าย	-10.9758
เกลียด	-10.9767
การสู้รบ	-10.9783
▁นอกจากนั้นยัง	-10.9787
พิบูลสงคราม	-10.9807
นโรดม	-10.9821
อุบล	-10.9821
▁Act	-10.9823
สมมติฐาน	-10.9834
สัญจร	-10.9834
อภิปราย	-10.9836
เอิร์ล	-10.9848
ก่อนคริสต์ศักราช	-10.9848
บาสเกตบอล	-10.9848
1%	-10.9856
แหล่งท่องเที่ยว	-10.9862
facebook	-10.9875
คาดการณ์	-10.9877
▁อดุลย์	-10.9888
▁องศาตะวันออก	-10.9891
▁โอกาสนี้	-10.9892
สแควร์	-10.9902
▁ดอลลาร์สหรัฐ	-10.9902
กริยา	-10.9903
ราศี	-10.9903
เปรียญ	-10.9915
สดใส	-10.9917
ดุษฎีบัณฑิต	-10.9929
พัทลุง	-10.9929
พิสัย	-10.9929
กะเหรี่ยง	-10.9943
ภิรมย์	-10.9943
ept	-10.9944
สังข์	-10.9956
อิสรภาพ	-10.9956
วัตถุดิบ	-10.9959
มัธยมศึกษาปีที่	-10.996
สืบสาน	-10.9962
็อค	-10.9969
บ่งบอก	-10.9971
พังก์	-10.9977
เคลื่อนย้าย	-10.9979
เอเธนส์	-10.9983
เผ่าพันธุ์	-10.9984
หมั้น	-10.9984
ปลาฉลาม	-10.9997
ปรกติ	-10.9997
อัตราดอกเบี้ย	-10.9999
สมรรถนะ	-11.0011
ยูโกสลาเวีย	-11.0011
ที่เก่าแก่ที่สุด	-11.002
รอยัล	-11.0025
▁เป็นอําเภอหนึ่ง	-11.0026
×	-11.0038
trans	-11.004
อิ่ม	-11.004
ในตอนท้าย	-11.0042
ปัด	-11.008
แม็ค	-11.0087
α	-11.0093
จระเข้	-11.0093
เลี้ยว	-11.0093
▁ประสูติเมื่อ	-11.0103
ทุกวันจันทร์	-11.0112
▁เจริญเศรษฐศิลป์	-11.0121
ัธยมศึกษาตอนปลาย	-11.0123
ปุ๋ย	-11.0135
−	-11.0135
โฆษกประจําสํานัก	-11.0135
พันธุ	-11.0143
จอร์แดน	-11.0154
เคเบิล	-11.016
ศุกร์	-11.0164
คาดหวัง	-11.0166
▁ถึงแม้	-11.0168
สตูล	-11.0171
ยิว	-11.0174
ไพบูลย์	-11.0177
บิดามารดา	-11.0184
เข้าใจผิด	-11.019
ดิสนีย์	-11.0192
ใฝ่	-11.0205
ภาคอีสาน	-11.0205
เข้มงวด	-11.0219
เตรียมอุดมศึกษา	-11.0219
สง่า	-11.0233
กรมสามัญศึกษา	-11.0235
คุ้งตะเภา	-11.0247
สืบเนื่อง	-11.0253
6,000	-11.0253
ทรมาน	-11.0259
ลําบาก	-11.026
องคมนตรี	-11.0261
กรุงรัตนโกสินทร์	-11.0263
คณาจารย์	-11.0275
ุทธ	-11.0284
~	-11.0289
กระดาน	-11.0289
เพลงลูกทุ่ง	-11.0314
ชดเชย	-11.0317
จุดมุ่งหมาย	-11.0317
พินิจ	-11.0317
เจ็บป่วย	-11.0318
▁Championship	-11.0331
ถัดจาก	-11.036
ถ่ายทอดสด	-11.0363
จันทน์	-11.0364
ศาสตร	-11.0371
III	-11.0374
ember	-11.0378
ศิลปากร	-11.0387
พระเจ้าวรวงศ์เธอ	-11.0388
[	-11.0388
ภาษาบาลี	-11.0388
▁Asia	-11.039
ยิม	-11.039
สัมฤทธิ์	-11.0392
ความเอนเอียง	-11.0402
ผ่านเข้ารอบ	-11.0411
ฝ่ายสัมพันธมิตร	-11.0416
ศรีนครินทรวิโรฒ	-11.0417
สมเด็จพระสังฆราช	-11.0417
ชิคาโก	-11.0417
ลอบสังหาร	-11.0418
บังเอิญ	-11.0445
ภริยา	-11.0459
สืบราชบัลลังก์	-11.0463
ข้าพเจ้า	-11.0474
0.5	-11.0483
ัฏฐ	-11.0484
ตั๋ว	-11.0503
แอปเปิล	-11.0503
พยางค์	-11.0503
กระเป๋า	-11.0517
ทัศนคติ	-11.0518
เศรษฐกิจการคลัง	-11.0522
press	-11.053
สโลวาเกีย	-11.0546
▁System	-11.0546
อันเนื่องมาจาก	-11.0546
สก็อต	-11.0546
ภาษาสันสกฤต	-11.056
เบิกจ่าย	-11.0561
มัธยมปลาย	-11.0572
	-11.0589
ขีปนาวุธ	-11.0589
สําราญ	-11.0589
นิพพาน	-11.0604
ผู้ตรวจราชการ	-11.0604
ผู้รักษาประตู	-11.0604
ภูมิทัศน์	-11.061
ถ้าหาก	-11.0617
ปัง	-11.0621
สมรรถภาพ	-11.0633
เพลย์สเตชัน	-11.0633
ยานยนต์	-11.0633
มหัศจรรย์	-11.0648
สนุกสนาน	-11.0648
ไอซ์แลนด์	-11.0648
บ่งชี้	-11.0648
▁องศาตะวันตก	-11.0651
หาสมุทรแอตแลนติก	-11.0667
ไว้วางใจ	-11.0677
บรมราชชนนี	-11.0677
ธรณีวิทยา	-11.068
มิสแกรนด์	-11.0682
กลีบดอก	-11.0686
3%	-11.069
แอนตาร์กติก	-11.0691
เสนาธิการ	-11.0691
▁๒๕๕	-11.0692
ระเบียงเศรษฐกิจ	-11.0693
ward	-11.0704
ปักษ์	-11.0706
หมิ่น	-11.0708
ไม่เห็นด้วย	-11.071
ยินยอม	-11.0712
สะเทือน	-11.0721
อัลบัม	-11.0721
สมัชชา	-11.0736
ศาสดา	-11.0736
ยี่ห้อ	-11.0739
ในสมัยรัชกาลที่	-11.0741
เกษียณ	-11.075
สุริยุปราคา	-11.0765
ปลอด	-11.0767
สันนิบาต	-11.078
ปล้อง	-11.078
ภาณุ	-11.0795
ตื้น	-11.0795
พระสวามี	-11.0795
มหาวชิราลงกรณ	-11.0795
▁Girl	-11.0795
แกะสลัก	-11.081
ปริมาตร	-11.0817
ิงแฮม	-11.0823
พระบรมราชูปถัมภ์	-11.0824
โทลคีน	-11.0824
9%	-11.0829
เลขาธิการคณะกรรม	-11.0831
ความเจ็บปวด	-11.0839
กายวิภาค	-11.0839
ology	-11.0853
ดยุคแห่ง	-11.0854
พระไตรปิฎก	-11.0854
ประชวร	-11.0854
ผู้ร่วมการทดลอง	-11.0854
ชีวประวัติ	-11.0856
บรูไน	-11.0857
เมียนมา	-11.0863
สับ	-11.0865
เครื่องปฏิกรณ์	-11.0869
ซ้อม	-11.0872
ประมวลกฎหมาย	-11.0887
็อป	-11.0888
ฝึกซ้อม	-11.0897
วีดีโอ	-11.0937
ประจักษ์	-11.0944
คณะรักษาความสงบ	-11.0944
นางเจ้าสิริกิติ์	-11.0944
ระบอบประชาธิปไตย	-11.0946
การจับสลาก	-11.0959
เธีย	-11.0962
อุดมการณ์	-11.0962
แฉก	-11.0973
เครดิต	-11.0974
คล้ายคลึงกัน	-11.0989
ทวีปอเมริกาเหนือ	-11.099
สุรเชษฐ์	-11.1004
ฤดูฝน	-11.101
ไฮโดร	-11.1019
30,000	-11.1066
ช้างเผือก	-11.1066
8,000	-11.1075
ปศุสัตว์	-11.108
ไม่เป็นทางการ	-11.1084
รวด	-11.1093
serv	-11.1094
เฝ้าระวัง	-11.1096
เพชรบูรณ์	-11.1096
มรณะ	-11.1096
ถนอม	-11.1097
อัญมณี	-11.1111
กองบัญชาการ	-11.1111
dition	-11.1116
▁แจ็กสัน	-11.1127
fect	-11.1156
สวัสดิการแห่งรัฐ	-11.1157
มวยสากลสมัครเล่น	-11.1157
ครีม	-11.1158
เป็นปลาสวยงาม	-11.1188
ขนมปัง	-11.1188
แกล้ง	-11.1203
เคิร์	-11.121
สีกองทัพบกช่อง	-11.1219
เลี่ยง	-11.1219
หย่อน	-11.1219
วิจัยและพัฒนา	-11.1229
รัตนโกสินทร์	-11.1232
พยัคฆ์	-11.1234
พระเพลิงพระบรมศพ	-11.1234
▁from	-11.1234
ซากดึกดําบรรพ์	-11.1234
ศักย์	-11.1235
2%	-11.1237
ซุปเปอร์	-11.125
ทมิฬ	-11.125
อธิการ	-11.1251
สนามเหย้า	-11.1251
กูเกิล	-11.1253
พระเจ้าหลุยส์ที่	-11.1254
คลองผดุงกรุงเกษม	-11.1265
โครโมโซม	-11.1265
แจ่ม	-11.1265
ซิดนีย์	-11.1281
ภิบาล	-11.1294
พระบรมวงศานุวงศ์	-11.1296
น่าเชื่อถือ	-11.1296
สพฐ	-11.1297
ค้ําประกัน	-11.1297
ปัญจ	-11.1305
กรีฑา	-11.1312
ระมัดระวัง	-11.1312
บิชอป	-11.1312
อสุจิ	-11.1312
ออมสิน	-11.1313
ผู้ประสบภัย	-11.1321
วิสัยทัศน์	-11.1328
กล้องโทรทรรศน์	-11.1375
ป๊อป	-11.1375
จนกว่าจะ	-11.1384
ควอนตัม	-11.139
บังกลาเทศ	-11.1406
ปลงพระชนม์	-11.1406
แม่ฮ่องสอน	-11.1406
บราวน์	-11.1406
สันนิษฐาน	-11.1408
คาราบาว	-11.1422
▁จิร	-11.1432
มหาดเล็ก	-11.1438
พักตร์	-11.1438
ฟราน	-11.1453
แฟนตาซี	-11.1454
คว่ํา	-11.1454
off	-11.1457
เซี่ยงไฮ้	-11.1469
จู่โจม	-11.1485
ุทธยอดฟ้าจุฬาโลก	-11.1485
พยาธิ	-11.1486
หมากรุก	-11.1486
เข็มขัด	-11.1487
เคาน์ตี	-11.1501
ผีเสื้อ	-11.1504
อดทน	-11.1505
เอิร์ธ	-11.1517
▁Entertainment	-11.1517
สรุปสาระสําคัญ	-11.1533
นางงามจักรวาล	-11.1549
แบ่งออกได้เป็น	-11.1549
หยาบ	-11.155
โมะโตะ	-11.156
เฮลิคอปเตอร์	-11.1565
โทรศัพท์มือถือ	-11.1565
ศาลฎีกา	-11.1566
ถือได้ว่าเป็น	-11.1568
ความน่าจะเป็น	-11.1571
คุ้นเคย	-11.1597
สัตว์เลื้อยคลาน	-11.1597
ขวด	-11.1644
แชมเปียน	-11.1645
ยืดหยุ่น	-11.1645
ฟรานซิส	-11.1646
ทัด	-11.1659
เสนอชื่อเข้าชิง	-11.1663
ประสิทธิผล	-11.1678
ณะวิศวกรรมศาสตร์	-11.168
งค์การบริหารส่วน	-11.1681
----------	-11.1682
อินเตอร์เนชันแนล	-11.1694
ป้อน	-11.1704
นามปากกา	-11.1715
ปฏิสัมพันธ์	-11.1726
3.5	-11.1731
เพ็ชร	-11.1743
คอนกรีต	-11.1743
วิตกกังวล	-11.1759
กล้าหาญ	-11.1759
สเตเดียม	-11.1759
graph	-11.1759
ยากลําบาก	-11.1761
มลพิษ	-11.1776
ข้อพิพาท	-11.1776
พระหัตถ์	-11.1792
เอฟเอคัพ	-11.1808
ชัยนาท	-11.1809
คอร์เทกซ์	-11.1824
แบตเตอรี่	-11.1824
โคลัมเบีย	-11.1824
ปกรณัม	-11.1824
▁Super	-11.1825
แคลเซียม	-11.1841
เพียงอย่างเดียว	-11.1841
บาวาเรีย	-11.1841
▁Time	-11.1842
เอนเตอร์เทนเมนต์	-11.1857
ข้าวโพด	-11.1857
เนรเทศ	-11.189
เฟิร์	-11.1903
ฉาน	-11.1904
ผิง	-11.1907
เป็นอันมาก	-11.1911
พลเรือเอก	-11.1924
ฟอล	-11.1928
ไทยเป็นการทั่วไป	-11.194
mmun	-11.1941
โยธิน	-11.1947
เอสเอ็มอี	-11.1957
ใช่	-11.1961
สาหร่าย	-11.1973
ไบรอัน	-11.199
ยานพาหนะ	-11.1991
ปณิธาน	-11.2007
เปิดทําการสอน	-11.2024
ห่วงใย	-11.2025
พระจุลจอมเกล้า	-11.2039
สยองขวัญ	-11.204
โคลอมเบีย	-11.204
ที่ว่าการอําเภอ	-11.2075
อารย	-11.2085
สิกข	-11.2088
ー	-11.2108
$	-11.2108
สตรอ	-11.2112
วิษณุ	-11.2125
โจรสลัด	-11.2125
ฮอนด้า	-11.2142
พหลโยธิน	-11.2159
พัสดุ	-11.2159
มีส่วนเกี่ยวข้อง	-11.2169
ปราจีนบุรี	-11.2176
ค้างคาว	-11.2176
พระแม่มารี	-11.2176
็อล	-11.2189
▁คปภ	-11.2193
ะหฺ	-11.2207
ลิทัวเนีย	-11.221
เถรวาท	-11.221
อุโบสถ	-11.2219
ให้คําปรึกษา	-11.2244
โภค	-11.2244
▁million	-11.2261
ที่ราบลุ่ม	-11.2268
ฟลอริดา	-11.2278
อุลตร้า	-11.2278
โปรโมชั่น	-11.2278
▁มีผู้พูด	-11.2284
อุทธรณ์	-11.2296
ศัลย	-11.2313
นายกเทศมนตรี	-11.233
ตะกั่ว	-11.233
ห้างสรรพสินค้า	-11.2347
แย่งชิง	-11.2347
play	-11.2348
ห่ม	-11.2362
จลาจล	-11.2365
▁พินอิน	-11.2365
กานต์	-11.2366
▁จั่นตอง	-11.2382
ประเทศเพื่อนบ้าน	-11.2382
มังคล	-11.2397
แขกรับเชิญ	-11.24
เค้ก	-11.2417
о	-11.2434
เรสต์ลิง	-11.2434
ตาบอด	-11.2435
ท่วม	-11.2454
ไม้ยืนต้น	-11.2469
▁ตรงกับวันที่	-11.2471
บริบูรณ์	-11.2487
American	-11.2504
Prince	-11.2504
ทุจริต	-11.252
สมุห	-11.2523
7,000	-11.253
ฐานันดร	-11.254
ปลื้ม	-11.254
ระนาบ	-11.254
ระเบียง	-11.2555
อักขระ	-11.2557
เฉิง	-11.2557
ซัด	-11.2558
ฝ้าย	-11.2575
ลุมพินี	-11.2575
gmail	-11.2575
ü	-11.2593
ปิโตรเลียม	-11.2593
เรขาคณิต	-11.2593
ปาฐกถา	-11.2611
เพี้ยน	-11.2611
ที่รู้จักในชื่อ	-11.2611
เมดิเตอร์เรเนียน	-11.2646
เวเนซุเอลา	-11.2664
●	-11.2664
ธุรกรรม	-11.2664
คริสตัล	-11.2682
ถึงแก่อสัญกรรม	-11.2682
โปรเตสแตนต์	-11.2682
อึน	-11.2684
ได้ชื่อว่าเป็น	-11.2691
ทัณฑ์	-11.27
ทารุณ	-11.27
ดูเหมือนจะ	-11.2707
ยัด	-11.2727
พระราชนัดดา	-11.2736
ไสย	-11.2741
▁Program	-11.2754
neuro	-11.2755
ประกวดมิสแกรนด์	-11.2768
แบล็ค	-11.2772
ม้วน	-11.2781
ส่งผลกระทบต่อ	-11.279
ทึบ	-11.279
ห้วง	-11.2808
▁เพราะฉะนั้น	-11.2826
ดินทรเทพยวรางกูร	-11.2826
▁พอตเตอร์	-11.2826
เวกเตอร์	-11.2826
จารย์	-11.2849
อนันต	-11.2861
แชมเปียนชิป	-11.2863
พัทธ์	-11.2881
แยกแยะ	-11.2881
ข้อมูลข่าวสาร	-11.2881
เลื้อย	-11.2881
เลวร้าย	-11.2881
ภายใต้การนําของ	-11.2884
กระดอง	-11.2899
ยโสธร	-11.2917
ลูกบาศก์	-11.2917
▁College	-11.2917
ผัด	-11.2918
สกอต	-11.2918
กงสุล	-11.2936
แทรกแซง	-11.2936
รําลึกถึง	-11.2936
วิศิษฏ์	-11.2954
แหล่งมรดกโลก	-11.2954
ซากุระ	-11.2954
อํามาตย์	-11.2973
นัดชิงชนะเลิศ	-11.2973
work	-11.2973
สมเด็จพระนางเจ้า	-11.2976
เจ้าผู้ครองนคร	-11.2989
พระขนิษฐา	-11.2991
ฟลอเรนซ์	-11.2991
▁เวชชาชีวะ	-11.2991
ทนายความ	-11.2992
и	-11.3009
เขี้ยว	-11.301
คลาร์ก	-11.3011
เคานต์	-11.3028
ฟ่าแชมเปียนส์ลีก	-11.3032
ough	-11.3037
▁1,1	-11.3043
▁Group	-11.3047
ประธานในพิธีเปิด	-11.3063
เซิร์	-11.3065
พีระมิด	-11.3065
ขากรรไกร	-11.3065
กัวลาลัมเปอร์	-11.3084
ร่ํารวย	-11.3084
—	-11.3115
จากขั้วโลกเหนือ	-11.3121
มาสค์ไรเดอร์	-11.314
สํานวน	-11.314
อุปรากร	-11.3141
โรงเรียนนายร้อย	-11.3159
เติร์ก	-11.3177
ฝ่ายค้าน	-11.3177
ฟรีดริช	-11.3196
เชิดชูเกียรติ	-11.3196
ธนาคารกรุงไทย	-11.3196
ดัชชี	-11.3196
คอลัมน์	-11.3215
ทําความสะอาด	-11.3215
สู่ขั้วโลกใต้	-11.3234
ฮ่องเต้	-11.3234
ธํารง	-11.3234
>	-11.3253
ผนวช	-11.3253
▁ตึกบัญชาการ	-11.3253
▁แต่อย่างไรก็ตาม	-11.3253
มรสุม	-11.3272
เอเอฟซี	-11.3291
องครักษ์	-11.331
Japan	-11.331
ο	-11.3329
ó	-11.3444
ي	-11.3639
­	-11.3659
}	-11.3798
е	-11.3899
ن	-11.3899
の	-11.4249
ر	-11.4375
{	-11.4439
н	-11.4677
م	-11.4699
ς	-11.4764
ン	-11.4875
í	-11.5216
ν	-11.5712
à	-11.581
р	-11.5908
ī	-11.6032
ๅ	-12.5468
